<pad>	0
<bos>	0
<eos>	0
<unk>	0
▁the	-3.75902
,	-4.2148
▁of	-4.3987
▁and	-4.40254
▁to	-4.41995
.	-4.43291
s	-4.50657
ን	-4.50949
▁"	-4.65454
▁	-4.81538
▁,	-4.83758
ም	-4.9133
▁in	-4.95451
ና	-5.00781
▁።	-5.01995
▁.	-5.03381
▁a	-5.05082
▁that	-5.25869
።	-5.39719
▁you	-5.51641
▁for	-5.53999
ው	-5.54455
▁is	-5.5612
'	-5.61922
ት	-5.62531
▁(	-5.64703
▁የ	-5.66029
▁he	-5.66454
▁በ	-5.70705
▁ላይ	-5.71602
፣	-5.71898
▁will	-5.73157
ስ	-5.78228
▁his	-5.79979
▁be	-5.84497
▁with	-5.86879
▁not	-5.89823
▁it	-5.90908
▁ከ	-5.95123
ል	-5.98517
▁was	-6.02197
▁they	-6.02719
▁i	-6.03923
ር	-6.04369
፤	-6.06764
ለ	-6.07679
▁as	-6.07983
▁we	-6.10485
ed	-6.11072
▁jehovah	-6.12643
▁on	-6.13173
ረ	-6.13816
፥	-6.17202
▁have	-6.17421
▁፤	-6.17446
▁from	-6.17991
በ	-6.18247
▁'	-6.19192
ing	-6.19348
▁)	-6.21565
▁your	-6.23694
▁፣	-6.23842
▁are	-6.24095
▁ወደ	-6.25263
d	-6.26746
ሰ	-6.27836
ህ	-6.29186
▁ጊዜ	-6.3209
▁god	-6.32978
▁who	-6.35414
▁him	-6.36118
▁them	-6.36503
▁ነው	-6.37635
▁:	-6.38094
▁ለ	-6.38239
▁by	-6.39896
▁all	-6.40273
ቀ	-6.40542
▁their	-6.40968
:	-6.4218
▁this	-6.4349
መ	-6.43771
ከ	-6.45897
"	-6.46938
ታ	-6.47349
▁what	-6.47421
▁ይ	-6.48505
ራ	-6.50613
በት	-6.50735
▁ጋር	-6.51926
ተ	-6.52202
▁my	-6.52442
▁፥	-6.53375
▁ሁሉ	-6.53884
▁1	-6.54455
ገ	-6.55002
▁ውስጥ	-6.5562
ደ	-6.56595
▁but	-6.56705
ብ	-6.58034
▁one	-6.58381
▁ነገር	-6.59577
;	-6.6077
t	-6.62099
ድ	-6.62451
▁me	-6.63887
▁or	-6.64065
ሳ	-6.64468
i	-6.65288
ወ	-6.66384
ጠ	-6.66595
▁እንደ	-6.66708
?	-6.66842
▁ሰዎች	-6.68183
▁were	-6.69426
▁our	-6.69831
▁ሰው	-6.69841
ፈ	-6.69888
▁do	-6.70047
ላ	-6.70695
▁እንዲህ	-6.72146
ጥ	-6.72419
▁የሚ	-6.72455
ባ	-6.72629
▁when	-6.72922
▁መ	-6.73933
ቅ	-6.75271
▁so	-6.76701
▁people	-6.76807
▁us	-6.76957
▁ያህዌ	-6.78013
ይ	-6.78484
▁at	-6.78585
ክ	-6.79794
ly	-6.8078
▁said	-6.82211
ያ	-6.82431
▁has	-6.82906
▁had	-6.84091
a	-6.84871
ግ	-6.86778
▁ግን	-6.88509
ነ	-6.89008
▁፧	-6.89107
▁አምላክ	-6.89203
▁ስለ	-6.89329
ማ	-6.8997
▁አ	-6.90593
ጋ	-6.90851
▁?	-6.91643
▁አንድ	-6.91998
▁an	-6.92363
▁can	-6.93818
▁out	-6.94722
ዳ	-6.95287
▁ተ	-6.95601
ፍ	-6.96757
)	-6.97133
▁ወይም	-6.98319
e	-6.99275
▁I	-7.00329
c	-7.00966
▁ምን	-7.01618
er	-7.02208
▁ነው።	-7.02233
ች	-7.03193
p	-7.04955
ውን	-7.05129
ኝ	-7.06578
▁ነበር	-7.06784
ዘ	-7.07005
▁how	-7.08156
▁ቅዱስ	-7.08246
▁ይህ	-7.09059
▁would	-7.09845
▁if	-7.11042
▁up	-7.11265
▁may	-7.11556
."	-7.11658
▁And	-7.12133
ሉ	-7.12648
▁እንዲሁም	-7.13873
▁there	-7.15333
ጣ	-7.15448
▁ያ	-7.15811
▁እንዲ	-7.16092
n	-7.17023
▁about	-7.17133
▁those	-7.17363
▁እ	-7.19533
o	-7.19602
ዋ	-7.19841
▁jesus	-7.20237
ቸው	-7.22357
▁የተ	-7.22654
▁bible	-7.22667
የ	-7.23376
ቱ	-7.24143
▁ነበር።	-7.24821
▁her	-7.25399
▁no	-7.25721
ኩ	-7.26337
▁2	-7.27096
▁did	-7.27156
ካ	-7.27414
▁ደግሞ	-7.29288
b	-7.29298
▁በዚህ	-7.29551
▁በሗላ	-7.29749
▁man	-7.30035
ሽ	-7.30768
ቆ	-7.30951
▁ይህን	-7.31685
ዝ	-7.32435
▁3	-7.33157
▁ኢየሱስ	-7.33557
▁time	-7.34927
!	-7.35014
▁which	-7.35225
▁then	-7.36587
ዎች	-7.39126
ቃ	-7.39578
▁ቤት	-7.3987
▁also	-7.40164
▁በመ	-7.4229
▁ሲ	-7.4291
▁ት	-7.43615
▁4	-7.44092
ቁ	-7.4425
▁into	-7.4433
▁should	-7.44754
ሩ	-7.44866
▁because	-7.45239
▁ሊ	-7.45334
y	-7.45827
▁5	-7.4619
ፋ	-7.46284
▁ቃል	-7.46946
m	-7.47035
▁been	-7.47714
▁shall	-7.48136
▁life	-7.48867
▁day	-7.49302
▁ቀን	-7.49823
ቡ	-7.49869
▁12	-7.5042
▁እና	-7.50449
▁እንዴት	-7.50914
▁she	-7.51086
▁ስራ	-7.51281
▁እንደሆነ	-7.51428
▁some	-7.51708
▁make	-7.52125
ነት	-7.52353
አ	-7.52478
ኑ	-7.52671
▁ማ	-7.52777
▁መጽሃፍ	-7.53099
▁6	-7.53303
ንም	-7.53894
al	-7.54258
▁king	-7.54907
ሪ	-7.55366
▁መካከል	-7.55612
▁ልጅ	-7.55937
ሮ	-7.56181
▁over	-7.56657
▁መንገድ	-7.56843
▁like	-7.56847
▁made	-7.58091
▁after	-7.5827
▁ልጆች	-7.58646
▁other	-7.58704
▁;	-7.58747
▁things	-7.5931
▁10	-7.60134
▁more	-7.60179
ዱ	-7.6023
▁before	-7.6073
ባቸው	-7.61011
▁these	-7.61429
ዛ	-7.61705
▁ነው፧	-7.62106
ሱ	-7.62609
▁ከዚያም	-7.62995
▁15	-7.63154
▁son	-7.63548
▁many	-7.63602
▁!	-7.63607
▁11	-7.63765
▁ነገሮች	-7.63999
es	-7.64055
▁7	-7.64366
፧	-7.64751
▁its	-7.65
r	-7.65082
▁good	-7.65567
ሃ	-7.65873
▁8	-7.66267
▁እንደሚ	-7.66524
▁14	-7.6673
▁9	-7.66921
▁አይ	-7.67721
▁13	-7.6871
▁come	-7.69449
▁against	-7.70727
in	-7.70929
▁love	-7.7178
▁now	-7.72859
▁help	-7.73453
ቶ	-7.73586
▁The	-7.73672
g	-7.74232
▁even	-7.74402
u	-7.74875
ጸ	-7.75056
▁land	-7.75801
▁work	-7.75929
▁God	-7.76342
ህን	-7.76564
▁house	-7.7725
▁men	-7.77682
ጽ	-7.77876
ጉ	-7.7839
ሞ	-7.79188
ሙ	-7.79425
ንና	-7.79704
▁በማ	-7.79777
▁way	-7.79854
▁am	-7.81046
፡፡	-7.81282
▁ሆነ	-7.81631
▁ብዙ	-7.81797
▁could	-7.82267
▁see	-7.82435
▁19	-7.82713
▁ያለው	-7.82882
▁እኔ	-7.8295
▁17	-7.82982
▁Jehovah	-7.83112
▁በአ	-7.83289
▁came	-7.83594
▁ያለ	-7.83616
▁down	-7.83724
▁earth	-7.84003
ላቸው	-7.84055
▁unto	-7.84326
▁በሚ	-7.84338
▁any	-7.84396
l	-7.84516
▁ብቻ	-7.84538
▁go	-7.85367
▁know	-7.8559
▁take	-7.85612
at	-7.85921
ም።	-7.85973
▁በሙሉ	-7.86006
▁ሁኔታ	-7.8656
▁give	-7.86582
ሸ	-7.86602
re	-7.86688
▁16	-7.86727
k	-7.86784
ሻ	-7.86815
or	-7.87209
▁father	-7.87285
▁let	-7.87391
▁than	-7.87464
▁በጣም	-7.87824
—	-7.87878
▁ለመ	-7.879
▁does	-7.88332
ጨ	-7.88475
ኖ	-7.88528
▁such	-7.88665
እ	-7.89021
ic	-7.89097
ትን	-7.89159
▁say	-7.89379
▁ድረስ	-7.89442
ሁ	-7.89463
▁የመ	-7.89824
▁በመሆኑም	-7.90255
▁why	-7.90603
▁years	-7.90974
▁ቢ	-7.91766
▁ምድር	-7.92772
▁ቦታ	-7.92966
▁የሚያ	-7.93302
▁ስ	-7.93338
▁ታ	-7.93679
▁ማድረግ	-7.94228
▁first	-7.94412
▁ከዚህ	-7.94546
ar	-7.94629
▁two	-7.9535
▁እስከ	-7.95425
▁ከመ	-7.96495
▁እነዚህ	-7.96697
▁አል	-7.9678
▁put	-7.96798
▁18	-7.97056
f	-7.97208
▁hand	-7.97248
▁የያህዌ	-7.97675
ሎ	-7.97823
▁must	-7.9831
▁20	-7.98356
ሬ	-7.98425
▁israel	-7.99038
▁children	-7.99277
ጭ	-7.99961
▁ከሆነ	-8.00026
▁ፊት	-8.00096
ri	-8.00802
▁በተ	-8.0085
ለው	-8.01013
▁name	-8.01072
▁just	-8.01137
ፉ	-8.01191
▁እሱ	-8.01318
ኛ	-8.02059
▁ዘንድ	-8.02211
▁የአ	-8.02368
ሊ	-8.02394
▁ሆኖ	-8.02565
▁world	-8.02575
▁says	-8.02631
▁[	-8.02752
on	-8.03051
▁become	-8.0318
▁እየ	-8.03266
▁ሲሆን	-8.03722
▁own	-8.04125
▁place	-8.04284
ra	-8.04523
st	-8.04642
en	-8.04715
▁እንጂ	-8.05246
▁ሌላ	-8.05319
▁ያህል	-8.06806
ለት	-8.07011
▁through	-8.0763
▁great	-8.07818
▁heart	-8.07821
ችን	-8.08705
▁ባ	-8.09
ጡ	-8.09486
▁እንኳ	-8.09576
▁only	-8.09685
▁የአምላክ	-8.09701
▁እን	-8.09804
▁word	-8.09977
▁ህይወት	-8.10182
▁among	-8.10258
▁አት	-8.10269
ሚ	-8.105
it	-8.10526
▁where	-8.10609
▁went	-8.10655
▁faith	-8.11311
▁አስ	-8.11847
h	-8.12212
v	-8.12511
▁ሆኖም	-8.12848
▁ምንም	-8.13118
▁ሌሎች	-8.13123
▁away	-8.13308
]	-8.13778
ers	-8.14184
▁b	-8.14681
▁others	-8.15221
▁ወቅት	-8.15236
▁sons	-8.15317
ቻ	-8.16231
▁መንግስት	-8.16297
ል።	-8.16346
ዩ	-8.1638
▁ምሳሌ	-8.16601
▁አይነት	-8.17274
le	-8.17275
▁being	-8.17655
ዊ	-8.17701
▁ከተ	-8.17735
▁በማለት	-8.18546
▁ካ	-8.19004
ah	-8.19396
ተው	-8.19473
▁መሰረት	-8.20081
▁need	-8.20118
ረው	-8.2034
▁ይሁን	-8.20467
▁ንጉስ	-8.20541
▁ዘመን	-8.20727
an	-8.20787
▁well	-8.20824
ጀ	-8.21373
▁city	-8.21396
▁spirit	-8.21783
▁kingdom	-8.22232
▁keep	-8.2231
▁እንዳ	-8.23071
ቦ	-8.23179
▁new	-8.2335
▁የተነሳ	-8.23682
▁በላይ	-8.23986
▁አንዳንድ	-8.24175
▁every	-8.24236
▁ሲል	-8.24269
ation	-8.24433
▁days	-8.24458
▁saying	-8.24676
▁death	-8.24755
ሶ	-8.24957
▁የሆነ	-8.25181
▁አመት	-8.26084
▁ከሚ	-8.26121
ዋል	-8.26218
▁another	-8.26273
▁ይልቅ	-8.26545
ሌ	-8.26632
▁right	-8.26782
▁each	-8.26865
▁ጥሩ	-8.26872
w	-8.2698
ቷ	-8.27085
ኮ	-8.27096
▁በተጨማሪም	-8.27207
▁ፍቅር	-8.28151
ቴ	-8.28196
▁አንተ	-8.28503
▁ብሎ	-8.28589
ch	-8.28644
▁በፊት	-8.28993
▁(1	-8.29042
▁ሰ	-8.29464
ዶ	-8.29492
▁ይሁንና	-8.2987
▁person	-8.30933
▁ለማ	-8.30993
▁under	-8.31239
▁ሃ	-8.31326
▁ስለዚህ	-8.31411
▁ምክንያት	-8.32318
▁c	-8.32332
▁family	-8.32659
▁found	-8.32792
▁ጳውሎስ	-8.33054
▁true	-8.33292
▁upon	-8.33322
ጫ	-8.33517
ደር	-8.33772
▁ከአ	-8.33996
il	-8.34196
▁እንዲያ	-8.34677
▁brothers	-8.34975
▁ስም	-8.35266
ቢ	-8.35296
ነው	-8.35796
is	-8.36098
▁ተስፋ	-8.36374
▁holy	-8.36431
▁He	-8.3649
▁ነው፤	-8.36827
ዮ	-8.37135
▁የሆነው	-8.37206
▁ህዝብ	-8.37396
▁david	-8.38116
▁መሆን	-8.38123
▁ማለት	-8.38209
▁በዚያ	-8.3845
▁ምክንያቱም	-8.38599
▁ደግሞም	-8.38611
▁አለም	-8.3873
▁ያለውን	-8.3873
ቤ	-8.38833
▁paul	-8.39205
▁words	-8.39271
▁ከፍ	-8.39505
ቶች	-8.39567
▁while	-8.39739
▁o	-8.39745
▁law	-8.39835
ve	-8.4016
ፊ	-8.40865
▁እያ	-8.40966
▁gave	-8.41103
▁የማ	-8.41193
▁LORD	-8.41246
▁የመጽሃፍ	-8.41442
▁ያሉ	-8.41683
ችሁ	-8.41777
▁አሁን	-8.41937
▁took	-8.41961
▁given	-8.42272
ቲ	-8.42291
ኔ	-8.42292
▁back	-8.43068
▁21	-8.43105
▁እምነት	-8.43157
▁however	-8.43262
▁24	-8.43279
ion	-8.43325
▁young	-8.43652
▁አለ	-8.43693
▁congregation	-8.43853
▁ይበልጥ	-8.44047
▁ያስ	-8.44112
ላችሁ	-8.44455
▁የምት	-8.44676
▁እሱም	-8.44779
th	-8.44783
ታቸው	-8.44821
ጅ	-8.44902
▁year	-8.45042
▁መሆኑን	-8.45062
▁ሁለት	-8.45376
ቱን	-8.45464
▁might	-8.45582
el	-8.45675
000	-8.45917
▁ጥረት	-8.46034
ኒ	-8.46062
▁bring	-8.46371
▁end	-8.46586
▁ይሆዋ	-8.46604
▁example	-8.46657
ro	-8.46821
z	-8.46899
ur	-8.46958
ዎቹ	-8.47049
ሲ	-8.47178
▁እየተ	-8.47802
▁ይችላል	-8.48085
▁22	-8.48125
▁whom	-8.48508
▁በኩል	-8.48712
▁ለምንድን	-8.48806
ሯ	-8.48964
ment	-8.49226
▁ጌታ	-8.49291
▁ሃሳብ	-8.49329
▁በያህዌ	-8.49341
▁christ	-8.49505
/	-8.49757
▁ከተማ	-8.50343
▁ቢሆን	-8.50366
ቸውን	-8.5047
ገር	-8.50484
▁ጠ	-8.50484
▁But	-8.5056
▁ል	-8.50633
ሰራ	-8.50766
ቀር	-8.5117
▁very	-8.51463
ዙ	-8.51493
▁ክርስቲያኖች	-8.51561
▁became	-8.51622
▁እናንተ	-8.52047
▁long	-8.52219
te	-8.52238
▁set	-8.52268
the	-8.52377
ችው	-8.52575
ታል	-8.52849
▁today	-8.53033
▁use	-8.53117
▁ትምህርት	-8.53127
▁brought	-8.53159
▁read	-8.53268
▁አድርጎ	-8.53385
ሜ	-8.5346
▁ones	-8.53579
▁look	-8.53584
la	-8.53623
▁get	-8.53662
▁order	-8.54002
▁ናቸው	-8.5419
▁un	-8.54252
▁ይህም	-8.54481
▁የማይ	-8.54895
▁ሊያ	-8.54961
▁23	-8.55089
▁himself	-8.5518
▁ያህዌን	-8.55625
▁ሙሉ	-8.55632
▁እጅግ	-8.55647
▁p	-8.55828
▁thou	-8.56279
▁m	-8.56632
▁without	-8.56717
▁ለሚ	-8.56791
as	-8.56829
▁called	-8.56978
▁ከፍተኛ	-8.57071
▁most	-8.57137
መጣ	-8.57329
ዬ	-8.57567
▁according	-8.57692
▁እነሱም	-8.57948
▁A	-8.58108
ራቸው	-8.58109
▁Israel	-8.58145
▁ባለ	-8.58257
▁consider	-8.58753
▁much	-8.59097
▁መንፈስ	-8.59115
▁ህግ	-8.59153
▁g	-8.59578
▁together	-8.59832
ለሁ	-8.59853
▁sent	-8.59918
▁witnesses	-8.59927
▁show	-8.60001
▁ሳ	-8.60127
▁peace	-8.60567
▁find	-8.60948
▁ጉዳይ	-8.61059
▁re	-8.61197
በትን	-8.61263
▁አመታት	-8.61467
▁ነበር፤	-8.61575
▁ም	-8.61592
▁saw	-8.61647
▁truth	-8.61691
ጻ	-8.61745
▁አገልግሎት	-8.61967
▁brother	-8.62061
▁three	-8.62206
▁began	-8.62349
▁means	-8.62393
▁ታማኝ	-8.6246
▁offering	-8.62592
▁ይኸውም	-8.62609
▁same	-8.62786
▁told	-8.62958
ness	-8.63054
▁wife	-8.63057
▁ስለሚ	-8.63149
▁ታዲያ	-8.63385
ሆ	-8.6339
▁yet	-8.63399
▁part	-8.63449
▁ዘ	-8.63548
▁f	-8.64032
▁spiritual	-8.64188
▁ይላል	-8.64392
▁ዳዊት	-8.64461
ዋል።	-8.64582
ሴ	-8.64829
▁ወ	-8.65264
▁አገር	-8.65513
▁እንዳይ	-8.65526
▁ሳይሆን	-8.65599
▁For	-8.65724
▁ለማድረግ	-8.65918
▁ሴት	-8.65962
▁eyes	-8.66015
▁thy	-8.66087
▁ወንዶች	-8.66124
▁ምክር	-8.66243
ሆን	-8.66354
▁never	-8.66394
▁sin	-8.6646
▁የሰው	-8.66572
▁አን	-8.66947
▁times	-8.6706
በር	-8.67214
ቋ	-8.67427
▁መንፈሳዊ	-8.67451
▁ye	-8.67468
ir	-8.67507
▁war	-8.67804
▁still	-8.68174
▁feel	-8.68247
▁ደ	-8.68275
▁ብ	-8.68505
ሟ	-8.68736
▁መባ	-8.68901
▁አሳ	-8.69009
▁ይሆናል	-8.69093
▁until	-8.69154
▁nations	-8.69246
▁የሆኑ	-8.69366
ሪያ	-8.69398
▁again	-8.69463
▁lord	-8.69597
ወደ	-8.69696
ጃ	-8.69891
▁serve	-8.70078
ኘ	-8.70178
ሰማ	-8.7018
▁during	-8.70183
ኤ	-8.70185
▁30	-8.70412
ገኙ	-8.71007
▁25	-8.71012
▁የሆነውን	-8.7104
▁ሲያ	-8.71121
▁heard	-8.71206
▁moses	-8.7122
▁ፈ	-8.71308
am	-8.71384
▁መልካም	-8.71578
▁ላ	-8.71609
▁ልብ	-8.71637
▁በአምላክ	-8.71675
▁ሆይ፣	-8.71686
▁ምስክሮች	-8.7188
▁አንዱ	-8.72075
ባት	-8.72449
us	-8.72468
▁done	-8.72954
▁ማን	-8.73149
▁water	-8.73281
ia	-8.73369
▁both	-8.73453
able	-8.73884
ራት	-8.74035
▁ለማግኘት	-8.74057
ቹ	-8.74079
▁live	-8.74137
▁ሃይል	-8.74209
And	-8.74295
▁want	-8.74409
▁አስፈላጊ	-8.74771
ኣ	-8.74975
▁ሳይ	-8.75185
▁ለምሳሌ	-8.7532
ሮች	-8.75618
▁eat	-8.75642
▁28	-8.7574
ol	-8.75923
ኪ	-8.75953
▁off	-8.76097
▁ሊሆን	-8.76361
▁old	-8.76424
▁ን	-8.76468
ad	-8.76559
se	-8.76861
▁እኔም	-8.7705
▁ገ	-8.77206
▁fire	-8.77231
ያስ	-8.77498
▁christian	-8.7762
▁ውሳኔ	-8.77725
ቼ	-8.7801
▁john	-8.78035
▁service	-8.78085
ሰው	-8.78163
▁power	-8.78201
▁እንደሚያ	-8.78236
ነሳ	-8.78341
,"	-8.78408
ውም	-8.788
▁news	-8.78841
ቸ	-8.78871
▁ስር	-8.78912
ዴ	-8.78921
▁በምድር	-8.79195
▁አመለካከት	-8.79268
▁living	-8.79647
▁though	-8.79851
▁በአንድ	-8.79867
▁learn	-8.79939
ul	-8.79943
▁የአምላክን	-8.80048
ent	-8.8024
▁የእስራኤል	-8.8028
ብን	-8.80792
▁ታላቅ	-8.8093
▁አማካኝነት	-8.81044
▁በሌላ	-8.81048
▁ይችላል።	-8.81078
▁servants	-8.81087
▁ከማ	-8.81252
im	-8.81383
▁ደስ	-8.81411
▁እኛ	-8.81652
ሄ	-8.81752
▁ለያህዌ	-8.81911
▁የሚል	-8.81947
▁ከዚያ	-8.81986
ገቡ	-8.82093
▁government	-8.82452
▁woman	-8.82548
est	-8.82623
ላት	-8.82661
7	-8.82765
▁ስሜት	-8.8289
▁«	-8.83166
ሄድ	-8.83317
ም፤	-8.8361
▁left	-8.83636
ዲ	-8.83834
▁ሃጢአት	-8.83933
▁between	-8.83943
▁ጥ	-8.84386
▁since	-8.84393
▁ደረጃ	-8.84563
▁/	-8.84614
▁ትልቅ	-8.84714
▁t	-8.84849
▁ቀ	-8.8489
▁nor	-8.84931
um	-8.84938
▁አያ	-8.85096
▁ቅዱስን	-8.85126
▁speak	-8.85245
ናቸው	-8.85272
▁ስፍራ	-8.8531
ኦ	-8.85312
▁jerusalem	-8.85314
ሉ።	-8.85419
▁አላ	-8.85466
▁head	-8.85514
ሹ	-8.85614
ሏ	-8.85663
▁ክርስቶስ	-8.85935
ity	-8.8594
▁ጥያቄ	-8.85945
▁በርካታ	-8.86028
▁christians	-8.86146
▁ሰዎችን	-8.86322
▁መከራ	-8.86535
▁parents	-8.86589
▁ክፍል	-8.86706
▁ይሆናል።	-8.86721
▁ወንድሞች	-8.86965
▁ያላቸው	-8.87246
▁mother	-8.87293
ጦ	-8.87325
▁st	-8.87326
▁የምን	-8.87866
መረ	-8.87899
ል፤	-8.88077
▁ከባድ	-8.88095
▁አዲስ	-8.88188
▁ውሃ	-8.88225
▁እንድት	-8.88262
▁እነዚህን	-8.88404
▁መልስ	-8.88487
▁home	-8.88588
▁used	-8.8874
▁እነሱ	-8.88944
ሰብ	-8.89091
▁O	-8.89204
▁doing	-8.89322
▁ረገድ	-8.89686
▁later	-8.89836
▁ማንኛውም	-8.89904
▁themselves	-8.90475
ሀ	-8.90487
▁face	-8.90505
▁mind	-8.90709
▁hope	-8.90712
▁think	-8.90788
▁human	-8.91075
▁food	-8.9109
▁አካባቢ	-8.91235
▁Then	-8.9124
▁ቢሆንም	-8.91785
▁priest	-8.91791
»	-8.91843
▁መመሪያ	-8.91918
▁fear	-8.9229
▁እርምጃ	-8.92414
▁body	-8.92435
▁ኤ	-8.92458
▁እንዲሆን	-8.92517
ነጋ	-8.92588
▁too	-8.92625
▁አይደለም	-8.92638
▁መጠን	-8.92777
ወጡ	-8.92852
ቻቸው	-8.93029
ስት	-8.93202
▁ማግኘት	-8.93304
▁ጥቅም	-8.93527
▁wicked	-8.93744
▁ሰላም	-8.93822
▁blood	-8.94102
▁እንድን	-8.94128
▁ቤተ	-8.9416
▁fact	-8.94192
▁አምላክን	-8.94219
▁de	-8.94326
▁Jesus	-8.94491
ትና	-8.94515
▁እጅ	-8.9462
▁እንደማ	-8.94796
▁dead	-8.94898
▁27	-8.94913
be	-8.94935
▁heaven	-8.94964
▁So	-8.9511
▁የነበረው	-8.95274
▁በተመለከተ	-8.95275
▁turn	-8.95477
▁return	-8.955
▁አለው።	-8.95612
▁around	-8.95669
▁ግ	-8.95689
▁መብት	-8.95701
▁እስራኤላውያን	-8.95784
▁last	-8.95826
▁ምግብ	-8.95831
▁toward	-8.95901
ባል	-8.9607
ገል	-8.96322
▁ደስታ	-8.96325
▁here	-8.96347
▁country	-8.96613
▁አንቀጽ	-8.967
eth	-8.96713
▁ክፉ	-8.96729
▁high	-8.96741
if	-8.96766
ጠብ	-8.96949
▁full	-8.97005
▁እንዳለ	-8.97007
▁ከእሱ	-8.9736
▁ወር	-8.97395
ቸዋል	-8.97454
▁night	-8.97519
▁free	-8.97557
▁ሴቶች	-8.98241
▁ministry	-8.98321
▁ፈቃድ	-8.98327
▁እንድ	-8.98476
ተኛ	-8.98515
ለች	-8.98584
ናል	-8.98584
▁እርዳታ	-8.987
un	-8.9872
▁ሆነው	-8.98726
ma	-8.98797
less	-8.98836
ta	-8.99115
▁child	-8.99289
ጠራ	-8.99427
▁እግዚአብሄር	-8.99572
ልን	-8.99585
▁righteous	-8.9963
2	-8.99663
▁መስዋእት	-8.99724
▁ናቸው።	-8.99726
ገነ	-8.99975
ለህ	-9.00011
▁እሱን	-9.00031
ድር	-9.00032
▁40	-9.00032
ተር	-9.0021
▁ጉባኤ	-9.00269
ነግ	-9.00273
▁የም	-9.00417
መው	-9.00486
▁die	-9.00787
▁ምንድን	-9.00949
▁present	-9.01032
ll	-9.01035
▁ጥበብ	-9.01254
ne	-9.01271
▁We	-9.01359
▁ነጻ	-9.01398
▁In	-9.01446
▁ፈጽሞ	-9.01567
▁view	-9.01713
▁ገንዘብ	-9.01893
▁ክርስቲያን	-9.02086
ፈራ	-9.02153
▁hear	-9.02275
ሾ	-9.02364
▁ስት	-9.02452
▁therefore	-9.0249
▁disciples	-9.02595
▁አለው	-9.02621
▁believe	-9.02793
▁ሁሉም	-9.0282
▁satan	-9.02839
▁26	-9.02859
▁tell	-9.02889
to	-9.02913
ልኝ	-9.0303
ደው	-9.03039
▁ክ	-9.0331
▁ask	-9.03324
▁kept	-9.03417
▁ልዩ	-9.03469
▁በእሱ	-9.03477
▁አባላት	-9.03479
▁going	-9.03761
ን፣	-9.03816
▁ስላ	-9.03856
▁ደቀ	-9.03987
▁something	-9.04113
▁sea	-9.04227
▁ለምን	-9.04289
▁thee	-9.04318
ted	-9.04454
▁እውነት	-9.04543
▁መቶ	-9.04552
▁በእ	-9.04626
▁far	-9.04783
▁ways	-9.04851
▁hands	-9.04863
▁judah	-9.04922
▁"'	-9.05091
▁Lord	-9.05163
▁በሚያ	-9.05185
5	-9.05314
ies	-9.0535
▁money	-9.0541
▁ህዝቦች	-9.05576
መር	-9.05597
4	-9.05703
▁ሆይ	-9.05785
ጹ	-9.05792
▁faithful	-9.058
▁care	-9.05996
▁ዛሬ	-9.06039
▁important	-9.06067
▁በህይወት	-9.06098
ኤል	-9.06191
▁making	-9.06232
em	-9.06256
9	-9.06298
ጌ	-9.06327
▁bad	-9.06417
ous	-9.06525
▁known	-9.06707
▁የእ	-9.06774
▁ያም	-9.06861
▁በተያያዘ	-9.06891
▁አመ	-9.06925
▁cities	-9.06954
ላል	-9.07071
▁k	-9.07094
▁ሙሴ	-9.07117
▁having	-9.07138
▁መጥፎ	-9.07489
▁ባለው	-9.0749
▁stand	-9.07597
▁ሞ	-9.07642
▁በግ	-9.07648
▁nothing	-9.07669
▁rest	-9.0769
▁ነ	-9.07791
▁ለዘላለም	-9.07834
ንግ	-9.07877
ጠፋ	-9.08014
▁ቅ	-9.08021
▁ቋንቋ	-9.08249
ወር	-9.08488
▁number	-9.08622
ታል።	-9.08693
▁መዝሙር	-9.08788
▁able	-9.08829
ት።	-9.08829
▁ችግር	-9.08835
▁israelites	-9.08878
ህም	-9.08884
▁ሶስት	-9.09016
▁ትርጉም	-9.09068
▁study	-9.09204
▁ያሉት	-9.09251
▁በእርግጥ	-9.09334
▁ብለው	-9.09349
▁cannot	-9.09419
▁cause	-9.09455
▁የያህዌን	-9.09516
▁ጀምሮ	-9.09521
▁የስራ	-9.0977
ታችን	-9.09883
▁worship	-9.10143
▁በሆነ	-9.10153
▁along	-9.10502
▁ክብር	-9.10723
▁የሚያስ	-9.10744
▁taken	-9.10758
▁prayer	-9.10779
▁C	-9.10939
ጊ	-9.10993
▁የነበረ	-9.1102
ታው	-9.11023
▁husband	-9.11064
ሽን	-9.11067
▁አካል	-9.11068
▁ዘር	-9.11084
6	-9.11274
▁book	-9.11275
I	-9.11281
▁servant	-9.11382
▁ያል	-9.11458
▁ነበሩ	-9.11485
▁reason	-9.11541
ዎችን	-9.11666
▁P	-9.11743
▁seven	-9.11969
▁asked	-9.12291
ant	-9.12321
▁ever	-9.12427
፦	-9.12571
▁ፍ	-9.12631
▁always	-9.12689
▁e	-9.12726
ፈው	-9.12772
▁በዛሬው	-9.12807
▁They	-9.13008
ስራ	-9.13098
▁መስ	-9.13111
▁side	-9.13125
ደረግ	-9.13515
▁elders	-9.1354
▁ግንኙነት	-9.13808
▁ወንድም	-9.1382
▁ከያህዌ	-9.1392
▁kind	-9.14036
▁giving	-9.14166
ፎ	-9.1418
ጣቸው	-9.14284
▁29	-9.14581
ፈር	-9.14716
S	-9.14802
ገድ	-9.15018
ዚ	-9.15107
▁ድምጽ	-9.15119
▁አው	-9.15138
8	-9.15159
▁ቀደም	-9.15247
▁fine	-9.15493
ful	-9.15507
ወቅ	-9.15634
ውያን	-9.15673
ብኝ	-9.15679
▁ቤቱ	-9.15734
▁better	-9.15841
መጡ	-9.15857
▁ጴጥሮስ	-9.15894
▁hard	-9.16202
▁31	-9.16239
▁የሰ	-9.16296
▁really	-9.16354
▁coming	-9.16365
▁light	-9.16411
▁article	-9.16558
hi	-9.16562
▁ሚስት	-9.16591
▁heavens	-9.16592
ኛል	-9.16607
▁whether	-9.16629
▁ፍርድ	-9.16691
▁women	-9.16873
▁አዋጅ	-9.16938
▁understand	-9.17038
1	-9.17044
ሩት	-9.1711
ig	-9.17162
መል	-9.17189
▁listen	-9.17216
▁priests	-9.17246
ጁ	-9.17363
▁ቁጥር	-9.17369
ነገ	-9.17402
▁thus	-9.17437
▁anyone	-9.17444
▁close	-9.17622
▁four	-9.1766
▁ችሎታ	-9.17769
▁support	-9.17831
▁ኢ	-9.17836
ግባ	-9.17852
▁result	-9.17873
▁ፍሬ	-9.17894
▁በም	-9.17935
▁ድርጅት	-9.17978
ለሁ።	-9.18068
▁voice	-9.18101
ተን	-9.18409
▁joy	-9.18418
▁field	-9.18475
▁job	-9.1849
▁strong	-9.18631
▁በማድረግ	-9.18863
▁ለአምላክ	-9.1887
▁ትኩረት	-9.18907
ማር	-9.19143
▁course	-9.19157
▁continue	-9.19246
▁died	-9.19259
▁rather	-9.19282
▁አገልጋዮች	-9.19391
▁ሰይጣን	-9.19407
▁someone	-9.19498
▁future	-9.19532
▁መሆኑ	-9.19616
▁ተብሎ	-9.19784
▁ማንም	-9.19885
ገደ	-9.19943
▁እኛም	-9.19977
▁ስብሰባ	-9.2001
▁whole	-9.20143
▁second	-9.20414
▁ከተሞች	-9.20454
▁thing	-9.20559
▁respect	-9.207
▁following	-9.20738
▁wisdom	-9.20794
ጆ	-9.20819
ዳቸው	-9.20824
ru	-9.20909
▁ነገሮችን	-9.20918
▁የምንችለው	-9.20921
▁ማስ	-9.20983
▁receive	-9.20986
▁እንዲያውም	-9.21156
▁ምንጊዜም	-9.21239
ትም	-9.21358
▁written	-9.21367
▁ስርአት	-9.2163
▁although	-9.21879
▁organization	-9.22004
▁members	-9.22083
▁አለ።	-9.22115
▁በመጽሃፍ	-9.22121
ting	-9.22145
▁soon	-9.22256
▁fellow	-9.22266
▁ለተ	-9.22308
▁altar	-9.22329
▁It	-9.22432
▁near	-9.22489
3	-9.22567
▁አሉ	-9.22676
▁gold	-9.22821
▁witness	-9.22852
▁ይቅር	-9.229
▁የምታ	-9.22959
▁public	-9.23033
▁follow	-9.23106
▁ድ	-9.23278
▁remain	-9.23278
▁በር	-9.23281
ባችሁ	-9.23311
▁often	-9.23358
ታችሁ	-9.23529
▁እስኪ	-9.23561
▁አንዲት	-9.23685
▁marriage	-9.23691
▁form	-9.23771
▁ለዚህ	-9.23823
ሰጠው	-9.23838
▁seen	-9.23959
▁control	-9.24169
▁እውነተኛ	-9.24185
ites	-9.2422
▁ከመሆኑም	-9.24382
A	-9.24536
▁questions	-9.24596
ዞ	-9.24732
▁wrote	-9.24742
▁little	-9.24766
▁አሁንም	-9.24812
▁T	-9.24995
ኳ	-9.25072
▁language	-9.25103
▁እስቲ	-9.2514
▁ኮ	-9.25183
▁within	-9.25399
▁ከአምላክ	-9.25414
▁answer	-9.25417
▁ትእዛዝ	-9.25427
ian	-9.2543
ሄዱ	-9.25434
▁pass	-9.25438
▁ስጦታ	-9.25503
▁ሚ	-9.25616
▁purpose	-9.25671
▁ከእነሱ	-9.25712
ታቸውን	-9.25785
ልህ	-9.25854
ሉ፤	-9.25877
▁next	-9.26139
▁በግልጽ	-9.26147
▁ተሰ	-9.26195
▁መጣ	-9.26253
▁meeting	-9.26455
▁32	-9.2647
do	-9.26537
ራችሁ	-9.26557
ማቸው	-9.26681
▁ልት	-9.26773
▁ፍላጎት	-9.26878
▁ለውጥ	-9.2689
▁yes	-9.26893
▁glory	-9.27013
▁remember	-9.27132
▁loyal	-9.27208
▁covenant	-9.27283
▁S	-9.27331
▁peter	-9.27403
▁few	-9.27697
ሳቸው	-9.27817
▁ልክ	-9.27857
▁benefit	-9.27894
▁እርስ	-9.27942
▁መጀመሪያ	-9.28289
ጠሩ	-9.28454
▁ሽማግሌዎች	-9.28502
ጂ	-9.28576
▁acts	-9.28596
ና።	-9.28619
ኞች	-9.28639
▁sword	-9.28854
▁33	-9.28865
▁መልእክት	-9.2894
ሚያ	-9.29094
▁humans	-9.29148
▁praise	-9.29355
▁cor	-9.29379
▁አላማ	-9.29435
▁ገና	-9.2964
▁wrong	-9.29752
ling	-9.29765
▁አጋጣሚ	-9.29795
▁different	-9.29824
▁ኣመት	-9.29891
▁ርእስ	-9.3003
▁ኦ	-9.3008
▁temple	-9.30169
▁አባት	-9.30198
▁daughter	-9.3047
▁desire	-9.30494
▁forever	-9.30585
▁bread	-9.30593
▁ባሪያ	-9.306
▁ተከ	-9.30618
▁(2	-9.30686
ጤ	-9.30716
▁apostle	-9.30754
ገሩ	-9.30926
▁knowledge	-9.31009
▁ተገ	-9.31075
ዎ	-9.31094
▁got	-9.31155
ite	-9.31318
▁Moses	-9.31362
▁ግልጽ	-9.31513
ab	-9.31574
▁preaching	-9.31607
▁ያሉትን	-9.31622
ath	-9.31728
ሞት	-9.31847
በሩ	-9.31875
▁wise	-9.31889
▁whose	-9.31893
▁case	-9.31895
▁ሁኔታዎች	-9.31915
▁yourself	-9.32212
▁አብ	-9.32308
ga	-9.32393
▁አገሮች	-9.32434
▁ሃላፊነት	-9.32452
▁ህዝቡ	-9.32462
▁offer	-9.32511
▁call	-9.32568
▁በእስራኤል	-9.32685
▁ጥያቄዎች	-9.327
▁account	-9.32749
▁ተጽእኖ	-9.32926
▁n	-9.33031
▁ground	-9.33141
▁court	-9.33141
ናል።	-9.3322
▁lead	-9.33256
ዜ	-9.33409
ቄ	-9.33426
▁አር	-9.33539
▁ስልጣን	-9.33615
▁drink	-9.33658
▁ዮሃንስ	-9.33687
▁የነበሩት	-9.33736
▁ደም	-9.33741
▁ሞት	-9.33779
▁You	-9.33874
▁con	-9.33918
▁ቀናት	-9.34002
ረድ	-9.34003
▁best	-9.34051
▁leave	-9.34071
j	-9.34205
▁ራሱን	-9.34324
▁መሳሪያ	-9.34464
የው	-9.34622
▁ሳለ	-9.34729
▁sacrifice	-9.34731
▁የለም	-9.34799
▁system	-9.34879
▁ውጭ	-9.34923
▁ስለሆነ	-9.34955
▁five	-9.35026
▁ያሳ	-9.35047
▁flesh	-9.35135
▁ቁ	-9.35142
▁army	-9.35261
▁ይሰ	-9.35309
▁ጠቃሚ	-9.35362
▁message	-9.35466
▁ዙሪያ	-9.3554
▁joseph	-9.35613
ቶቹ	-9.35736
he	-9.35839
ኛው	-9.35957
ፕ	-9.36005
▁መኖር	-9.36057
▁ብሏል	-9.36058
▁እለት	-9.36122
ኖች	-9.36149
▁office	-9.36159
▁ይሆን	-9.36244
▁abraham	-9.36352
ባለ	-9.36621
▁37	-9.36657
▁ጦርነት	-9.36665
▁please	-9.36676
▁ከዚህም	-9.36705
ጠላ	-9.36826
▁dis	-9.36893
▁share	-9.36907
▁matter	-9.37032
▁ድርጊት	-9.37096
▁once	-9.3712
▁ተገቢ	-9.37159
▁እድሜ	-9.372
▁በሰማይ	-9.37471
▁righteousness	-9.37496
▁የወ	-9.37651
▁መስጠት	-9.37654
ዋለሁ	-9.37792
▁ዮሴፍ	-9.38012
▁አንስቶ	-9.38072
ጠቀም	-9.38073
▁kings	-9.38119
ችንን	-9.38311
ቢያ	-9.38518
ኙ	-9.3867
▁አልተ	-9.38682
▁sheep	-9.38754
ው።	-9.38968
▁ማወቅ	-9.38975
▁possible	-9.38981
▁ጋ	-9.39055
▁works	-9.39209
▁church	-9.39237
ሰጥ	-9.39241
▁ውድ	-9.39242
▁እንችላለን	-9.39242
▁አታ	-9.3925
▁ነበሩ።	-9.39275
▁anointed	-9.39307
▁ሀ	-9.39313
▁እያንዳንዱ	-9.39373
▁ተቀ	-9.39401
x	-9.39461
ry	-9.3955
ዳን	-9.39721
ge	-9.3995
▁received	-9.40128
▁school	-9.40207
▁ንጹህ	-9.40361
▁sound	-9.40441
▁comes	-9.4055
▁w	-9.40555
▁act	-9.40705
▁health	-9.40769
▁egypt	-9.40816
ቿ	-9.40825
▁felt	-9.40826
▁እስራኤል	-9.40833
▁pray	-9.40904
▁th	-9.40954
▁የሚለው	-9.40997
▁ብር	-9.41005
▁mouth	-9.41058
ባቸውን	-9.41087
▁disclosed	-9.41214
▁34	-9.41369
▁ኪዳን	-9.41454
▁trust	-9.4146
▁ይችላሉ	-9.41462
▁H	-9.4148
mp	-9.41565
▁ያእቆብ	-9.4157
▁fall	-9.41589
▁ይመ	-9.41692
▁month	-9.41838
▁ከጊዜ	-9.41883
▁አድርገው	-9.41919
ልክ	-9.42021
▁በል	-9.42053
▁happy	-9.42223
ጧ	-9.42467
▁ጉ	-9.4248
▁ተጠ	-9.4254
▁commanded	-9.42648
▁ፈቃደኛ	-9.42862
ክል	-9.42873
▁ብት	-9.42885
▁አንተም	-9.42888
▁የኢትዮጵያ	-9.4296
▁ዋና	-9.42974
ኝ።	-9.43013
▁ተመ	-9.43037
▁በየ	-9.43086
ዋን	-9.43093
ንድ	-9.43189
▁50	-9.43232
▁ወደፊት	-9.43304
▁ይዞ	-9.43323
rs	-9.43352
▁አይደለም።	-9.43377
▁3:	-9.43399
▁question	-9.43537
▁ወላጆች	-9.43734
▁በዳ	-9.43845
▁ብሄራት	-9.43871
▁indeed	-9.43897
ቸዋል።	-9.43921
▁የሚገኙ	-9.44007
▁ጥፋት	-9.44044
▁enjoy	-9.44056
▁እንዳለው	-9.4424
▁ው	-9.44454
▁G	-9.44529
▁large	-9.44619
▁ሲሉ	-9.4464
▁David	-9.44699
nce	-9.44706
▁scriptures	-9.44735
▁F	-9.44842
▁አም	-9.44884
▁gift	-9.44895
▁tent	-9.45
▁enemies	-9.45022
ha	-9.45122
▁አብርሃም	-9.45145
▁መጻህፍት	-9.45159
▁learned	-9.45204
▁የተለያዩ	-9.45347
▁everything	-9.45347
▁prophet	-9.45347
ስብ	-9.45415
▁decision	-9.45467
ነቱ	-9.45554
ዎቹን	-9.45978
▁በአሁኑ	-9.45998
ke	-9.46037
!"	-9.4605
▁instead	-9.46079
▁hold	-9.46092
▁hath	-9.46097
▁avoid	-9.46243
▁nation	-9.46248
▁age	-9.46251
▁helped	-9.46255
ጡት	-9.46364
ቧ	-9.46488
▁ራእይ	-9.46603
▁እውቀት	-9.46696
▁ten	-9.46716
▁ስጋ	-9.46776
▁ከእነዚህ	-9.46798
▁security	-9.46818
▁የሆኑት	-9.46994
▁ሸ	-9.47011
▁ማለትም	-9.47101
▁When	-9.47122
▁የተሻለ	-9.47234
▁ታሪክ	-9.47242
▁real	-9.47392
በሉ	-9.47506
▁lives	-9.47521
▁experience	-9.47605
▁friends	-9.47676
ኗ	-9.47725
ho	-9.47856
▁በእርግጥም	-9.4789
▁አደጋ	-9.47966
man	-9.48068
ሃል	-9.48116
▁send	-9.48142
▁ወጣት	-9.48142
▁accept	-9.48157
ለሁ፤	-9.48177
ኬ	-9.48357
▁አስተ	-9.48456
ብህ	-9.48463
▁ጉዳት	-9.48497
▁open	-9.4853
E	-9.48775
▁E	-9.48791
ty	-9.48843
ሷ	-9.48884
▁ንጉሱ	-9.4899
▁ጨምሮ	-9.4915
▁v	-9.49168
▁መር	-9.49231
▁አሰ	-9.49377
ፈጸሙ	-9.49491
ደግ	-9.49676
▁ቢያ	-9.49817
▁situation	-9.49919
ከፍ	-9.49933
ለች።	-9.50047
▁spoke	-9.5009
ደስ	-9.50092
▁ትንቢት	-9.50167
▁thought	-9.50273
ሎች	-9.50342
▁አላቸው	-9.50346
▁ከእኔ	-9.50382
▁knew	-9.50508
age	-9.50551
▁needed	-9.50552
▁serving	-9.50593
▁አሊያም	-9.50679
▁ምግባር	-9.50758
▁strength	-9.50904
▁bear	-9.50922
▁special	-9.50936
በቃ	-9.51051
▁favor	-9.5126
▁anything	-9.5128
▁ሃዋርያው	-9.51309
▁turned	-9.51322
all	-9.51339
▁build	-9.51507
▁report	-9.51743
▁change	-9.5181
ጥር	-9.51824
▁personal	-9.5185
▁carry	-9.51862
▁foreign	-9.51939
▁makes	-9.52242
▁እንደሚችል	-9.5232
ቀድ	-9.52324
▁እርሱ	-9.52358
▁አልፎ	-9.52457
ቀበል	-9.52471
ai	-9.5254
ጠመ	-9.52711
▁honor	-9.52754
▁anger	-9.52755
ባር	-9.528
ያህ	-9.5281
▁problems	-9.52947
▁የቀ	-9.53081
▁የነበሩ	-9.53094
▁መሬት	-9.53107
▁ባይ	-9.53107
▁ቤተሰብ	-9.5313
▁አጥ	-9.53157
▁ተግባራዊ	-9.53192
▁century	-9.5328
▁small	-9.5328
▁የጦር	-9.53337
▁taking	-9.53368
▁ችግሮች	-9.53456
▁ወንድ	-9.53467
▁ካለ	-9.53488
▁moved	-9.53634
▁የነበረውን	-9.53757
▁sister	-9.53949
▁states	-9.53955
ግብ	-9.54059
▁attention	-9.54073
▁ourselves	-9.54073
▁If	-9.54126
▁started	-9.54136
▁evil	-9.54251
▁shalt	-9.54339
▁walk	-9.54359
ሙት	-9.54381
▁ነኝ	-9.54423
▁relationship	-9.54429
▁raised	-9.54438
▁co	-9.54546
▁speaking	-9.54568
▁አድ	-9.5467
▁including	-9.54695
▁ልን	-9.54732
ብር	-9.54763
▁mankind	-9.54784
▁ራስ	-9.54837
▁የሚችል	-9.54967
▁ሁልጊዜ	-9.55052
▁አደረገ	-9.55167
▁ልጁ	-9.55181
▁ከሞት	-9.55298
▁teaching	-9.55317
ring	-9.55335
▁surely	-9.55338
▁ትክክለኛ	-9.55354
▁wanted	-9.55368
▁ሰአት	-9.55428
?"	-9.55481
▁silver	-9.555
▁mean	-9.55561
▁certain	-9.5557
▁እኔን	-9.55592
መለስ	-9.55687
▁feet	-9.55698
▁ስህተት	-9.5577
▁ሰራዊት	-9.5586
▁continued	-9.56043
▁አላቸው።	-9.56131
▁enter	-9.56186
▁morning	-9.56221
▁ኖሮ	-9.56223
▁ተራራ	-9.56235
▁እሳት	-9.56297
▁kindness	-9.56339
▁early	-9.56441
▁oil	-9.56481
▁conduct	-9.56544
▁ተጨማሪ	-9.56557
▁ለማስ	-9.56585
▁እንደሆኑ	-9.56675
ከር	-9.56797
▁በአል	-9.56806
▁መንገዶች	-9.56947
▁As	-9.57038
▁born	-9.57057
▁judgment	-9.57129
▁መልሶ	-9.57131
▁በዚያም	-9.57265
▁እንዲሁ	-9.57343
ጮ	-9.57387
▁teach	-9.57399
▁neither	-9.57404
▁clear	-9.57477
tion	-9.57565
▁35	-9.57574
▁አለቃ	-9.57623
▁r	-9.57677
▁sense	-9.5769
▁try	-9.57706
▁በሚገባ	-9.57779
▁መረጃ	-9.57798
▁luke	-9.5803
▁ክንድ	-9.58064
q	-9.5822
▁ጥቂት	-9.58231
▁slave	-9.58233
▁authority	-9.58234
▁talk	-9.58269
▁ቦታዎች	-9.58285
▁matthew	-9.58301
▁ስለነበር	-9.58324
▁This	-9.58325
▁saul	-9.58331
▁region	-9.58363
▁sure	-9.58424
▁ባል	-9.58596
ine	-9.58606
▁clean	-9.58643
▁ethiopian	-9.58659
▁በስራ	-9.58723
ፈጸም	-9.58743
▁named	-9.58773
ፒ	-9.58787
▁ሰባት	-9.58823
▁በእኔ	-9.58845
▁በመሆኑ	-9.5889
▁don	-9.59013
me	-9.59054
▁በዚያን	-9.59184
▁በኢየሩሳሌም	-9.59198
▁fruit	-9.59234
▁ዋጋ	-9.59269
▁ዜና	-9.59324
▁ጥቃት	-9.59346
▁የወይን	-9.59448
▁ma	-9.5949
▁move	-9.5953
▁especially	-9.59532
▁ከእናንተ	-9.59577
▁point	-9.59598
▁መዛሙርቱ	-9.59601
▁4:	-9.59628
ጣት	-9.59766
▁above	-9.59813
▁የበላይ	-9.59813
▁Re	-9.59992
▁perhaps	-9.60094
▁car	-9.60101
ድን	-9.60115
▁ራሳቸውን	-9.6013
ward	-9.60142
▁Christ	-9.60273
ጩ	-9.60283
▁አንዳንዶች	-9.60283
▁የኢየሱስ	-9.60327
▁burnt	-9.60336
▁pay	-9.60357
▁እንግዲህ	-9.60373
▁ልብስ	-9.60382
▁third	-9.60471
pa	-9.60572
▁l	-9.60582
▁ለሌሎች	-9.60591
▁comfort	-9.60612
▁deep	-9.60613
▁inheritance	-9.6066
▁sins	-9.60729
▁ማሳየት	-9.60759
ረክ	-9.60772
▁stay	-9.61209
▁ያን	-9.61298
▁እርግጥ	-9.61324
▁self	-9.61508
ors	-9.6156
men	-9.61588
▁እያለ	-9.61609
▁ማየት	-9.61665
▁wine	-9.61679
▁ብርሃን	-9.61741
▁ቀላል	-9.61829
▁በአለም	-9.61907
▁ሉቃስ	-9.61921
ያው	-9.61923
▁እንደገና	-9.61929
▁ምስክር	-9.62034
▁ሌላው	-9.62057
▁ሌሎችን	-9.62076
ቴን	-9.62095
▁loving	-9.62266
▁አባ	-9.62286
▁information	-9.62289
▁ብዙዎች	-9.62322
▁lot	-9.62335
led	-9.62377
▁counsel	-9.62377
▁2:	-9.62457
▁friend	-9.62576
ቦች	-9.62595
▁united	-9.62705
O	-9.62711
▁1:	-9.62748
▁material	-9.62763
▁Article	-9.62778
▁command	-9.62808
▁appointed	-9.62821
▁አራት	-9.62934
▁ተመሳሳይ	-9.62956
oth	-9.62968
▁እንደነበር	-9.63053
ና፤	-9.63144
▁ወጣቶች	-9.63193
▁ጠንካራ	-9.63247
▁yourselves	-9.63344
▁poor	-9.63344
▁provide	-9.63521
አል	-9.63528
▁past	-9.63575
ሺ	-9.63649
ish	-9.63684
▁answered	-9.63764
▁ጉዳዮች	-9.63792
▁myself	-9.63928
▁መዝ	-9.63941
▁እነሱን	-9.63984
▁ቅዱሳን	-9.63998
▁difficult	-9.64014
▁ዝግጅት	-9.64026
and	-9.64153
ደርስ	-9.64252
▁returned	-9.64269
▁meet	-9.64315
▁false	-9.6432
ፉት	-9.64492
▁already	-9.64614
የት	-9.64617
▁ኢያሱ	-9.6475
ርግ	-9.64937
ሪዎች	-9.64938
▁ከአንተ	-9.64969
▁ወዲያውኑ	-9.65035
▁wilderness	-9.65108
▁በሗላም	-9.65184
ክስ	-9.65294
▁ይበ	-9.65363
▁angel	-9.65398
ary	-9.65407
▁በስተ	-9.65428
▁camp	-9.65481
▁minister	-9.65493
▁የሚኖሩ	-9.65547
▁ህዝቡን	-9.65595
▁d	-9.65622
▁በመንፈስ	-9.65652
ተካ	-9.65683
▁force	-9.65714
ርስ	-9.6573
▁mr	-9.65731
▁በደ	-9.65735
▁jacob	-9.65802
▁cut	-9.65819
▁certainly	-9.65825
▁justice	-9.6593
▁killed	-9.65968
▁watch	-9.65997
▁ኢየሩሳሌም	-9.66016
ቆጣ	-9.66032
▁ጸሎት	-9.66049
The	-9.66121
▁chief	-9.66204
▁meetings	-9.66237
▁እንድታ	-9.66259
▁working	-9.66262
ሳት	-9.66275
▁መሪ	-9.66306
▁ፊ	-9.66536
▁100	-9.66594
▁መሰረታዊ	-9.66643
▁ይፈ	-9.6668
▁እናንተም	-9.66681
▁greater	-9.66706
▁የሚገኘው	-9.66757
▁held	-9.66807
▁በእነዚህ	-9.67101
▁ምላሽ	-9.67105
▁ራሱ	-9.67108
▁5:	-9.67175
▁በምት	-9.67187
ቀጠ	-9.67208
▁male	-9.67242
ይን	-9.6727
▁የሚችለው	-9.67307
ዊው	-9.67396
▁solomon	-9.67408
▁loved	-9.6763
▁prison	-9.67783
▁master	-9.67813
ውንም	-9.67907
ጥሩ	-9.6791
▁አፍ	-9.6796
▁ወዲህ	-9.68017
▁የሚጠ	-9.68105
▁psalm	-9.6818
▁jews	-9.68209
▁መታ	-9.68232
▁36	-9.68248
▁ብዬ	-9.68278
▁sun	-9.68341
ቤት	-9.68354
ሰሙ	-9.68366
▁longer	-9.68403
▁gives	-9.68509
▁babylon	-9.68517
▁armies	-9.68531
▁save	-9.68555
ገዛ	-9.686
▁ትክክል	-9.68629
▁tree	-9.68658
▁ያደረገው	-9.68675
▁በመሆን	-9.68696
ዘር	-9.68767
▁spoken	-9.68927
▁ኢዮብ	-9.68955
▁Proclamation	-9.69039
ቃቸው	-9.69083
▁stone	-9.69146
▁issue	-9.69199
ከል	-9.69314
▁military	-9.69452
እኔ	-9.69544
▁grain	-9.69555
▁አምስት	-9.69575
▁ከሌሎች	-9.69598
▁seek	-9.69601
▁judge	-9.69686
▁based	-9.69709
▁ይገባል	-9.69713
▁officials	-9.69734
▁mercy	-9.69969
▁የባ	-9.69992
▁መን	-9.70237
▁promise	-9.70244
▁needs	-9.70301
▁ያደርጋል	-9.70323
▁ተወ	-9.70325
▁led	-9.70334
▁በሰ	-9.70428
ሁት	-9.70438
▁አባል	-9.70472
lu	-9.70512
▁አጋ	-9.70548
ዬን	-9.70564
▁places	-9.70621
▁sub	-9.70631
▁በሌሎች	-9.70649
▁በቅርቡ	-9.70699
you	-9.70754
▁ምልክት	-9.70803
▁እቃ	-9.70873
ዘን	-9.70894
▁ha	-9.70905
ቀመጥ	-9.70949
▁front	-9.71012
▁ነህ	-9.71108
ተኞች	-9.71194
▁አንድነት	-9.71207
▁ዮሃ	-9.71255
▁promised	-9.71308
▁provided	-9.71322
▁በራሱ	-9.71332
▁understanding	-9.71362
▁guard	-9.71469
▁ለማወቅ	-9.71477
▁matt	-9.71524
▁draw	-9.71524
▁አምልኮ	-9.71644
▁ያላቸውን	-9.71656
ውና	-9.71668
▁በሆነው	-9.71739
ረት	-9.71747
▁ኣ	-9.71782
▁ተመልከት	-9.71823
▁likely	-9.71955
▁ምርጫ	-9.71961
▁sign	-9.71968
▁protect	-9.72045
no	-9.7206
▁ፍጹም	-9.72067
▁የሚያሳይ	-9.72148
▁stop	-9.72173
▁መሰዊያ	-9.72228
▁የዚህ	-9.72274
▁ከሁሉ	-9.72291
▁allow	-9.72386
▁ውጤት	-9.72492
▁ባህርያት	-9.72495
▁six	-9.72577
▁alone	-9.72604
▁birth	-9.72812
▁heavenly	-9.72945
አቸው	-9.72983
▁ደብዳቤ	-9.73025
▁grow	-9.73044
▁behind	-9.73132
▁everyone	-9.73156
▁thinking	-9.73275
ታዊ	-9.73356
▁j	-9.73381
▁መሪዎች	-9.73408
▁forefathers	-9.73452
▁ሰራ	-9.73504
ገና	-9.73547
▁ትንሽ	-9.73573
ቀጥ	-9.73595
▁መሰ	-9.73607
han	-9.73649
▁interest	-9.7365
▁activities	-9.73669
ችሁን	-9.73696
▁የሚቆጠሩ	-9.73715
▁ancient	-9.73777
▁resurrection	-9.7378
ure	-9.73856
ድረ	-9.73862
መላ	-9.73862
▁መንግስታት	-9.74036
ረጉ	-9.74037
ነሱ	-9.74077
▁speech	-9.74101
▁በብዙ	-9.74102
▁ቃላት	-9.74102
▁possession	-9.74114
▁የበለጠ	-9.74209
▁angels	-9.74217
▁rule	-9.74233
▁የይሁዳ	-9.74294
▁unclean	-9.74304
▁ድጋፍ	-9.74318
▁evidence	-9.74426
we	-9.74471
▁ቤቶች	-9.74474
▁ስሜ	-9.74516
▁families	-9.74535
▁ዛፍ	-9.7465
▁forth	-9.74667
▁ልጆቹ	-9.7474
▁battle	-9.74752
▁adam	-9.74756
▁ይገ	-9.74771
ነታቸው	-9.74843
▁hearts	-9.74903
▁destroy	-9.74967
▁አጠገብ	-9.74973
▁ነገስታት	-9.74994
▁አንዳንዶቹ	-9.75021
▁ባህር	-9.75037
▁soul	-9.75051
▁suffering	-9.75108
▁በጉባኤ	-9.75145
ps	-9.75254
▁ማስተዋል	-9.75288
▁ኢሳይያስ	-9.75369
▁ሰጠ	-9.75488
ለሱ	-9.7551
▁al	-9.75607
▁south	-9.75627
▁tribe	-9.75739
▁መግለጫ	-9.75847
▁statement	-9.75865
red	-9.75911
▁የመንግስት	-9.75937
▁ነው፡፡	-9.75944
▁students	-9.75998
ደራ	-9.75998
▁እንደምት	-9.76007
▁የሚለውን	-9.76097
ሩን	-9.762
▁6:	-9.76254
▁ሙሴን	-9.76425
▁ሆኑ	-9.76436
ሮቹ	-9.76451
▁fight	-9.76528
▁business	-9.7662
▁የመጀመሪያው	-9.76626
▁ለእሱ	-9.7669
▁አቶ	-9.76712
▁ወጣ	-9.76735
▁ላለ	-9.7675
▁decisions	-9.76788
▁created	-9.76822
▁necessary	-9.76954
ች።	-9.76976
▁truly	-9.77065
ial	-9.7709
ሞች	-9.77147
▁አስደሳች	-9.77177
▁prophets	-9.77235
▁isaiah	-9.77252
▁thousand	-9.77308
▁ድል	-9.77352
ver	-9.77486
▁ሞገስ	-9.77513
▁ለመሆን	-9.77517
▁ቆሮ	-9.77517
▁whatever	-9.7753
▁group	-9.77534
▁የምድር	-9.77546
▁አይሁዳውያን	-9.77573
▁ያዘ	-9.77631
▁U	-9.77649
▁ቡድን	-9.77849
▁K	-9.77894
▁በረከት	-9.77961
▁regarding	-9.78108
▁ማር	-9.78115
▁test	-9.78163
▁በወቅቱ	-9.78186
▁አመራር	-9.78299
▁clearly	-9.78321
▁visit	-9.78409
▁11)	-9.7842
▁ark	-9.78422
ውል	-9.785
▁መቅደሱ	-9.78524
▁የሚያስችል	-9.78543
ኛል።	-9.78545
▁political	-9.78637
ፈሩ	-9.78671
▁ወገን	-9.78749
▁ሲባል	-9.78776
▁songs	-9.78806
▁ሃብት	-9.7888
▁tim	-9.78933
▁በእነሱ	-9.78966
▁religious	-9.79091
▁ነገድ	-9.79225
▁dwell	-9.79231
▁u	-9.79467
▁የአለም	-9.79502
▁waters	-9.79544
ን፧	-9.79585
▁የምና	-9.79607
▁እዚህ	-9.79662
▁months	-9.79662
▁ለመስጠት	-9.79697
▁አክብሮት	-9.79706
▁concerning	-9.79769
ዟ	-9.79771
▁የለም።	-9.79828
ዌ	-9.79865
▁10)	-9.79932
ጠጣ	-9.79933
▁baptized	-9.80017
▁በሽታ	-9.80097
ት፤	-9.80309
▁ሽ	-9.80322
▁mentioned	-9.80338
sha	-9.80343
▁ጊዜም	-9.80347
▁በደል	-9.80375
መዝ	-9.80506
▁alive	-9.80521
▁religion	-9.8058
▁8)	-9.80689
har	-9.80831
▁declares	-9.81104
▁ማንኛውንም	-9.81209
▁former	-9.81221
▁አብዛኞቹ	-9.81251
▁ድንኳኑ	-9.81275
▁መመሪያዎች	-9.81323
▁daughters	-9.81356
▁perfect	-9.8137
▁ኢትዮጵያ	-9.81374
▁B	-9.81392
▁የተለየ	-9.81394
▁ካለው	-9.81439
▁everlasting	-9.81508
▁stood	-9.81516
▁38	-9.81611
▁request	-9.81636
▁አስደናቂ	-9.81741
▁north	-9.81798
ቪ	-9.81891
▁4)	-9.81936
▁throughout	-9.81991
▁Now	-9.81997
▁የለውም	-9.82036
▁200	-9.82039
▁ሮም	-9.82071
▁married	-9.82092
▁passed	-9.8213
▁rejoice	-9.82137
▁evening	-9.8219
▁direction	-9.8222
▁sisters	-9.82258
▁pre	-9.82461
for	-9.82489
▁standing	-9.82522
▁lived	-9.82532
▁area	-9.82629
▁ተቀባይነት	-9.82686
▁በታች	-9.82688
▁በመንፈሳዊ	-9.82879
▁የተናገረው	-9.8291
▁በእሳት	-9.82931
መለከት	-9.83057
▁14)	-9.83138
▁በዚህም	-9.83139
ice	-9.8315
▁ማቴ	-9.83164
ide	-9.83242
▁ለእናንተ	-9.83267
▁taught	-9.8327
በል	-9.83324
▁እነሆ	-9.83325
ሉን	-9.83378
one	-9.83437
go	-9.83486
ግራ	-9.83514
▁ra	-9.83548
▁ማስረጃ	-9.83597
▁ሁሉንም	-9.83625
▁ታስ	-9.83649
ኖረው	-9.83686
▁individuals	-9.83726
▁Egypt	-9.83746
ያን	-9.83798
▁ማቴዎስ	-9.83823
▁problem	-9.8384
▁privilege	-9.83865
▁ጽሁፍ	-9.83865
▁pro	-9.83872
ቸው።	-9.83885
ፈጠረ	-9.83939
▁ለም	-9.83987
▁history	-9.84104
▁sacrifices	-9.84109
▁12)	-9.84118
▁ቅር	-9.8428
▁እንቅስቃሴ	-9.84322
ሂ	-9.8437
▁ባህርይ	-9.84388
▁አቅጣጫ	-9.84463
▁ወዳ	-9.84503
▁ሄደ	-9.84506
▁ጣ	-9.84585
▁ነዋሪዎች	-9.84607
▁reward	-9.84626
▁aaron	-9.84705
▁cover	-9.84774
▁እንችላለን።	-9.84818
▁በሰው	-9.8482
▁ሰውየው	-9.84824
▁አሉ።	-9.84859
▁effort	-9.84931
ጐ	-9.85003
▁ይሁዳ	-9.85038
▁fully	-9.85225
▁salvation	-9.85306
▁እድገት	-9.85306
▁ገደማ	-9.85308
▁matters	-9.85547
▁general	-9.85549
▁ሞተ	-9.85552
▁ሰራተኞች	-9.85556
▁gathered	-9.85596
▁እህት	-9.85682
ፍር	-9.85697
▁due	-9.8574
▁ለእኔ	-9.8575
ዉ	-9.85768
▁built	-9.85792
▁feelings	-9.85804
▁mark	-9.85975
▁ምህረት	-9.85988
▁river	-9.86035
▁lost	-9.86058
▁press	-9.86106
▁ሳሙኤል	-9.86114
▁ኪ	-9.86158
ያዩ	-9.86223
አምላክ	-9.86264
▁ወታደሮች	-9.86279
▁doubt	-9.8628
ron	-9.86292
▁አለበት	-9.86299
▁ethiopia	-9.86325
▁የሚያደርግ	-9.86332
▁using	-9.86347
▁በጎች	-9.86439
▁approach	-9.86548
▁ሰማይ	-9.86608
▁national	-9.86621
▁subject	-9.86625
▁offerings	-9.86638
▁entire	-9.86646
▁አንጻር	-9.86647
eg	-9.86707
▁—	-9.86713
ጢ	-9.86768
▁outside	-9.8677
▁አበባ	-9.86774
▁ካህናት	-9.86867
▁የሚሆን	-9.86929
▁9)	-9.87002
▁similar	-9.87151
ዶች	-9.8718
ሻል	-9.87449
▁45	-9.87499
▁የማያ	-9.87503
▁fell	-9.87505
▁gate	-9.87526
▁ጠጅ	-9.87596
▁mighty	-9.87622
▁ባሉት	-9.87662
▁ሺህ	-9.87707
▁imitate	-9.87756
▁ያለን	-9.87826
▁ያልተ	-9.88059
ኑን	-9.88109
▁search	-9.88129
▁በተለይ	-9.88144
▁ተናግሯል	-9.88172
▁በተጨማሪ	-9.8818
▁ከአንድ	-9.88241
▁training	-9.88245
▁com	-9.88248
ፍራ	-9.88253
▁ብዙም	-9.88287
▁spread	-9.88299
▁se	-9.88367
▁choose	-9.88378
ዋል፤	-9.884
ፏ	-9.88502
▁attitude	-9.88503
▁ያሰ	-9.88549
▁determined	-9.88575
▁decided	-9.88591
▁13)	-9.88597
ally	-9.88621
▁ወይስ	-9.88631
ጠበቅ	-9.88632
ie	-9.88733
▁ብለን	-9.88771
fe	-9.88803
▁timothy	-9.88878
▁በመጀመሪያው	-9.88895
ay	-9.88953
▁pain	-9.88966
▁አረ	-9.88982
▁ንብረት	-9.89004
▁daniel	-9.89005
▁አቋም	-9.89006
ልኩ	-9.89038
▁ደስተኛ	-9.89061
▁ግራ	-9.89111
▁opposition	-9.89129
▁አገ	-9.8917
▁established	-9.89302
▁maintain	-9.89303
መሩ	-9.89366
▁half	-9.89381
▁less	-9.89406
▁wall	-9.8944
▁ባለስልጣናት	-9.89507
▁መረዳት	-9.89569
▁አዎ	-9.89611
ze	-9.89636
ላቸውን	-9.89751
▁በደስታ	-9.89769
▁Ethiopia	-9.8981
▁እንዲሆኑ	-9.89887
▁ዳ	-9.89897
▁offered	-9.89899
ጥል	-9.89909
▁የኢ	-9.90043
▁የደ	-9.90081
let	-9.90084
▁state	-9.90123
▁ምስራች	-9.9014
▁15)	-9.90159
▁mountain	-9.90174
▁ለእኛ	-9.90198
▁ክልል	-9.90273
▁በርስ	-9.90352
▁መጠ	-9.90359
▁አስቸጋሪ	-9.90394
▁በአንተ	-9.904
▁principles	-9.90404
▁አንተን	-9.90586
▁የት	-9.90658
▁ኢየሱስን	-9.90863
ችሗል	-9.90876
▁17)	-9.90887
▁ለመርዳት	-9.90905
ስማማ	-9.90938
▁ሊያስ	-9.90998
▁ስሙ	-9.91004
ጠነ	-9.9105
▁ጽድቅ	-9.91071
▁አለመ	-9.91127
▁ዳግመኛ	-9.91161
▁ጸጋ	-9.91168
▁ስነ	-9.91252
▁መልክ	-9.91291
▁መናገር	-9.91293
▁cubits	-9.9136
▁gain	-9.91713
You	-9.91737
ቱም	-9.91879
▁east	-9.91934
▁ገባ	-9.91938
▁rise	-9.91941
▁ሁላችንም	-9.92091
▁reading	-9.92102
▁አልነበረም	-9.92171
▁ክፍሎች	-9.92193
▁በመላው	-9.922
▁forward	-9.92212
ማል	-9.92217
▁filled	-9.92226
▁observe	-9.92254
▁blessing	-9.92301
▁ሌሊት	-9.92345
▁proverbs	-9.92363
ቅም	-9.92404
▁ጎዳና	-9.92452
▁throne	-9.92452
▁la	-9.92472
▁showed	-9.92502
▁whoever	-9.92623
ወጥ	-9.92691
▁የተባለው	-9.92696
▁explained	-9.92757
▁ሰር	-9.92761
▁didn	-9.92763
ቸውም	-9.92766
▁ስርኣት	-9.92813
▁የትዳር	-9.92848
▁focus	-9.92883
▁ስራዎች	-9.92946
▁appropriate	-9.92974
▁በጎ	-9.92979
▁በምን	-9.93046
▁ሰለሞን	-9.93104
ያችን	-9.93242
▁ስታ	-9.93273
▁በኢየሱስ	-9.9328
ash	-9.93321
▁በቅ	-9.93324
▁countries	-9.93366
▁አስተዋጽኦ	-9.93366
ነፍ	-9.93382
▁የቤተ	-9.93457
▁produce	-9.93476
▁ግሩም	-9.93507
ወስድ	-9.9351
▁ago	-9.93577
ቶቻቸው	-9.93579
▁በቂ	-9.93629
▁line	-9.93669
▁blessed	-9.93685
መለከቱ	-9.93773
▁strengthen	-9.9378
▁መስራት	-9.93801
▁አ።ም	-9.93832
▁gone	-9.93881
▁afraid	-9.93892
▁international	-9.93892
▁ያልሆነ	-9.93892
▁week	-9.94117
▁illustration	-9.94156
▁ጥልቅ	-9.94173
▁value	-9.94193
ship	-9.94204
▁ይችላሉ።	-9.94264
ታችንን	-9.94276
▁የእምነት	-9.94291
▁ህያው	-9.94291
ever	-9.94339
▁wants	-9.94347
ናችሁ	-9.94358
▁ሴ	-9.94387
▁except	-9.94421
▁ርስት	-9.9444
▁start	-9.94442
▁ዳንኤል	-9.94474
ቆይ	-9.94505
▁kill	-9.94527
ጣሉ	-9.94543
▁7)	-9.94564
ቀል	-9.94569
ng	-9.94633
▁apostles	-9.94638
▁offspring	-9.94686
▁አቀፍ	-9.9469
▁garments	-9.94699
▁ጀመር	-9.94706
▁considered	-9.94749
▁ተግባር	-9.9482
▁ከእኛ	-9.94911
▁distress	-9.94952
▁ስብሰባዎች	-9.95008
▁በመስጠት	-9.95033
▁ፍትህ	-9.95034
▁ጢሞቴዎስ	-9.95086
▁tongue	-9.95086
▁ያህል፣	-9.95111
▁በመጀመሪያ	-9.95111
▁deal	-9.95159
▁የአሜሪካ	-9.9518
ism	-9.95197
▁common	-9.95219
▁assembly	-9.95353
▁lie	-9.95421
▁corinthians	-9.95487
▁local	-9.95487
▁አባቴ	-9.955
▁immediately	-9.95505
▁ነጻነት	-9.95515
▁measure	-9.9554
▁አለቆች	-9.95622
▁አወ	-9.95637
ፈቀደ	-9.95804
ይህ	-9.95847
▁ልታ	-9.95864
▁tabernacle	-9.9589
▁እንዳልሆነ	-9.9589
ለን።	-9.95895
▁እንመልከት	-9.95974
ቆሙ	-9.95987
▁sexual	-9.96024
▁prov	-9.96059
ብል	-9.96164
▁ለሰው	-9.96185
fa	-9.96209
ከፋ	-9.96237
▁ነን	-9.9624
▁president	-9.96294
▁ለማገልገል	-9.96294
▁ዘይት	-9.96432
▁ወገኖች	-9.96567
▁ጥናት	-9.96576
▁building	-9.96613
▁የሚችሉት	-9.96638
▁የሚሰጠው	-9.96663
▁border	-9.967
▁fail	-9.96744
▁ብለህ	-9.96774
nd	-9.96778
▁አብረው	-9.96807
▁attack	-9.96876
▁ጦር	-9.96909
▁mountains	-9.96923
▁road	-9.96972
ጆች	-9.96991
▁prepared	-9.97021
ረገ	-9.97027
▁wind	-9.97077
▁complete	-9.9708
▁period	-9.97108
ran	-9.97197
▁cast	-9.97226
▁ጥርጥር	-9.97248
▁አማ	-9.97397
▁ምድርን	-9.97479
▁በይሁዳ	-9.97482
ቫ	-9.97517
▁inhabitants	-9.97517
▁70	-9.97535
▁struck	-9.97654
▁looking	-9.97692
▁(1)	-9.97699
▁መላእክት	-9.97704
az	-9.97755
▁laws	-9.9776
▁5)	-9.97856
ያህዌ	-9.97887
▁preach	-9.97917
▁effect	-9.97928
▁qualities	-9.97928
▁position	-9.97928
▁lay	-9.97936
nt	-9.9795
▁ho	-9.97983
▁break	-9.98002
▁የክርስቶስ	-9.98024
▁leaders	-9.98075
▁ram	-9.98079
▁የንግድ	-9.98207
▁sight	-9.98239
▁የሰጠ	-9.9825
▁opened	-9.98291
ረን	-9.98312
▁መሆናቸውን	-9.9832
▁process	-9.9834
ቹን	-9.98355
▁አምላክህ	-9.98369
▁16)	-9.98429
ሃለሁ	-9.98648
ቷን	-9.98688
▁አማልክት	-9.98697
▁ትንሳኤ	-9.9875
▁precious	-9.98755
▁ግዴታ	-9.98756
▁ቁጣ	-9.9879
ልቅ	-9.98821
▁መቼ	-9.98833
▁አንብብ	-9.98855
▁አገልጋይ	-9.9888
▁ኤርምያስ	-9.98881
▁እህቶች	-9.98895
ue	-9.98975
ኢ	-9.98984
▁ስል	-9.98985
▁met	-9.99048
▁Ethiopian	-9.99116
▁prepare	-9.99121
▁ex	-9.99122
ያዝ	-9.99131
ሞቱ	-9.99145
ኸው	-9.99157
▁የሌለው	-9.99157
▁te	-9.99207
▁quickly	-9.9921
ኡ	-9.99216
▁ከእንግዲህ	-9.99261
▁ቆሮንቶስ	-9.9931
▁vision	-9.9931
▁reach	-9.99325
▁boy	-9.99353
ነጻ	-9.99389
▁የህይወት	-9.99396
▁መልአክ	-9.99449
▁rich	-9.99459
▁else	-9.99464
▁table	-9.99503
▁Mr	-9.99522
ገው	-9.99545
▁ንኡስ	-9.99589
▁ይዘው	-9.99603
▁en	-9.99751
▁44	-9.99752
▁60	-9.99911
▁thoughts	-9.99996
▁ብሄር	-10.0001
ence	-10.0006
▁ኢየሱስም	-10.0007
▁error	-10.0015
▁መቅደስ	-10.0015
▁የሚያደርገው	-10.0021
▁genesis	-10.0034
▁በእናንተ	-10.0041
00	-10.0045
our	-10.0049
▁ሳኦል	-10.0049
▁seed	-10.0052
ኸ	-10.0055
▁ድንጋይ	-10.0057
▁ናት	-10.0058
▁የህዝብ	-10.0071
▁የላቀ	-10.0073
▁በኢትዮጵያ	-10.0074
▁4.	-10.0076
▁ሰራተኛ	-10.0076
▁እንዳል	-10.0077
ፋት	-10.0082
▁obey	-10.0085
ፔ	-10.0085
▁destruction	-10.0085
▁noah	-10.0086
▁ትችላለህ	-10.0092
▁followers	-10.0106
▁stated	-10.0106
ዥ	-10.0112
▁joshua	-10.0114
▁animals	-10.0117
▁rain	-10.0119
▁ናቸው፤	-10.0131
▁official	-10.0132
ደም	-10.0141
her	-10.0142
▁legal	-10.0148
▁served	-10.0155
ህና	-10.0159
▁ካል	-10.0161
▁willing	-10.0165
▁enough	-10.0171
▁hate	-10.018
▁አዳ	-10.0197
▁el	-10.0202
▁ላከ	-10.0204
▁reflect	-10.0205
▁3)	-10.0209
▁ስለሆነም	-10.0213
▁examine	-10.0213
▁ጎን	-10.0213
▁Do	-10.0215
▁door	-10.0235
▁tried	-10.0242
▁To	-10.0244
▁ለማየት	-10.0246
▁per	-10.0254
▁despite	-10.0256
▁የታወቀ	-10.0256
▁ምስራቹን	-10.0267
▁ወርቅ	-10.027
▁ከነ	-10.0271
▁midst	-10.0272
▁ድርሻ	-10.0273
▁caused	-10.0276
▁ፍጻሜ	-10.0276
▁41	-10.0278
ሳችሁ	-10.0293
▁wait	-10.0308
▁በሚገኘው	-10.0308
▁license	-10.0314
▁serious	-10.0317
▁council	-10.0328
▁ስምምነት	-10.0329
see	-10.0333
አት	-10.0338
ኝ፤	-10.0339
▁forgive	-10.0343
▁ሙ	-10.0343
ናውያን	-10.0345
ሃል።	-10.0346
ይቱ	-10.0349
▁ሰዎቹ	-10.0351
ሮን	-10.0351
▁ዘገባ	-10.0355
▁imagine	-10.0357
▁devil	-10.0358
▁rights	-10.0359
▁ገጽ	-10.0366
▁police	-10.0372
▁translation	-10.0372
▁ዝምድና	-10.0372
▁chosen	-10.0376
ኳቸው	-10.0379
▁ዳርቻ	-10.0381
▁shows	-10.0382
▁enemy	-10.0401
▁jeremiah	-10.0416
▁further	-10.0416
▁wives	-10.0416
▁ኣለም	-10.0417
▁wide	-10.042
▁circumstances	-10.0423
ርቅ	-10.0427
▁dwelling	-10.0427
▁beyond	-10.043
▁development	-10.0432
▁9.	-10.0438
▁42	-10.0443
▁carried	-10.0445
▁forces	-10.0446
▁ይመጣል	-10.0447
▁prove	-10.0452
▁crowd	-10.0453
▁ገብ	-10.0456
▁6)	-10.0458
ዳት	-10.0459
▁Jerusalem	-10.046
▁undeserved	-10.046
▁ሊቀ	-10.0464
▁pharaoh	-10.0474
▁አስቀድሞ	-10.0474
▁እነዚያ	-10.048
▁በእግዚአብሄር	-10.048
▁meaning	-10.0484
▁sovereign	-10.0488
▁opportunity	-10.0489
▁beginning	-10.0489
▁ahead	-10.0502
▁ፈተና	-10.0505
▁happened	-10.0511
▁believed	-10.0512
▁member	-10.0518
▁youth	-10.0527
ብሩ	-10.0532
▁mount	-10.0533
▁የመጀመሪያ	-10.0534
▁መጨረሻ	-10.0536
▁ድርጅቶች	-10.0548
▁ne	-10.0552
▁ኣይነት	-10.0558
▁አዳም	-10.0558
▁claim	-10.0567
R	-10.0571
▁hour	-10.0574
▁8.	-10.0577
▁ለአንተ	-10.0578
▁role	-10.0578
▁No	-10.0582
▁መጠበቅ	-10.0592
▁ይችላል፧	-10.0601
▁practice	-10.0602
▁happen	-10.0604
▁various	-10.0608
▁houses	-10.061
▁እሷም	-10.0618
▁የዘላለም	-10.0622
ቻቸውን	-10.0625
▁ያደ	-10.0625
ገብ	-10.0644
▁ማሳ	-10.0651
▁እንስሳ	-10.0656
ካቸው	-10.066
▁ጭንቀት	-10.0665
▁ransom	-10.0667
ራን	-10.0669
▁አስር	-10.0669
▁ተነስቶ	-10.067
▁revelation	-10.0677
▁አለኝ	-10.0677
▁flock	-10.0677
▁ስልጠና	-10.0682
▁ጓደኛ	-10.0686
▁ኖህ	-10.0687
▁ይኖራል	-10.0688
ኝም	-10.0692
▁መለስ	-10.0695
▁ልጁን	-10.0696
▁endure	-10.0697
ቻችሁ	-10.0699
▁followed	-10.0703
▁record	-10.0705
▁Let	-10.0709
▁አይችልም	-10.0712
▁39	-10.0718
▁workers	-10.0718
ዎችና	-10.0721
▁destroyed	-10.0728
▁Be	-10.0742
▁ጻድቅ	-10.0745
▁መጠቀም	-10.0751
▁seeking	-10.0761
▁የሰጠው	-10.0763
▁involved	-10.0763
▁discuss	-10.0764
C	-10.0769
▁ሆይ፥	-10.077
▁writing	-10.0773
▁የሚገኘውን	-10.0774
▁ጀ	-10.0786
▁simply	-10.0788
▁አስተሳሰብ	-10.0788
▁ይኖርብናል	-10.0798
ok	-10.0803
▁girl	-10.0803
▁household	-10.081
ነቱን	-10.0825
▁ሰማያት	-10.0827
▁sleep	-10.0833
▁several	-10.0833
▁ruin	-10.0834
▁ለእነሱ	-10.084
▁አውራ	-10.0841
▁powerful	-10.0854
▁blessings	-10.0856
▁completely	-10.0861
▁promises	-10.0872
▁ፕ	-10.0874
▁ያወጣ	-10.0877
▁apply	-10.088
▁ህሊና	-10.0885
▁አድርግ	-10.0888
▁ግንብ	-10.0897
▁behalf	-10.091
▁የሰራዊት	-10.0919
▁እንስሳት	-10.0925
▁valley	-10.0925
▁የሚኖር	-10.0925
T	-10.0935
▁encourage	-10.0935
ምሩ	-10.094
▁advice	-10.0941
▁ለመኖር	-10.0941
ቻችን	-10.0944
▁አድርጉ	-10.0944
▁physical	-10.0945
▁disease	-10.0956
▁expect	-10.0962
▁commandments	-10.0963
▁discipline	-10.0971
▁freedom	-10.0971
▁practical	-10.0971
▁መዛሙርት	-10.0971
▁የሚያሳ	-10.0973
▁እንደሚሆን	-10.0976
▁የማስ	-10.0976
▁bless	-10.0984
▁write	-10.0986
▁creator	-10.0987
▁ማገልገል	-10.0987
▁የጾታ	-10.0987
▁samuel	-10.0987
▁hall	-10.0989
▁ቤ	-10.099
ቀን	-10.0991
ችሗለሁ	-10.0991
▁የተሰራ	-10.0993
▁related	-10.0993
ቀረቡ	-10.1001
▁ሰይፍ	-10.1002
ለህ።	-10.1007
▁knowing	-10.1008
▁የተባለ	-10.1008
▁እንዲህም	-10.1011
▁principle	-10.1017
▁dream	-10.1018
▁አድርጌ	-10.1019
▁regard	-10.1026
▁ሰዎችም	-10.104
▁ስቃይ	-10.1046
▁በቤተ	-10.1048
▁shepherd	-10.1048
▁education	-10.1049
▁response	-10.1049
▁daily	-10.1049
▁assigned	-10.1056
▁ተናግሯል።	-10.1059
▁ያደረገ	-10.1062
▁agreement	-10.1066
▁stones	-10.1067
▁የሆኑትን	-10.1069
▁ርኩስ	-10.108
▁አይን	-10.1084
king	-10.1095
▁exist	-10.1095
▁pressure	-10.1097
▁ይናገራል	-10.1097
ላችሁ።	-10.1099
▁gods	-10.1101
ten	-10.1102
▁10.	-10.1104
▁ይላል፥	-10.1108
▁sick	-10.111
▁እሷ	-10.1111
▁letter	-10.1111
▁ዲ	-10.1118
ub	-10.1125
▁exercise	-10.1127
▁humble	-10.1127
▁tribulation	-10.1127
▁የገባ	-10.1127
▁የጠ	-10.1128
▁የስነ	-10.113
▁እዚያ	-10.1135
▁perish	-10.1144
▁የእሱን	-10.1144
ጄ	-10.1145
▁ብላለች	-10.1148
▁እብ	-10.115
▁የአንድ	-10.1152
▁je	-10.1155
▁መኖሪያ	-10.1157
▁አንድም	-10.116
ዮች	-10.116
▁ይላል።	-10.1168
ነታችን	-10.1174
▁natural	-10.1174
▁changed	-10.1177
▁page	-10.1178
▁ዳር	-10.1178
▁የመጨረሻ	-10.1181
▁reported	-10.1183
▁soldiers	-10.1184
▁ኛው	-10.1188
▁በቀላሉ	-10.119
▁ጥበቃ	-10.1193
▁እርሱም	-10.1198
▁ገዢ	-10.1201
▁የሚገኝ	-10.1206
▁3.	-10.1208
ለት።	-10.1214
▁5.	-10.1216
▁gen	-10.1216
▁sacred	-10.1222
▁darkness	-10.1223
▁ስላል	-10.1229
ይሆዋ	-10.1233
▁laid	-10.1238
▁prayers	-10.1245
▁prophecy	-10.1253
▁inside	-10.1254
▁M	-10.1262
▁accordance	-10.1269
▁ጋዜጣ	-10.1269
▁wild	-10.1269
▁bethel	-10.127
▁gather	-10.1275
▁mine	-10.1275
▁7.	-10.1279
▁በሞት	-10.1281
▁sit	-10.1282
▁looked	-10.1282
▁ምስራቅ	-10.1285
▁ከንቱ	-10.1291
ማቴ	-10.1297
▁ተፈ	-10.1298
▁ይቻላል	-10.1299
▁ቀስ	-10.13
▁W	-10.1302
▁finally	-10.131
▁ready	-10.1314
▁የሚሆኑ	-10.1315
▁ነገ	-10.1315
▁ሂደት	-10.1317
ለኝ	-10.1318
▁ሃላፊ	-10.132
▁secret	-10.1321
▁ግብ	-10.1326
▁seeing	-10.1329
▁ተሸ	-10.1331
▁ይሆናል፤	-10.1335
▁ቀጥሎ	-10.1336
▁እንዳት	-10.1338
▁ቢሮ	-10.1345
▁neighbor	-10.1352
▁ይሰጣል	-10.1352
▁ይሰማ	-10.1361
▁የነበሩትን	-10.1363
▁ራሳችንን	-10.1365
▁ባልና	-10.1365
▁እርግጠኛ	-10.1365
▁2.	-10.1366
▁ጌ	-10.137
▁suffer	-10.1371
ታል፤	-10.138
▁fast	-10.1382
▁ከልብ	-10.1389
▁መላው	-10.1391
▁የተጠ	-10.1395
▁በግብጽ	-10.1397
▁cry	-10.1399
▁mar	-10.14
▁rev	-10.1404
▁establish	-10.1405
▁What	-10.141
▁ስለማ	-10.1429
▁ወስዶ	-10.143
▁ነፋስ	-10.143
▁peoples	-10.1434
▁eye	-10.1435
▁least	-10.1446
▁notice	-10.1449
▁በእኛ	-10.1454
▁ወጥ	-10.1463
way	-10.1465
▁hast	-10.1468
▁ስድስት	-10.1471
ው፤	-10.1474
▁single	-10.1477
▁responsibility	-10.1478
hu	-10.1479
ow	-10.1482
▁ረ	-10.1484
▁ራ	-10.1484
▁ሚሊዮን	-10.1495
▁pioneer	-10.1495
▁walking	-10.1499
▁Ma	-10.1504
▁reached	-10.1504
▁እግዚአብሄርም	-10.1505
▁ብሎም	-10.1527
▁ሲናገር	-10.1527
▁12.	-10.1532
ማን	-10.1535
▁manner	-10.1544
▁መጥተው	-10.1546
ሞን	-10.1546
▁expressed	-10.1549
▁ኮሚቴ	-10.156
▁creation	-10.156
▁spiritually	-10.1561
▁ነበር፧	-10.1566
▁ጥቅስ	-10.1576
▁wood	-10.1577
▁apart	-10.1579
▁መጥ	-10.1585
ድና	-10.1588
▁ጊዜያት	-10.1589
▁confidence	-10.1593
▁explain	-10.1593
▁ባለስልጣን	-10.1594
▁accepted	-10.1603
▁ሁለቱ	-10.1604
▁ደንብ	-10.1606
▁በመጨረሻም	-10.1606
▁buy	-10.1609
land	-10.1613
▁ዘመ	-10.1615
ities	-10.1616
▁princes	-10.1617
▁ሃይማኖት	-10.1618
ካፈል	-10.1621
▁leader	-10.1635
▁ብሏል፥	-10.1639
▁courage	-10.1641
▁አድናቆት	-10.1642
▁levites	-10.1642
▁የእሱ	-10.1644
▁6.	-10.165
▁conscience	-10.1659
▁ከግብጽ	-10.1659
▁pet	-10.1659
ቤቱ	-10.1662
▁ብለዋል	-10.1663
▁proper	-10.1663
▁inspired	-10.1675
▁ተፈታታኝ	-10.1675
▁ትውልድ	-10.1675
▁መጥቶ	-10.168
▁አንብብ።	-10.168
▁ወራት	-10.1683
▁ለህዝቡ	-10.1685
▁የሚሰማ	-10.1691
▁paradise	-10.1692
▁efforts	-10.1694
▁ተዋ	-10.1695
up	-10.17
▁ያላ	-10.1701
▁46	-10.1702
ኖቹ	-10.171
ልናል	-10.1714
▁ገነት	-10.1717
▁ባሉ	-10.1723
▁ሂ	-10.1723
▁ያደርጋል።	-10.1731
▁generation	-10.1732
▁አየ	-10.1734
▁seem	-10.1737
▁አቅኚ	-10.1741
▁grave	-10.1742
com	-10.1744
this	-10.1756
▁ካህናቱ	-10.1758
▁commission	-10.1758
▁እስካሁን	-10.1758
▁allowed	-10.176
▁ዘፍጥረት	-10.1763
▁short	-10.1763
ጠይቅ	-10.177
ጨረ	-10.1771
▁ps	-10.1772
▁ሁ	-10.1773
▁ንግግር	-10.1775
▁አስመልክቶ	-10.1775
▁level	-10.1775
▁ሆ	-10.1778
▁ሜ	-10.1779
▁answers	-10.1783
▁express	-10.1784
ከተል	-10.1787
▁mate	-10.1792
▁ሁለቱም	-10.18
ጠባ	-10.1802
▁union	-10.1803
▁trees	-10.1804
ተፈጸመ	-10.1807
▁blind	-10.1809
▁20)	-10.1809
በታል	-10.1815
▁wonderful	-10.1819
▁There	-10.1819
▁sake	-10.1826
P	-10.1831
ex	-10.1837
▁occasion	-10.1842
N	-10.1848
▁roman	-10.185
አንድ	-10.1851
▁Saul	-10.186
matt	-10.1866
▁appeal	-10.1876
▁presence	-10.1876
▁ከእርሱ	-10.1883
▁events	-10.1885
▁ህጉ	-10.1895
▁trying	-10.1897
▁fat	-10.1898
▁respond	-10.1905
▁ጆሮ	-10.1906
▁program	-10.191
▁struggle	-10.191
▁ልማድ	-10.191
▁መርዳት	-10.1911
▁ወታደራዊ	-10.1914
▁experienced	-10.1915
ረግ	-10.192
▁That	-10.1925
▁raise	-10.1925
▁አይቀርም	-10.1933
▁sing	-10.1934
▁committed	-10.1945
ቶችን	-10.1945
▁bow	-10.1949
ፈሉ	-10.1956
▁18)	-10.1962
ዋጋ	-10.1964
▁ሁለተኛው	-10.1971
▁ምንኛ	-10.1972
▁harm	-10.1977
▁big	-10.1978
▁earlier	-10.1978
▁widow	-10.1978
ቃል	-10.1979
▁examples	-10.1981
▁በስተቀር	-10.1982
ዶቹ	-10.1982
▁14.	-10.1982
▁ሱ	-10.199
▁none	-10.1992
▁አሳልፎ	-10.1995
▁flee	-10.1995
▁moreover	-10.1997
አንተ	-10.1998
▁lo	-10.2001
▁warning	-10.2005
M	-10.201
▁vow	-10.2013
▁በይሆዋ	-10.2014
▁ከእስራኤል	-10.2021
▁የመጣ	-10.2021
▁Ye	-10.2021
ያዙ	-10.2023
▁በቀር	-10.2023
▁ልጄ	-10.2026
▁instance	-10.2029
▁prevent	-10.2029
▁አድርጓል	-10.2035
▁መሄድ	-10.2042
▁እውነትን	-10.2044
▁happiness	-10.2047
▁ፍጥረታት	-10.2047
▁ጭምር	-10.2047
▁ship	-10.2058
▁success	-10.2062
line	-10.2064
▁ተነሳ	-10.2066
ታመን	-10.2068
▁regular	-10.207
▁step	-10.2075
▁በውሃ	-10.2083
ተኛው	-10.2086
▁entered	-10.2089
▁bringing	-10.2094
▁የብር	-10.2094
▁Father	-10.2098
▁friendship	-10.2099
▁ተማሪዎች	-10.2107
▁town	-10.2112
▁effective	-10.2116
▁ሳይቆይ	-10.2118
▁ይችላል፡፡	-10.2121
▁13.	-10.2128
ያችሁ	-10.2138
▁አብዛኛውን	-10.2145
▁Aaron	-10.215
▁itself	-10.215
▁ለሰዎች	-10.2151
▁skin	-10.2153
▁አፈ	-10.2164
▁fish	-10.2171
▁room	-10.2174
▁ይሆን፧	-10.2179
▁ዝንባሌ	-10.2185
▁ability	-10.2187
▁አምላካችን	-10.2189
▁ለሚያ	-10.2196
▁bull	-10.2199
▁ልጃችሁ	-10.2201
▁assignment	-10.2203
▁መደ	-10.2208
ዳር	-10.2212
▁ሌ	-10.2223
▁knows	-10.2225
▁በሆኑ	-10.2232
▁አሮን	-10.2234
▁thousands	-10.2235
▁ስቴትስ	-10.2238
▁ድንኳን	-10.2238
▁white	-10.2238
▁መግቢያ	-10.2238
▁believers	-10.224
ህንም	-10.2248
▁humility	-10.2255
▁ህጋዊ	-10.2255
▁ሆኜ	-10.2255
▁አባቱ	-10.2259
▁lion	-10.2259
▁trouble	-10.2271
▁ማሰብ	-10.2277
▁ሜትር	-10.229
▁fill	-10.2293
19	-10.2293
እናንተ	-10.2294
▁43	-10.2298
▁changes	-10.2302
▁ተናገረ	-10.2308
▁Me	-10.2308
▁ካህኑ	-10.2309
▁ዝ	-10.2311
▁እጁን	-10.2311
▁run	-10.2317
▁ዝም	-10.2321
▁ቋንቋዎች	-10.2333
▁james	-10.2334
▁hu	-10.234
▁sabbath	-10.2343
▁በመጠቀም	-10.2357
▁R	-10.2361
▁ቅጣት	-10.2363
▁የሚችሉ	-10.2364
▁territory	-10.2379
▁ለአንድ	-10.2379
▁ዶ	-10.2388
▁እናት	-10.2391
▁ተራ	-10.2392
▁include	-10.2392
በትና	-10.2394
▁ግብዣ	-10.2397
▁note	-10.2398
▁እህል	-10.2401
▁ሃዘን	-10.2402
ረዳቸው	-10.2405
▁17.	-10.2407
But	-10.2407
▁የተወሰነ	-10.241
ያዊ	-10.241
▁committee	-10.2414
▁desires	-10.2421
ቃችሁ	-10.2422
▁lack	-10.243
▁11.	-10.2431
▁beautiful	-10.2432
▁ከሰማይ	-10.2432
ሁ።	-10.2434
▁path	-10.2438
▁እንመልከት።	-10.2439
▁ምክንያታዊ	-10.245
▁ማታ	-10.2452
▁ልጆቻችሁ	-10.2452
▁presented	-10.2454
ችሁት	-10.2465
▁hence	-10.2475
▁ይገባል።	-10.2478
ized	-10.248
▁ብሏል።	-10.2481
▁ግዛት	-10.2486
▁proclamation	-10.2486
▁violence	-10.2486
▁እንጨት	-10.2486
▁የሚኖረው	-10.2486
መታ	-10.2488
▁congregations	-10.2489
▁ቀኝ	-10.2492
▁ቃሉን	-10.2492
▁ያለንን	-10.2497
ዳችሁ	-10.2503
she	-10.2503
▁ወንዝ	-10.2504
▁እቅድ	-10.2504
▁couple	-10.252
▁sort	-10.2521
▁display	-10.2522
▁text	-10.2522
▁እንደምን	-10.2529
▁affect	-10.2534
▁እባክህ	-10.2536
▁እቃዎች	-10.2536
▁million	-10.2539
ገላ	-10.254
▁አስጸያፊ	-10.254
▁ሰፊ	-10.2543
▁ባለፈው	-10.2546
▁develop	-10.255
so	-10.2555
ዣ	-10.2558
▁ወደዚያ	-10.2558
▁firstborn	-10.2559
▁ጉዞ	-10.256
▁(3	-10.2564
▁areas	-10.2569
▁seems	-10.2569
▁የግል	-10.2579
▁ስራውን	-10.2581
▁የሚገባ	-10.2588
▁16.	-10.2609
ርዳ	-10.2611
▁rescue	-10.2612
▁action	-10.2617
▁ደግ	-10.2623
▁መልኩ	-10.2624
▁represent	-10.263
▁actions	-10.2631
▁ናችሁ	-10.2634
▁ነፍስ	-10.2637
▁standards	-10.2637
▁የጉባኤ	-10.2638
ብላ	-10.2641
▁branch	-10.2644
▁ምንጭ	-10.2644
▁አስብ	-10.2646
ቆዩ	-10.2649
▁ትምህርቶች	-10.2649
▁available	-10.2649
▁heads	-10.2653
old	-10.2654
ስለ	-10.2656
▁proved	-10.2666
▁newspaper	-10.2667
▁air	-10.267
▁ወጥቶ	-10.2672
▁በገዛ	-10.2673
],	-10.2675
▁ብቃት	-10.2682
ሮም	-10.2685
▁greek	-10.2686
▁በመካከላቸው	-10.2686
▁እንዲያደርጉ	-10.2686
▁የቤተሰብ	-10.2688
▁fathers	-10.2689
ነስ	-10.269
▁ሽማግሌ	-10.2703
▁rock	-10.2704
▁አድርገን	-10.2704
▁L	-10.2718
▁possess	-10.272
▁plant	-10.2722
▁troops	-10.2722
▁delight	-10.2723
▁በህግ	-10.2724
▁wonder	-10.2726
▁goal	-10.2727
▁takes	-10.2732
▁የለውም።	-10.2739
▁reasons	-10.274
▁At	-10.2745
▁አስተዳደር	-10.275
ተደረገ	-10.2751
▁saved	-10.2756
▁influence	-10.2759
▁15.	-10.2759
እን	-10.2759
▁12:	-10.2761
▁ይህች	-10.2765
▁ዘሮች	-10.2768
▁19)	-10.2775
▁tr	-10.2776
▁ኩ	-10.2779
▁wish	-10.2779
▁broken	-10.2782
▁ወዳጅነት	-10.2783
▁unity	-10.2788
▁belong	-10.2788
▁የሚሰጥ	-10.2789
▁descendants	-10.2796
▁source	-10.2798
0	-10.2798
▁አንቺ	-10.2806
▁ልቡ	-10.2814
▁የኤርትራ	-10.2815
▁wealth	-10.2815
▁የገዛ	-10.2823
▁par	-10.2829
▁helping	-10.2832
▁addition	-10.2833
▁Se	-10.2842
▁የፖለቲካ	-10.2852
▁begin	-10.2852
ረቡ	-10.2854
▁ከብ	-10.2858
▁eve	-10.286
▁አመጽ	-10.2866
▁ተን	-10.2867
ወለድ	-10.2872
ቀሩ	-10.2874
▁ነኝ።	-10.2876
▁ለእስራኤል	-10.2877
▁የሃጢአት	-10.2877
▁firm	-10.2879
ጳ	-10.2889
▁board	-10.2889
▁pursue	-10.2889
▁ብዛት	-10.2889
▁ኤልያስ	-10.289
gen	-10.2894
▁በክርስቶስ	-10.2902
▁የሌላቸው	-10.2906
▁copper	-10.2908
▁በምድረ	-10.291
▁አሉት።	-10.2913
▁2)	-10.2913
▁bo	-10.2918
▁ያህዌም	-10.2921
▁main	-10.2922
▁23)	-10.2924
▁በታማኝነት	-10.2927
▁ማቅረብ	-10.2927
▁21)	-10.2931
▁በነበረበት	-10.2931
▁su	-10.2932
ቅር	-10.2941
▁ተሞክሮ	-10.2944
▁አደ	-10.2945
▁journey	-10.2946
▁በተደጋጋሚ	-10.2946
▁individual	-10.2949
▁ማርያም	-10.2949
ሳችን	-10.295
▁እኛን	-10.2954
▁መለሰ	-10.2962
▁bodies	-10.2964
▁becoming	-10.2965
▁የወርቅ	-10.2966
▁ብላ	-10.2968
▁Co	-10.2971
▁ይሆናሉ	-10.2971
▁ነቢዩ	-10.2979
▁አእምሮ	-10.298
▁showing	-10.2981
ye	-10.2981
▁አንድን	-10.2983
▁ጢሞ	-10.2983
▁sometimes	-10.2983
▁የሚያደርጉት	-10.2985
▁ደግነት	-10.2992
▁sa	-10.3001
▁getting	-10.3008
▁'"	-10.3018
▁issued	-10.3018
▁perform	-10.3018
▁1914	-10.3021
▁easy	-10.3021
▁ቤተሰቦች	-10.3021
▁ረጅም	-10.3021
▁hundred	-10.3025
ኖረ	-10.3026
▁pointed	-10.3028
der	-10.304
▁ዲያብሎስ	-10.304
▁በደንብ	-10.304
▁skill	-10.304
ሆናችሁ	-10.3041
ላቸው።	-10.3048
ት፣	-10.305
He	-10.3051
▁ታማኝነት	-10.3056
▁hearing	-10.3057
▁late	-10.3058
▁hurt	-10.3059
▁ወጪ	-10.3061
▁ባለቤት	-10.3063
▁ቀይ	-10.3063
▁arrived	-10.3067
▁amount	-10.3078
▁computer	-10.3078
▁ነቢያት	-10.3078
▁የውጭ	-10.308
▁የተመሰረተ	-10.3082
▁ሄ	-10.3088
▁ለብዙ	-10.3088
▁አልነበረም።	-10.3089
ጻፍ	-10.3091
ም፡፡	-10.3092
▁sat	-10.3094
▁increase	-10.3097
▁ይቅርታ	-10.3098
ል፡፡	-10.3098
ሉም	-10.3101
▁እውነተኛው	-10.3102
▁ለመጠበቅ	-10.3103
▁ተጋ	-10.3104
▁እንዳሉ	-10.3107
▁ባቢሎን	-10.3108
▁either	-10.3116
▁ቅቡአን	-10.3116
▁appreciate	-10.3117
▁በእምነት	-10.3117
▁መንጋ	-10.312
▁shown	-10.3121
▁helps	-10.3123
▁እንዳላቸው	-10.3135
▁የገንዘብ	-10.3144
ood	-10.315
▁slaves	-10.3153
B	-10.3153
▁ተጠያቂ	-10.3155
▁የሚገልጽ	-10.3155
ጠበቁ	-10.3159
▁አለበት፡፡	-10.3161
fully	-10.3165
አብ	-10.3169
▁activity	-10.3174
▁ተደርጎ	-10.3174
▁በተለያዩ	-10.3174
▁ሰሜን	-10.3174
ፈልገው	-10.3177
▁romans	-10.3179
▁eritrean	-10.318
▁putting	-10.3185
▁አይነቱ	-10.3191
▁እርሻ	-10.3192
▁Jacob	-10.3193
▁የሚባል	-10.3203
▁አሜሪካ	-10.3204
▁ጽ	-10.3208
▁እንደነበረ	-10.3209
▁ይገባ	-10.3212
▁ህጎች	-10.3213
▁ክፍያ	-10.3213
▁ሌሎቹ	-10.3213
ምሳሌ	-10.322
ያም	-10.3222
▁ብታ	-10.3225
▁አካ	-10.3228
▁የይሆዋ	-10.3231
▁appeared	-10.3233
▁ሗላ	-10.3233
▁በሁሉም	-10.324
▁18.	-10.3245
▁በየእለቱ	-10.3251
▁pure	-10.3252
▁issues	-10.3264
ራቸውን	-10.3271
my	-10.3271
For	-10.3272
▁11:	-10.3276
ably	-10.3286
▁አስራ	-10.3287
▁moral	-10.329
ya	-10.3298
ton	-10.3302
ካል	-10.3305
ሰባ	-10.3306
▁ምናልባትም	-10.3307
▁promote	-10.331
▁steps	-10.3317
▁እንግዲያው	-10.3317
▁አጠ	-10.332
▁ካሉ	-10.3322
▁ዘዴ	-10.3326
▁meal	-10.3327
▁strike	-10.3329
▁ተቃውሞ	-10.3329
▁rose	-10.3329
ወት	-10.3333
ም፧	-10.3338
▁የሚያደርጉ	-10.3347
▁administration	-10.3349
▁entrance	-10.3349
▁deeds	-10.335
▁የተወ	-10.335
▁አልፈ	-10.3353
▁አሸ	-10.3361
ይል	-10.3363
▁Judah	-10.3368
▁grew	-10.3368
▁የያዘ	-10.3374
▁ቅን	-10.3375
▁play	-10.3386
▁የጌታ	-10.3387
▁አድርገህ	-10.3388
▁ነበረ	-10.3389
መልስ	-10.3389
▁ማለ	-10.339
▁ክስ	-10.3391
ቶቼ	-10.3394
▁eight	-10.3405
ible	-10.3407
▁appreciation	-10.3408
▁በላ	-10.3426
▁መፍትሄ	-10.3427
▁ከስራ	-10.3428
▁የጤና	-10.3428
▁የሚያሳዩ	-10.3431
ላክ	-10.3434
▁final	-10.3436
▁treat	-10.3437
▁በታላቅ	-10.3438
▁የሚኖሩት	-10.3439
▁ማስጠንቀቂያ	-10.3446
▁memorial	-10.3447
▁እንዲኖር	-10.3447
▁shame	-10.3448
▁አድርጋችሁ	-10.3448
▁thine	-10.3449
▁ግብጽ	-10.3452
▁remained	-10.3455
▁languages	-10.3458
▁sources	-10.3465
▁ሳምንት	-10.3467
▁ቻይ	-10.3468
▁research	-10.3484
ያቸውን	-10.3488
▁store	-10.349
▁የራስ	-10.3492
▁መፈጸም	-10.3492
ሸሽ	-10.3499
▁mary	-10.35
▁jo	-10.3506
▁መመልከት	-10.3507
▁አገዛዝ	-10.3507
▁aware	-10.3507
▁ለመስራት	-10.3507
▁ያደረ	-10.352
ወሰን	-10.352
▁መከተል	-10.3521
ግድ	-10.3525
▁የሚቃጠል	-10.3527
▁ሃያል	-10.3527
▁የውሃ	-10.3529
▁plan	-10.3531
▁ሳን	-10.3533
▁ገብቶ	-10.3534
▁An	-10.3545
▁danger	-10.3545
▁agree	-10.3546
ላይ	-10.3546
▁ስርአቶች	-10.3547
▁older	-10.355
▁አና	-10.3556
▁የባህር	-10.3567
▁realize	-10.3568
▁55	-10.357
▁expected	-10.3575
▁ራስህን	-10.3577
▁condition	-10.3577
▁added	-10.3584
▁On	-10.3586
ታዘዙ	-10.3587
▁ሄዋን	-10.3588
▁ገልጿል።	-10.3606
▁garden	-10.3607
▁object	-10.3607
▁pleasure	-10.3607
eph	-10.3607
▁elder	-10.3607
▁ከምድር	-10.3607
▁10:	-10.3622
▁ግለሰብ	-10.3627
▁ሸለቆ	-10.3627
መሳ	-10.3629
▁addis	-10.3629
▁lands	-10.3635
▁eventually	-10.3647
▁festival	-10.3647
▁ወንጀል	-10.3647
▁ታቦት	-10.3647
▁remove	-10.3648
ከናወን	-10.3659
▁party	-10.366
▁col	-10.3662
▁ያደረጉት	-10.3666
▁መስፈርቶች	-10.3667
▁ዝርዝር	-10.3667
▁actually	-10.3669
▁መሳሪያዎች	-10.367
▁greatly	-10.3675
▁ጀመረ	-10.3675
.'"	-10.3678
▁መያዝ	-10.3685
cha	-10.3685
▁አፍሪካ	-10.3687
▁ጴጥ	-10.3687
ping	-10.3688
▁aid	-10.3688
ሎቹ	-10.3688
▁portion	-10.3689
▁lose	-10.3689
▁ጠላት	-10.3699
▁አብሮ	-10.3703
በቁ	-10.3707
▁elijah	-10.3708
▁key	-10.3708
▁የሚገባው	-10.3712
▁አገኘ	-10.372
▁የእግዚአብሄር	-10.3724
▁correct	-10.3726
▁awake	-10.3728
▁medical	-10.3728
▁መውሰድ	-10.3728
▁አፍቃሪ	-10.3728
▁ህገ	-10.3735
▁የቀረበ	-10.3745
▁ሳራ	-10.3746
▁defense	-10.3748
▁encouragement	-10.3751
▁የተሰሩ	-10.3755
▁የዳዊት	-10.3755
▁የተዘጋጀ	-10.3758
▁worker	-10.3759
▁ጠራ	-10.3767
ቤል	-10.3773
▁provisions	-10.3773
▁በእድሜ	-10.3775
▁የሚከተለውን	-10.3775
▁ሁለተኛ	-10.3777
ልጅ	-10.3777
▁greatest	-10.3784
▁ሜዳ	-10.3787
▁progress	-10.3789
▁ማረጋገጫ	-10.3789
▁በሁለቱ	-10.3789
▁date	-10.3792
▁charge	-10.3797
▁በተመሳሳይም	-10.3799
በትም	-10.3803
▁በድ	-10.3804
▁contain	-10.3804
▁አምላካችሁ	-10.3811
ቶቹን	-10.3812
▁hair	-10.3813
ነውን	-10.3814
▁ኬ	-10.3819
▁N	-10.3821
ew	-10.3823
▁Federal	-10.383
▁የእስራኤልን	-10.3832
▁interests	-10.3834
▁አባታችን	-10.3842
ቺ	-10.3845
▁ማድረጋችን	-10.3851
▁ብሄራዊ	-10.3851
▁ፈርኦን	-10.3851
▁dust	-10.3854
▁choice	-10.3856
▁ears	-10.3857
▁organ	-10.386
▁ብርቱ	-10.3861
▁financial	-10.3871
▁መጠየቅ	-10.3872
▁exile	-10.3872
▁የሰራ	-10.3875
▁ወይን	-10.3876
መካ	-10.388
የም	-10.388
▁መሃል	-10.3881
▁Indeed	-10.3886
▁የእኔ	-10.3887
▁declare	-10.3887
▁judges	-10.389
ጉባኤ	-10.3891
▁ባሪያዎች	-10.3903
ቀኝ	-10.3903
▁ገል	-10.3906
▁Ba	-10.3907
▁beloved	-10.3913
▁ዘመናት	-10.3913
▁moment	-10.3913
▁refuge	-10.392
▁signs	-10.392
▁አካባቢዎች	-10.393
▁አለው፥	-10.3933
▁ይኖርብናል።	-10.3933
▁jordan	-10.3934
▁positive	-10.3934
▁አዲሱ	-10.3939
▁በመሄድ	-10.3941
▁warm	-10.3945
▁forget	-10.3948
▁እንደሌለ	-10.3949
son	-10.3952
▁ነገረ	-10.3953
▁picture	-10.3954
▁22)	-10.3955
▁released	-10.397
▁አመጣ	-10.3973
▁improve	-10.3975
▁መኪና	-10.3976
አንቀጽ	-10.398
▁ወዳጅ	-10.399
▁hebrew	-10.3991
▁image	-10.3991
▁design	-10.3995
▁በአጠቃላይ	-10.3996
▁compassion	-10.3996
▁48	-10.4011
▁pit	-10.4011
▁ችላ	-10.4013
ሼ	-10.4017
ጸባ	-10.4019
▁ከላይ	-10.4024
▁ጠብ	-10.4027
▁መቋቋም	-10.4028
▁ሲደርስ	-10.403
▁የሚሆነው	-10.4031
▁higher	-10.4034
▁leading	-10.4034
▁fulfill	-10.4035
▁faced	-10.4039
▁የህግ	-10.404
ረዝ	-10.4043
▁Any	-10.4044
ረጃ	-10.4045
D	-10.4045
▁art	-10.4047
▁የወጣ	-10.405
▁ሙያ	-10.4054
▁ብዙውን	-10.4054
time	-10.4055
tes	-10.4055
▁ይኖር	-10.4058
▁አውቃለሁ	-10.4059
ነገር	-10.406
▁personality	-10.4062
!'	-10.4074
▁animal	-10.4076
▁ሃይለኛ	-10.4076
▁ይናገራል።	-10.4078
▁likewise	-10.408
▁type	-10.408
▁ማህበር	-10.4081
ጥፋት	-10.4083
▁ፈጣሪ	-10.4088
▁እነርሱ	-10.4089
▁ጉዳዩን	-10.4094
ዲያ	-10.4098
▁በትክክል	-10.4101
ቋቋመ	-10.4101
▁በሚገኝ	-10.4101
▁ማንበብ	-10.4102
ሰሩት	-10.4106
ሞቹ	-10.4107
▁ጉዳዩ	-10.4109
▁regularly	-10.4115
▁relations	-10.4117
▁appear	-10.4117
ችሗል።	-10.4136
▁አለን	-10.4139
▁punishment	-10.4144
▁ካሉት	-10.4144
▁ነገሩ	-10.4145
▁measures	-10.4147
▁ልባቸው	-10.415
▁ትዳር	-10.4152
በታል።	-10.4152
▁አንዱን	-10.4152
ሩም	-10.4163
▁district	-10.4165
▁ተግሳጽ	-10.4165
▁trade	-10.4165
▁De	-10.4168
▁ከሰው	-10.4176
▁groups	-10.4182
▁ሉአላዊው	-10.4183
ተላለፍ	-10.4186
▁እያንዳንዳቸው	-10.4186
▁ር	-10.4193
▁ጽሁፎች	-10.4194
lin	-10.4207
▁በትእግስት	-10.4207
▁concerned	-10.4208
▁የትኛው	-10.4212
▁asking	-10.4215
▁በሰይፍ	-10.4216
▁እንዳለበት	-10.4218
▁የትኞቹ	-10.422
▁gifts	-10.422
▁worshippers	-10.4225
▁Authority	-10.4229
▁economic	-10.4229
▁honest	-10.4229
ቸዋለህ	-10.4231
▁wickedness	-10.4237
▁recently	-10.4237
▁ስራው	-10.4239
ize	-10.4242
bu	-10.4247
▁ጥቅሶች	-10.425
▁ዘወትር	-10.425
▁ሰቅል	-10.425
ለማ	-10.4255
▁ዝናብ	-10.4258
ዝን	-10.4259
▁መሪነት	-10.4262
▁All	-10.4269
▁ያልሆኑ	-10.4272
▁በት	-10.4272
▁በጥንት	-10.4272
▁ደመና	-10.4272
▁challenges	-10.4273
▁ቀጥ	-10.4284
▁drive	-10.4286
▁qu	-10.429
▁ከቤተ	-10.4293
▁eating	-10.4294
ሴት	-10.4299
ኖራቸው	-10.4299
▁ጸሃፊ	-10.43
ማቴዎስ	-10.4301
▁አገልጋዮቹ	-10.431
▁garment	-10.4313
▁concern	-10.4313
▁collect	-10.4314
▁attempt	-10.4315
▁ወደሗላ	-10.4315
▁ሶ	-10.432
▁unless	-10.4323
rom	-10.4326
▁foot	-10.4331
▁revealed	-10.4331
▁ጨለማ	-10.4336
▁ወንድሞቹ	-10.4337
ወሰዱ	-10.434
▁7:	-10.4342
▁seventh	-10.4344
▁ቀረ	-10.4346
▁departed	-10.4353
▁ሙሴም	-10.4354
▁bed	-10.4354
▁challenge	-10.4356
▁calamity	-10.4358
▁simple	-10.4358
▁ውጤታማ	-10.4358
▁ሃይሎች	-10.4358
▁ንስሃ	-10.4358
▁ወደዚህ	-10.4358
▁ልመና	-10.4359
▁ይሆናል፡፡	-10.4359
▁እዳ	-10.4361
▁ዳዊትን	-10.4367
▁lies	-10.4368
ግን	-10.4368
▁ይኸው	-10.4374
▁My	-10.4376
▁harvest	-10.438
▁ፕሮግራም	-10.438
▁ህይወታችን	-10.438
ዎቻቸው	-10.4381
▁invited	-10.4391
▁ሪ	-10.4399
▁patience	-10.4401
▁ትህትና	-10.4401
▁benefits	-10.4402
▁ሆን	-10.4402
▁sell	-10.4404
▁eli	-10.4406
▁thanks	-10.4407
▁ፋ	-10.4411
▁covered	-10.4419
▁list	-10.442
▁ጨርሶ	-10.4423
▁እንድንችል	-10.4423
▁ለፊት	-10.4424
▁train	-10.4424
▁feeling	-10.443
ሗቸው	-10.4431
out	-10.4433
▁le	-10.4444
▁behold	-10.4445
▁ተነስተው	-10.4447
▁philistines	-10.445
▁registered	-10.4453
▁ጥሪ	-10.4454
▁በእርሱ	-10.4457
▁ብን	-10.4458
▁modern	-10.4467
▁የምትችለው	-10.4467
▁ምሽት	-10.4467
▁pieces	-10.4476
▁sides	-10.4481
ative	-10.4481
▁worked	-10.4483
▁learning	-10.4485
ለች፤	-10.4486
▁One	-10.4487
▁ወሬ	-10.4489
▁spouse	-10.4489
▁ሰማ	-10.449
▁brings	-10.4494
▁ይላሉ	-10.4494
▁መስሪያ	-10.4495
▁የቅ	-10.4496
▁አግባብ	-10.4496
▁እንዳስ	-10.4502
▁በጉ	-10.4502
▁ግለሰቡ	-10.4506
▁Abraham	-10.4511
▁divine	-10.4511
▁ማበረታቻ	-10.4511
▁Ar	-10.4511
▁የለበትም	-10.4512
▁ran	-10.4518
▁ሂድ	-10.452
▁የተሰጠ	-10.4524
▁calling	-10.4529
▁ያሳያል	-10.4532
▁cross	-10.4533
▁approval	-10.4533
▁በሚል	-10.4533
▁bond	-10.4533
ቶቻችን	-10.4539
what	-10.4542
▁መላ	-10.4545
ችበት	-10.4545
▁የዚህን	-10.4546
▁ሚስቱ	-10.4548
▁በመንግስት	-10.455
▁የጎደለው	-10.4551
አይ	-10.4553
▁company	-10.4555
▁ፍርሃት	-10.4555
▁assist	-10.4555
▁በነጻ	-10.4557
▁team	-10.4558
▁cup	-10.4558
▁throw	-10.4569
ለህ፧	-10.4574
▁basis	-10.4577
▁ቅድሚያ	-10.4577
▁የአየር	-10.4577
▁ቀርቶ	-10.4577
▁arrangement	-10.4577
▁millions	-10.4579
▁ዋ	-10.4581
▁ምድረ	-10.4582
▁ኪሎ	-10.4583
ረቅ	-10.4585
▁እናቴ	-10.4587
▁ጥላቻ	-10.4596
▁social	-10.4599
▁አካላት	-10.4601
▁escape	-10.4602
▁carefully	-10.4608
lie	-10.461
▁ልጆችን	-10.4612
▁top	-10.4613
by	-10.4614
▁earthly	-10.4617
▁ድርጊቶች	-10.4621
▁ዳቦ	-10.4627
ጨው	-10.4627
▁reasonable	-10.4627
ተቀመጠ	-10.4634
▁ሰብ	-10.4637
▁በማንኛውም	-10.4638
▁እኔና	-10.4641
▁vi	-10.465
▁feed	-10.4651
▁thereof	-10.4651
▁Son	-10.4652
▁ብል	-10.4666
▁custom	-10.4666
▁smoke	-10.4666
▁በፍጥነት	-10.4666
▁ለይሆዋ	-10.4668
▁እስር	-10.4668
▁forgiveness	-10.4669
▁አሉት	-10.4675
▁keeping	-10.4678
▁ሲመጣ	-10.4683
▁የሆነችው	-10.4686
▁removed	-10.4687
▁middle	-10.4688
▁ነቢይ	-10.4688
▁ብርታት	-10.4689
ላቸዋል	-10.4689
▁ልዩነት	-10.4689
▁described	-10.4697
▁ጀመር።	-10.4697
ፎች	-10.4702
▁attend	-10.4712
▁የተሰጠው	-10.4715
▁ዳዊትም	-10.4716
ኑም	-10.4728
▁ደን	-10.4729
▁flood	-10.4733
▁scriptural	-10.4733
▁የህክምና	-10.4733
▁በፊቱ	-10.4734
▁affection	-10.4736
▁ነው፣	-10.4737
▁granted	-10.4749
▁guidance	-10.4756
▁በፍጹም	-10.4756
▁convention	-10.4759
▁dr	-10.4761
▁cost	-10.4767
▁ከመጽሃፍ	-10.477
▁ግቢ	-10.4776
▁General	-10.4778
▁anxiety	-10.4778
▁quality	-10.4778
▁aside	-10.4778
▁የሚቀርብ	-10.4778
▁ጠየቀ	-10.4778
▁እረኛ	-10.4781
▁cloud	-10.4781
▁ግንባር	-10.4783
▁ወንድሞችና	-10.4795
▁ያህዌ፣	-10.4797
▁address	-10.4801
▁ደህንነት	-10.4801
▁ነበሩ፤	-10.4801
▁አይሆንም	-10.4802
▁ያለበት	-10.4809
▁ህመም	-10.4811
▁ልቤ	-10.4819
▁female	-10.4824
▁price	-10.4824
▁jewish	-10.4824
▁ሁኔታው	-10.4826
▁bank	-10.4831
▁በምድሪቱ	-10.4838
ka	-10.484
▁የሰማ	-10.4842
፡	-10.4846
▁ቀና	-10.4846
▁pride	-10.4846
▁ቅርንጫፍ	-10.4846
▁curse	-10.485
▁በገባ	-10.4852
▁ፕሬዚዳንት	-10.4856
▁አየር	-10.4857
▁በኢ	-10.4858
▁ከቤት	-10.486
▁Who	-10.4866
▁occur	-10.4868
▁hezekiah	-10.4869
▁disaster	-10.4869
▁ተርፎም	-10.4869
▁ግምት	-10.487
rd	-10.4878
▁አያስ	-10.4883
ወል	-10.4883
▁እናገኛለን	-10.4887
▁isaac	-10.4892
▁moab	-10.4892
▁Paul	-10.4892
▁እንዲችሉ	-10.4892
ጣጣ	-10.4892
▁articles	-10.4893
▁flow	-10.4896
▁bar	-10.4901
▁ሄደ።	-10.491
▁non	-10.4911
▁እንደሆንኩ	-10.4915
▁ገልጿል	-10.4915
▁ሚስ	-10.4919
▁hours	-10.4924
▁ለመፈጸም	-10.4924
▁አለበት።	-10.4932
▁courtyard	-10.4938
▁replied	-10.4938
ከናወኑ	-10.4938
▁ውጊያ	-10.4938
▁vital	-10.4938
▁እንደሚችሉ	-10.4938
ጠይቀው	-10.4938
▁ሄዶ	-10.4941
▁የማድረግ	-10.4945
እንደ	-10.4947
▁የእህል	-10.495
▁idea	-10.4954
▁ክር	-10.4954
▁እግዚአብሄርን	-10.4955
▁ይሆዋን	-10.4956
ላችሁ፤	-10.4957
▁ጉባኤዎች	-10.4958
መደብ	-10.4959
▁grand	-10.496
▁ምክንያቶች	-10.4961
▁post	-10.4961
▁ደቡብ	-10.4961
▁sinned	-10.4961
▁ያውቃል	-10.4962
▁den	-10.4962
▁ለመረዳት	-10.4964
▁ያለፈ	-10.4965
▁ክፋት	-10.4966
ቋቋም	-10.4968
▁recorded	-10.4972
▁ልጆቻቸው	-10.4975
prov	-10.4981
▁መዋጮ	-10.4984
▁በሚገኙ	-10.4984
▁guide	-10.4988
▁ኢን	-10.4992
now	-10.4995
▁eritrea	-10.4999
▁ከሆነው	-10.5
▁ሁለቱን	-10.5003
▁የተወሰኑ	-10.5007
▁relatives	-10.5007
ple	-10.5015
ያቀርቡ	-10.5015
▁dry	-10.5015
▁wash	-10.5025
▁chapter	-10.503
▁conflict	-10.503
▁vineyard	-10.503
▁property	-10.5031
ጪ	-10.5032
ወርድ	-10.5032
▁create	-10.5034
▁ያለባቸው	-10.5035
▁አደረጉ	-10.5035
▁አዘጋጅ	-10.5038
john	-10.5044
▁declared	-10.5051
▁ኤርትራ	-10.5052
ham	-10.5052
▁tribes	-10.5053
▁በረከቶች	-10.5053
▁ጥበበኛ	-10.5053
▁risk	-10.5053
▁በሉ	-10.5056
ገዱ	-10.5057
▁rom	-10.5061
▁du	-10.5062
ታዘዝ	-10.5063
▁conditions	-10.5064
▁parts	-10.5067
▁ባለሙያዎች	-10.5069
▁guilt	-10.5071
▁closer	-10.5071
▁creatures	-10.5074
▁realized	-10.5076
▁Board	-10.5076
▁tax	-10.5076
▁ወሰደ	-10.5077
▁accomplish	-10.5078
የን	-10.5089
▁pillars	-10.5089
▁13:	-10.5093
▁ሰላማዊ	-10.51
▁ቁጥጥር	-10.51
▁በህዝብ	-10.51
▁recognize	-10.5104
▁የመጣው	-10.5107
▁anti	-10.511
▁እግር	-10.5111
▁ህዝቡም	-10.5113
▁ዘገባዎች	-10.5119
▁famine	-10.5123
▁አዳዲስ	-10.5123
▁የሚረዱ	-10.5124
▁አድር	-10.5124
▁limit	-10.5124
▁deliver	-10.5124
▁reign	-10.5124
▁ሃሳቦች	-10.5125
▁የአንተ	-10.5129
▁65	-10.5131
ላችሗል	-10.5138
▁መማር	-10.5145
▁harmony	-10.5147
▁sanctuary	-10.5147
▁university	-10.5147
▁ቋሚ	-10.5149
▁አስታ	-10.5155
▁ዝቅ	-10.5159
▁መስክ	-10.5169
▁foretold	-10.517
▁insight	-10.517
▁አይኖርም	-10.5171
day	-10.5174
▁patient	-10.5182
▁clothing	-10.5184
ሰበሰቡ	-10.5184
▁corruption	-10.5185
▁stopped	-10.5194
▁1990	-10.5196
▁explains	-10.5209
▁እንደሚገባ	-10.521
▁ትሰ	-10.5215
▁yesterday	-10.5217
▁win	-10.5223
▁direct	-10.5229
▁በፍቅር	-10.5229
▁ኤሊ	-10.5233
▁dear	-10.5234
▁በሰዎች	-10.5237
▁ዎቹ	-10.5237
▁class	-10.5241
▁bitter	-10.5241
▁sarah	-10.5241
▁mental	-10.5247
እምነ	-10.5251
▁burn	-10.5256
▁fulfilled	-10.5266
▁የተባለች	-10.5266
▁reject	-10.5266
ability	-10.5267
▁deeply	-10.5268
▁ለመቀበል	-10.5275
▁መንግስቱ	-10.5276
ወልድ	-10.5277
▁How	-10.5283
▁ስጋት	-10.5286
▁riches	-10.5287
▁After	-10.5288
▁contribution	-10.5288
▁ዛፎች	-10.5288
▁wave	-10.5288
ኸኝ	-10.5291
▁አባባል	-10.5292
▁teachings	-10.5295
▁የካ	-10.5301
▁በአገልግሎት	-10.5301
ናል፤	-10.5301
▁Where	-10.5304
▁ወሰን	-10.5305
▁የዩ።ኤስ	-10.5308
▁prayed	-10.5308
▁private	-10.5312
▁ምርምር	-10.5312
▁ዘላቂ	-10.5312
▁sovereignty	-10.5313
▁ለእግዚአብሄር	-10.5317
▁ጥላ	-10.5323
▁ሳት	-10.5324
act	-10.5326
work	-10.5329
▁በሰላም	-10.533
▁plague	-10.5336
▁stress	-10.5336
▁በህይወታችን	-10.5336
▁በሙሴ	-10.5336
▁convinced	-10.534
▁pour	-10.5341
▁ይረዳናል	-10.5343
▁አንዳች	-10.5344
▁required	-10.5346
▁ይህንን	-10.5347
▁ካሳ	-10.5348
▁እናንተን	-10.5348
▁ተባ	-10.5358
▁division	-10.536
▁threat	-10.536
▁ለማቅረብ	-10.536
▁መግዛት	-10.536
▁በድጋሚ	-10.536
▁oath	-10.5368
▁ባላቸው	-10.5368
▁ተማ	-10.5368
▁practices	-10.5369
of	-10.5369
▁won	-10.537
▁results	-10.5376
ጠሉ	-10.5377
▁fled	-10.5388
▁የሚደርስ	-10.539
▁original	-10.5394
▁successful	-10.5398
▁በጸሎት	-10.5399
▁ስትል	-10.5399
▁goes	-10.5401
▁መስማት	-10.5405
ልከው	-10.5408
▁adult	-10.5408
▁succeed	-10.5408
▁ጉድጓድ	-10.5408
▁አደገኛ	-10.5408
▁ምስሎች	-10.5408
▁አሰራር	-10.5408
▁የበግ	-10.5411
▁ቅጥር	-10.5411
▁ሚና	-10.5417
▁ልጆቻቸውን	-10.5417
ez	-10.5417
ከበሩ	-10.5419
▁names	-10.5426
አምላካችን	-10.5426
▁donkey	-10.5432
▁በራሳቸው	-10.5432
▁ሚስተር	-10.5433
▁ይኖርበታል	-10.5435
▁american	-10.5437
▁ንቁ	-10.5439
▁walked	-10.5444
gar	-10.5446
▁በመቶ	-10.5451
▁የሰላም	-10.5451
▁commit	-10.5452
▁የኢየሱስን	-10.5453
▁ምስጋና	-10.5456
▁almost	-10.5456
▁እነርሱም	-10.5457
▁spend	-10.546
▁ቁርጥ	-10.5464
▁መቀበል	-10.5465
▁ታላቁ	-10.5465
ሉቃስ	-10.5475
▁burning	-10.5477
▁acknowledge	-10.548
▁በጥንቃቄ	-10.548
▁አስተያየት	-10.548
▁እጣ	-10.548
▁ደስተኞች	-10.5484
▁አየሁ	-10.5486
▁ባለቤቴ	-10.5488
▁tower	-10.5492
ረዳት	-10.5493
ሮቻቸው	-10.5496
▁otherwise	-10.5505
▁ለመጀመሪያ	-10.5509
▁አንዳቸው	-10.5512
▁አለባቸው	-10.5512
▁ይሁን።	-10.5518
▁cultivate	-10.5529
▁election	-10.5529
▁እርግጠኞች	-10.5529
▁ይሄዳል	-10.5529
▁ይኖራሉ	-10.5529
▁ቆሞ	-10.553
▁ምርት	-10.5531
▁ከተማዋ	-10.5535
▁association	-10.5541
ገንዘብ	-10.5542
ቋቸው	-10.5542
▁studying	-10.5544
▁ካር	-10.5546
▁gates	-10.555
▁accurate	-10.5553
▁demonstrate	-10.5553
▁root	-10.5553
▁ለማሳየት	-10.5553
▁የፍርድ	-10.5553
▁goals	-10.5553
▁ተብለው	-10.5553
▁proclaim	-10.5556
ቸው፤	-10.5572
▁እያሉ	-10.5577
▁caught	-10.5578
▁ካልሆነ	-10.5578
▁ድፍረት	-10.5578
▁በመሰዊያው	-10.5578
▁peaceful	-10.5579
▁ባለሙያ	-10.5586
▁የአገልግሎት	-10.5592
▁refused	-10.5594
▁From	-10.5597
▁የራሱን	-10.5597
▁ንጉሱም	-10.56
▁horses	-10.56
▁baptism	-10.5602
▁ephraim	-10.5602
▁defend	-10.5602
▁ብልግና	-10.5602
▁damage	-10.5603
▁ውሎ	-10.5605
▁የሚገኙት	-10.5606
▁teenager	-10.5608
izing	-10.5609
▁ሁኑ	-10.5611
▁parent	-10.5617
▁በመጣ	-10.5618
▁commandment	-10.562
▁ቢኖር	-10.5622
20	-10.5624
▁St	-10.5624
▁imperfect	-10.5625
▁greet	-10.5627
▁satisfied	-10.5627
▁ጸሃይ	-10.5627
▁የአባ	-10.5627
▁አምላኬ	-10.5629
ብት	-10.5631
▁lying	-10.5634
▁ዛሬም	-10.5637
▁እንደምታ	-10.564
▁mention	-10.5641
▁የመንግስቱ	-10.5646
▁conversation	-10.5651
▁illustrate	-10.5651
▁ማዳበር	-10.5651
▁stake	-10.5652
▁employment	-10.5652
▁ይዟል	-10.5652
ድል	-10.5653
▁loss	-10.5653
▁His	-10.5659
በተ	-10.5661
ገለጸ	-10.5662
▁የለ	-10.567
▁አቅም	-10.5674
▁rejected	-10.5674
▁project	-10.5676
▁ምእራፍ	-10.5676
▁ዝግጁ	-10.5676
▁እናውቃለን	-10.5676
▁ሰኣት	-10.5676
▁በእውነት	-10.5681
▁አደርጋለሁ	-10.5682
▁becomes	-10.569
▁song	-10.5693
▁ከህዝቡ	-10.5699
ቍ	-10.5701
▁ሪፖርት	-10.5701
▁ተራሮች	-10.5703
▁loyalty	-10.5704
▁24)	-10.5706
▁ስማ	-10.5706
▁ጠቅላይ	-10.5707
▁1)	-10.5707
ላላ	-10.5715
▁dec	-10.5717
▁ያደርግ	-10.5723
▁ምኞት	-10.5726
▁አቀረበ	-10.5726
▁center	-10.5726
▁ትችላላችሁ	-10.573
▁secure	-10.5732
▁travel	-10.5733
▁low	-10.5736
▁አጣ	-10.5738
▁በዚያው	-10.574
▁magazine	-10.5751
▁violent	-10.5751
▁sitting	-10.5752
▁protection	-10.5756
▁indicate	-10.5757
▁loves	-10.5763
▁term	-10.5764
▁color	-10.5766
▁situations	-10.5773
▁She	-10.5775
▁worldwide	-10.5776
▁ምርመራ	-10.5776
▁እረፍት	-10.5778
ቃሉ	-10.5784
ki	-10.5786
▁acted	-10.5797
▁poured	-10.5799
▁Joseph	-10.5801
▁capital	-10.5801
▁ውይይት	-10.5801
▁እኩል	-10.5801
▁fulfillment	-10.5803
ነቴ	-10.5805
▁25)	-10.5811
▁መክ	-10.5815
▁ወዮ	-10.5817
▁chose	-10.5818
▁crime	-10.5826
▁nevertheless	-10.5826
▁patriarch	-10.5826
▁wrath	-10.5826
▁Thou	-10.5826
▁እውቅና	-10.5826
▁ምድሪቱን	-10.5828
▁enable	-10.5835
▁ውሃው	-10.584
▁Z	-10.5841
▁ጥር	-10.5842
▁በወጣ	-10.5846
▁አይደለም፤	-10.5847
▁confident	-10.5851
▁gilead	-10.5851
▁nature	-10.5851
▁ቂጣ	-10.5851
▁zion	-10.5851
▁add	-10.5853
ተዉ	-10.5854
▁release	-10.5857
▁ስላለ	-10.5862
▁ውሳኔዎች	-10.5866
ታለሁ	-10.5872
▁buried	-10.5876
▁genuine	-10.5876
▁spent	-10.5876
▁village	-10.5876
▁ሰብአዊ	-10.5876
▁የተጠቀሰው	-10.5876
▁የመንግስቱን	-10.589
▁doesn	-10.589
▁straight	-10.5901
▁content	-10.5901
▁ልባችን	-10.5901
▁red	-10.5903
▁አድሮ	-10.5906
መስል	-10.5906
▁foundation	-10.5926
▁የንጉሱ	-10.5926
▁ማጥናት	-10.5926
▁በከፍተኛ	-10.5926
▁debt	-10.5927
▁ቢያንስ	-10.5928
▁ትሁት	-10.5942
▁አለ፧	-10.5943
▁assyria	-10.5952
▁permanent	-10.5952
▁የተናገረውን	-10.5952
▁elisha	-10.5953
▁ብዙዎቹ	-10.5955
▁ምናልባት	-10.5955
▁ከደ	-10.5959
▁provides	-10.5959
▁ለሁሉም	-10.5961
▁የሰጠውን	-10.5969
▁benjamin	-10.5977
▁duties	-10.5977
▁labor	-10.5977
▁በግለሰብ	-10.5977
▁አንደኛው	-10.5979
▁አደረገ።	-10.5979
▁እንዲሰማ	-10.5987
▁ህዝቤ	-10.5987
▁waiting	-10.5988
ወለዱ	-10.5988
▁ምድሪቱ	-10.5988
kin	-10.599
▁generations	-10.5992
▁bones	-10.5995
▁ኢሳ	-10.5996
▁ሚኒስቴር	-10.6003
▁በአንድነት	-10.6011
are	-10.6011
▁ናቸው፧	-10.6015
ፍል	-10.6019
iel	-10.6019
ታችሁን	-10.602
ማውያን	-10.6021
▁demand	-10.6028
▁በቀጥታ	-10.6028
▁passover	-10.6029
▁መዝሙሮች	-10.6033
▁seemed	-10.6037
▁Mi	-10.6037
▁ear	-10.604
▁እንቅፋት	-10.6054
▁እርምጃዎች	-10.6054
▁fun	-10.6058
▁ስለነበረ	-10.6058
▁ካላ	-10.6064
▁ጽዋ	-10.6068
▁inter	-10.607
▁መጡ	-10.6071
▁ገልጸዋል።	-10.6079
▁እንደዚህ	-10.608
▁ትእዛዛት	-10.6081
▁በፊትህ	-10.6082
▁የአካል	-10.6084
▁birds	-10.6092
▁ሆና	-10.61
▁meat	-10.6102
▁injustice	-10.6105
▁obedient	-10.6105
▁lesson	-10.6106
▁ኑ	-10.611
▁ያደርጋሉ	-10.6112
▁ያየ	-10.6115
▁ይሆናሉ።	-10.6116
▁ክብ	-10.6117
▁ሰጣቸው	-10.6118
አባቴ	-10.6119
▁regulations	-10.612
▁lamb	-10.6125
▁በተለይም	-10.6128
▁ሆነን	-10.6129
acts	-10.6129
▁responsible	-10.6131
▁በጠ	-10.6134
▁sow	-10.6135
▁professional	-10.6135
▁ruler	-10.6136
▁ሾ	-10.6153
(	-10.6156
▁ሚኒስትር	-10.6157
▁አስተማማኝ	-10.6157
▁However	-10.6158
▁safety	-10.6158
▁አወጣ	-10.6159
▁trials	-10.616
▁ደዌ	-10.6161
▁books	-10.6165
▁africa	-10.6176
▁provision	-10.6177
▁ያነሳ	-10.6181
መዝሙር	-10.6183
▁prejudice	-10.6183
▁procedure	-10.6183
▁ተልእኮ	-10.6183
▁በመቀጠል	-10.6183
▁wound	-10.6184
▁sold	-10.6185
▁ሊያደርግ	-10.6189
▁thank	-10.6191
▁ምንጮች	-10.6192
▁parties	-10.6192
ጌታዬ	-10.6199
▁ዴ	-10.6199
▁west	-10.62
መንግስቱ	-10.6201
▁ቶ	-10.6204
▁ጌታዬ	-10.6205
▁አነስተኛ	-10.6209
▁race	-10.621
▁ያጠፋ	-10.6214
▁በህዝቡ	-10.6214
▁talking	-10.6214
▁carrying	-10.6218
▁consequences	-10.6222
▁በመጨረሻ	-10.6227
ough	-10.6227
▁እንጀራ	-10.6227
▁weak	-10.6231
አሁን	-10.6235
▁habit	-10.6235
▁ሀሳብ	-10.6235
ታማኝ	-10.6236
▁መቃብር	-10.6236
some	-10.6237
▁አይገባም	-10.6242
▁accused	-10.6243
▁እንዳለባቸው	-10.6261
▁መጽሄት	-10.6262
▁ምስል	-10.6262
▁secretary	-10.6263
▁march	-10.6266
▁ለመሆኑ	-10.6268
▁advance	-10.6269
▁weeks	-10.627
▁ባላ	-10.6271
አባ	-10.6279
▁exchange	-10.6288
▁መገኘት	-10.6288
▁ግለሰቦች	-10.6288
▁media	-10.6289
▁interested	-10.6289
▁season	-10.629
▁መጨረሻው	-10.6291
▁remaining	-10.6291
▁እንቅስቃሴዎች	-10.6292
▁አዘ	-10.6297
▁ነጭ	-10.6305
▁terror	-10.6314
▁ህክምና	-10.6314
▁ፈቃደኞች	-10.6314
This	-10.6315
ፈቱ	-10.6317
▁15:	-10.6325
▁formed	-10.6326
▁መሸ	-10.6327
▁ህዝቅያስ	-10.6331
▁joined	-10.6335
▁ላለው	-10.6336
▁mu	-10.6344
ኛል፤	-10.6345
▁calls	-10.635
▁sam	-10.6353
ana	-10.6355
▁seat	-10.6355
30	-10.6361
▁በማሰብ	-10.6365
▁regret	-10.6367
▁ያስፈልገናል	-10.6367
▁calm	-10.6367
▁cell	-10.6367
▁organized	-10.6374
▁ጅ	-10.6375
▁በቀስ	-10.6376
▁services	-10.6378
500	-10.6385
▁ለመሄድ	-10.639
የቅ	-10.6393
ኵ	-10.6393
▁በደቡብ	-10.6393
▁Sh	-10.6397
▁ተሳ	-10.6398
ጣችሁ	-10.64
▁የማን	-10.6409
መጠ	-10.641
▁leg	-10.6412
▁remains	-10.6415
▁beast	-10.6417
▁trial	-10.6418
ኚ	-10.642
▁centuries	-10.642
▁literature	-10.642
▁የእነዚህ	-10.642
▁አይችልም።	-10.6421
when	-10.6421
▁የባእድ	-10.6421
▁ሰፈሩ	-10.6426
▁Therefore	-10.6431
▁conducted	-10.6432
ገለጠ	-10.6443
▁belongs	-10.6444
use	-10.6446
▁contract	-10.6447
▁understood	-10.6447
▁የሚፈልጉ	-10.6447
▁loud	-10.6447
▁በዚሁ	-10.6447
▁አካሄድ	-10.6449
▁ወፎች	-10.6449
▁አዎ፣	-10.6454
▁ተነስ	-10.6455
▁ቤቱን	-10.6457
ላቸዋል።	-10.6458
▁የቤት	-10.6459
▁ሆነ።	-10.6468
▁ይኖርባቸዋል	-10.6474
▁የሚወዱ	-10.6474
▁8:	-10.6474
ዎቻችን	-10.6475
▁rod	-10.6475
▁ያላት	-10.6484
▁cases	-10.6486
▁የሃይማኖት	-10.6492
▁ድር	-10.6497
▁iron	-10.6499
▁civil	-10.65
▁negative	-10.65
▁እናደርጋለን	-10.65
▁እንደሚቻለው	-10.65
▁ዋስትና	-10.65
▁ትላልቅ	-10.65
▁መብቶች	-10.6501
▁ደረሰ	-10.6501
▁የሚሆኑት	-10.6504
▁የስጋ	-10.6505
▁shout	-10.6507
▁tears	-10.6509
▁በሬ	-10.651
▁24:	-10.6515
▁የከተማ	-10.652
▁desert	-10.6527
▁የተያያዙ	-10.6527
▁ያስገኛል	-10.6528
▁accounts	-10.6534
▁decide	-10.6536
▁listening	-10.6536
▁fallen	-10.6538
▁አድርጓል።	-10.6545
▁በነበረው	-10.6545
▁major	-10.6553
▁ይጨምራል	-10.6554
▁ባህል	-10.6555
▁leadership	-10.6555
▁arm	-10.6556
gan	-10.6556
ጠጡ	-10.6559
▁ጽፏል	-10.6569
▁እንዲያገኙ	-10.6571
ዛሬ	-10.6573
▁contrast	-10.6581
▁divorce	-10.6581
▁prospect	-10.6581
▁spring	-10.6581
▁የሃሰት	-10.6581
▁paid	-10.6581
▁miles	-10.6581
ስልጣን	-10.6582
▁በሰማያት	-10.6583
50	-10.6585
▁እነሆ፣	-10.6585
▁finished	-10.6596
▁ነው፥	-10.6604
▁ርህራሄ	-10.6606
▁ብሩ	-10.6606
▁ጄ	-10.6607
▁ታላላቅ	-10.6608
▁አንችልም	-10.6608
▁lasting	-10.6611
▁ሲሄድ	-10.6618
▁ህይወቱን	-10.662
▁አይቀርም።	-10.6627
responsibilities	-10.6635
▁spake	-10.6635
▁stumble	-10.6635
▁ብላለች፥	-10.6644
▁regional	-10.6651
▁አምላክ፣	-10.6653
▁የሌላ	-10.6654
▁ስለማይ	-10.6658
▁ተከታዮቹ	-10.6661
▁culture	-10.6663
▁innocent	-10.6663
▁የተለያየ	-10.6663
▁በመገናኛ	-10.6663
▁arise	-10.6663
▁ነበረ።	-10.6671
▁እንዳለብን	-10.6672
how	-10.6677
ነቃ	-10.6677
▁የሚገቡ	-10.6685
▁manifest	-10.669
▁በሃይል	-10.669
▁ተቀምጦ	-10.669
▁ruth	-10.669
▁ተቋም	-10.6691
▁47	-10.6693
ፊዎች	-10.6695
article	-10.6696
▁በአይነ	-10.6697
▁የተሰማ	-10.6698
▁rep	-10.6699
▁አይደሉም	-10.6699
▁brethren	-10.6717
▁criminal	-10.6717
▁ታውቃላችሁ	-10.6717
▁ድንጋዮች	-10.6717
▁ይሰጠናል	-10.6718
▁ትችላለህ።	-10.6723
ህዝቡ	-10.6729
ኮል	-10.6741
እሱ	-10.6742
▁27)	-10.6743
▁መቆጣጠር	-10.6745
▁እንድናደርግ	-10.6745
▁task	-10.6745
▁በደረሰ	-10.6746
▁ያሳያል።	-10.6747
▁heb	-10.6751
▁encouraged	-10.6751
▁አግ	-10.6753
▁በከተማ	-10.6755
▁አነሳ	-10.6759
▁placed	-10.6759
▁አለማ	-10.6762
▁14:	-10.6771
▁submit	-10.6771
▁አይነ	-10.6772
▁ባህሩ	-10.6773
▁ፋንታ	-10.6774
▁island	-10.6782
ራውያን	-10.6785
▁የጽድቅ	-10.6788
▁የተገኘ	-10.6795
▁ሄደው	-10.6795
▁causes	-10.6796
▁ስደት	-10.6801
▁organizations	-10.6802
ያደርግ	-10.6811
▁linen	-10.6816
"?	-10.6823
▁discern	-10.6826
▁Ministry	-10.6828
▁appearance	-10.6828
▁black	-10.6828
▁integrity	-10.6828
▁atonement	-10.6828
▁northern	-10.6828
▁ከእነርሱ	-10.6832
▁ከአዲስ	-10.6834
▁መረጃዎች	-10.6835
▁Israelites	-10.6836
▁associate	-10.6837
ሪክ	-10.6841
▁D	-10.6845
ምነው	-10.685
ቃለ	-10.6851
▁Minister	-10.6856
▁ማድረጉ	-10.6856
▁worse	-10.6856
▁ጠርቶ	-10.6856
▁market	-10.6856
▁ምርጥ	-10.6856
ቤተሰባችን	-10.6856
▁ጠዋት	-10.6856
▁Na	-10.6858
U	-10.686
▁upright	-10.6861
▁gun	-10.6866
▁tenth	-10.6873
▁ያመጣ	-10.6875
▁ባሏ	-10.6875
ጮች	-10.6879
▁1998	-10.6883
▁በፈቃደኝነት	-10.6883
▁ይልቁንም	-10.6883
▁ዮናታን	-10.6883
▁detestable	-10.6884
▁temptation	-10.6884
▁ያለብን	-10.6885
▁ሃሴት	-10.6887
▁sad	-10.6888
▁28)	-10.6892
▁ከሆኑት	-10.6892
▁ራሴ	-10.6893
ሰጣችሁ	-10.6899
▁reports	-10.6902
▁የሚያሰ	-10.6903
▁ሁሉ፣	-10.6905
▁percent	-10.6911
▁ግንዛቤ	-10.6911
▁ወሳኝ	-10.6911
▁ተሰምቶ	-10.6911
▁additional	-10.6912
▁አቢ	-10.6912
▁younger	-10.6912
▁2001	-10.6914
▁ወዲያው	-10.6916
▁17:	-10.6916
luke	-10.6919
▁ኮሪያ	-10.6919
▁resurrected	-10.6919
▁ዘላለማዊ	-10.6922
▁ሌዋውያኑ	-10.6924
▁ቆመ	-10.6927
▁psalms	-10.6933
እውነት	-10.6933
▁በኮ	-10.6934
▁idols	-10.6939
▁lips	-10.6939
▁ሃይማኖታዊ	-10.6939
▁resist	-10.694
▁existence	-10.694
▁የእውነተኛው	-10.694
▁ጻድቃን	-10.6941
▁እንከን	-10.6942
ራሉ።	-10.6943
▁ነበረች	-10.6946
▁separate	-10.6948
▁ይናገራሉ	-10.695
▁afterward	-10.6954
▁failed	-10.6957
▁ተዘ	-10.6965
▁burned	-10.6966
▁meditate	-10.6967
▁በግዞት	-10.6967
▁ከሁለት	-10.6968
▁immorality	-10.6969
▁ገቢ	-10.6975
like	-10.6975
▁እንድንሆን	-10.6978
▁ይጠራ	-10.698
▁ጉባኤው	-10.6991
▁sincere	-10.6992
ጕ	-10.6996
▁consult	-10.6996
▁manasseh	-10.6996
▁ለማስወገድ	-10.6996
▁ወንድሞቻችን	-10.6996
▁marry	-10.6997
▁ለማጥፋት	-10.6999
▁አቅራቢያ	-10.6999
▁depart	-10.7
▁reveal	-10.7005
▁engage	-10.7005
▁preached	-10.7013
▁praying	-10.7013
▁በምሳሌ	-10.7016
▁ራሴን	-10.7018
▁seal	-10.7023
▁breath	-10.7024
▁campaign	-10.7024
▁communication	-10.7024
▁የሚሰራ	-10.7024
▁የሚባለው	-10.7025
▁አብረን	-10.7027
▁ገላ	-10.703
ነፋ	-10.7035
▁ከልክ	-10.7038
▁pioneers	-10.7045
▁ill	-10.7048
isa	-10.7052
▁ነጥቦች	-10.7052
▁ተናገር	-10.7053
▁ይሰማኛል	-10.7055
vo	-10.7061
▁station	-10.7069
▁hebrews	-10.7069
ቆጠሩ	-10.707
ያደርገው	-10.707
▁tells	-10.707
▁በውስጡ	-10.7081
▁plain	-10.7081
ነበብ	-10.7083
▁treasure	-10.7084
▁አንተስ	-10.7086
ኮች	-10.709
▁goats	-10.7093
H	-10.7094
▁የሚረዳ	-10.7102
▁community	-10.7109
▁ርእሶች	-10.7109
▁እንመለከታለን	-10.7109
▁strive	-10.7109
▁ታውቃለህ	-10.7109
▁መርከብ	-10.7109
▁ገደብ	-10.711
▁ተመለሱ	-10.7111
▁obtain	-10.7115
▁ዘፍ	-10.7119
▁warned	-10.7127
▁join	-10.7128
ሃል፤	-10.713
▁enjoyed	-10.7131
▁teachers	-10.7133
L	-10.7133
▁handed	-10.7135
▁ተመልካች	-10.7138
▁cattle	-10.7138
▁distance	-10.7138
▁story	-10.7138
▁ተከታዮች	-10.7138
▁ፖሊስ	-10.7138
▁ነበራቸው	-10.7138
▁dispute	-10.7138
▁suddenly	-10.7141
▁ፈር	-10.7141
▁These	-10.7141
▁እንደሆነና	-10.7142
▁weapons	-10.7143
▁ጀመረ።	-10.7145
hol	-10.7151
▁በጌታ	-10.7156
▁እንግዳ	-10.7161
▁ይረዳናል።	-10.7164
▁incense	-10.7166
▁virgin	-10.7166
▁ያውቃሉ	-10.7167
▁በሮች	-10.7173
መለሰ	-10.7179
▁central	-10.7195
▁studies	-10.7195
▁መጽሀፍ	-10.7195
▁ማህበረሰብ	-10.7195
▁ሊሆኑ	-10.7195
▁ድንቅ	-10.7196
▁ያገኘ	-10.7197
▁ban	-10.7204
▁faithfulness	-10.7204
▁በቃል	-10.7204
በዙ	-10.7205
▁ግድ	-10.7207
▁plans	-10.721
▁ተቀመጠ	-10.7211
▁similarly	-10.7221
▁Addis	-10.7224
▁በተወሰነ	-10.7224
▁በእጅጉ	-10.7226
▁discussion	-10.7228
▁divided	-10.7235
him	-10.7242
▁ባስ	-10.7247
▁corrupt	-10.7251
▁moving	-10.7253
▁ኤልሳእ	-10.7253
▁ተመልሶ	-10.7253
▁ግጭት	-10.7253
▁መግባት	-10.7253
▁ሰጥቶ	-10.7256
▁Go	-10.7257
▁quite	-10.7259
▁expression	-10.7262
▁እንዲኖራቸው	-10.7263
▁የቀድሞ	-10.7266
▁ራሳችሁን	-10.7267
▁ቲ	-10.7269
▁abandoned	-10.7273
▁ብላችሁ	-10.7274
▁fighting	-10.7277
▁ባለበት	-10.7281
▁እንደሚከተለው	-10.7282
▁የቅርብ	-10.7282
▁round	-10.7282
▁ውጪ	-10.7283
▁በርሳቸው	-10.7286
▁suffered	-10.7293
▁touch	-10.7293
▁ወዳለው	-10.7294
▁ያሳየው	-10.73
▁ኡ	-10.7301
▁app	-10.7305
ነትና	-10.731
▁jonathan	-10.7311
▁leaving	-10.7311
▁እርካታ	-10.7311
▁ጩኸት	-10.7311
▁ጸንቶ	-10.7311
▁ሰራዊቱ	-10.7311
▁እንደገለጸው	-10.7311
▁shepherds	-10.7312
▁included	-10.7313
▁ሃዋርያት	-10.7314
▁ቶሎ	-10.7315
▁መጋ	-10.7329
▁ahab	-10.7329
▁worth	-10.7333
▁ከብዙ	-10.7337
▁አደረ	-10.7339
▁የሳይንስ	-10.734
▁stick	-10.734
▁ነገሰ	-10.7346
▁ነውና።	-10.7347
▁የጉባኤው	-10.7347
▁ስላለው	-10.7348
▁እስራኤላውያንን	-10.7351
▁እብራውያን	-10.7351
▁ውብ	-10.7353
▁hide	-10.7358
▁ቀድሞ	-10.7365
If	-10.7366
▁dark	-10.7367
▁ትናንት	-10.7369
▁authorities	-10.7369
▁እንዳለን	-10.7375
▁refuse	-10.738
ያት	-10.7381
▁ዋነኛ	-10.7382
▁produced	-10.7382
▁29)	-10.7386
▁teaches	-10.7386
▁ይችላል፤	-10.7386
ሌት	-10.7387
▁boast	-10.7399
▁በውጭ	-10.7401
▁ወለደ	-10.7408
▁300	-10.7408
▁ከሁሉም	-10.7411
ውሉ	-10.7417
▁በአካባቢው	-10.7422
▁እንዳላ	-10.7426
▁acquire	-10.7428
▁አመስጋኝ	-10.7428
▁እየጨመረ	-10.7428
▁በተግባር	-10.7428
▁በሁለት	-10.7428
▁inner	-10.743
▁da	-10.7432
ብሄራት	-10.7434
▁governing	-10.7435
▁personally	-10.7442
▁recent	-10.7446
▁publications	-10.745
▁depend	-10.7456
▁burden	-10.7457
▁gospel	-10.7457
▁grateful	-10.7457
▁science	-10.7457
▁ከጥቂት	-10.7457
▁glad	-10.7457
▁ያደርጉ	-10.7457
▁መቀጠል	-10.7457
▁slow	-10.7458
▁የሚያስተ	-10.7458
▁ባለፉት	-10.7463
▁governor	-10.7464
▁fourth	-10.7468
▁የሚረዳን	-10.747
▁ይመስላል	-10.7471
▁በተመሳሳይ	-10.7473
▁(4	-10.7481
ተዳደር	-10.7484
ቶቻችሁ	-10.7485
▁ላሉት	-10.7486
▁በትር	-10.7487
ንቀሳቀስ	-10.7487
▁silent	-10.7487
▁በሚቀጥለው	-10.7487
▁እንዲኖረን	-10.7487
▁መብላት	-10.7487
▁ንድፍ	-10.7487
▁Di	-10.7488
▁በሚስማማ	-10.7496
▁stayed	-10.7497
▁መድሃኒት	-10.7499
▁የሞቱ	-10.7503
▁phil	-10.7515
▁ጥንታዊ	-10.7517
▁bound	-10.7519
▁ኒው	-10.752
▁ጤናማ	-10.7525
መልኩ	-10.7526
▁setting	-10.7526
▁advantage	-10.7546
▁watchtower	-10.7546
▁ለረጅም	-10.7546
▁ኣላማ	-10.7547
▁blow	-10.7549
▁የምግብ	-10.7552
▁በምታ	-10.7554
▁ሄዱ	-10.7559
ሃት	-10.7562
▁ጋሻ	-10.7563
▁nearly	-10.7568
▁touched	-10.7569
ከብር	-10.7569
▁ስሙን	-10.7574
▁devour	-10.7576
▁obligation	-10.7576
▁ውጥረት	-10.7576
▁እውነታ	-10.7576
ጠባበቅ	-10.7576
▁ጫፍ	-10.7577
▁19.	-10.7579
▁አፈር	-10.7582
▁paragraph	-10.7586
▁እናቱ	-10.759
▁አይችሉም	-10.7591
▁pleased	-10.7593
▁በማሳ	-10.7593
▁ሰጠው	-10.7593
▁Mo	-10.7597
▁መዳን	-10.7599
▁አንበሳ	-10.76
▁traveling	-10.7601
▁ታዛዥ	-10.7606
▁across	-10.7606
▁catholic	-10.7606
▁desolate	-10.7606
▁ኣመታት	-10.7606
መለካከ	-10.7606
▁ሊኖር	-10.7606
▁አጽና	-10.7608
▁ማከናወን	-10.7614
ዘጋጅ	-10.7617
ound	-10.7619
ju	-10.7628
▁remind	-10.7632
▁ልጅ፣	-10.7634
▁clergy	-10.7636
▁እንደዚሁ	-10.7636
ቋረጥ	-10.7636
▁safe	-10.7637
▁employer	-10.764
▁ንግድ	-10.7641
▁guilty	-10.7644
▁51	-10.7646
▁ከተማዋን	-10.7647
▁ደር	-10.7651
▁ጀመሩ	-10.7652
▁strengthened	-10.7657
▁ካህኑም	-10.7664
▁equal	-10.7666
▁ሲሆኑ	-10.7666
▁wings	-10.7667
▁ስምንት	-10.7671
▁አይታ	-10.7674
▁godly	-10.7681
▁ራስን	-10.7687
▁gal	-10.7689
▁eph	-10.7691
▁እጽ	-10.7694
▁Peter	-10.7697
▁identify	-10.7697
▁ምልክቶች	-10.7697
▁House	-10.7697
▁እስራት	-10.7697
▁ገበያ	-10.7698
▁አላስ	-10.7699
F	-10.7703
▁ሁኔታዎችን	-10.7704
▁ለእስራኤላውያን	-10.7708
▁completed	-10.7708
▁ለሌላ	-10.7709
▁49	-10.771
▁ጠላቶች	-10.7714
uff	-10.7717
▁ብለዋል።	-10.7719
▁ቁሳዊ	-10.7727
እርሷ	-10.773
▁treated	-10.7731
▁ግል	-10.7735
▁እስካ	-10.7737
▁worthy	-10.7741
▁ወይ	-10.775
▁reside	-10.7756
▁የምናደርገው	-10.7757
▁ልባዊ	-10.7757
▁ከሰዎች	-10.7759
▁publishers	-10.7759
▁American	-10.776
▁grant	-10.7761
ዘፍ	-10.7766
▁ማቅ	-10.777
▁ራሳቸው	-10.7779
▁አካሉ	-10.7783
ፐ	-10.7788
▁english	-10.7788
▁livestock	-10.7788
▁እንቅልፍ	-10.7788
▁ምትክ	-10.7788
▁ነገዶች	-10.7789
ቷቸው	-10.7792
▁includes	-10.7793
▁80	-10.7796
▁suggest	-10.7796
jehovah	-10.7801
▁(3)	-10.7804
▁particular	-10.7807
▁ፍልስጤማውያን	-10.7807
ያእቆብ	-10.7811
▁የሰማይ	-10.7812
▁የሚከተሉት	-10.7814
▁ነበረው	-10.7817
▁facing	-10.7818
▁Jews	-10.7818
▁angry	-10.7818
ከፋፈል	-10.7818
▁ለመናገር	-10.7819
▁እንዲኖሩ	-10.7819
▁weight	-10.7821
▁ዩ	-10.7824
▁ከነበሩት	-10.7831
ስድስት	-10.7832
ሰማያት	-10.7839
▁ባየ	-10.7839
▁እነሆ፥	-10.7842
▁የምንለው	-10.7842
▁ያው	-10.7842
▁Commission	-10.7849
▁rejoicing	-10.7849
▁ቡድኖች	-10.7849
▁90	-10.785
ክህነት	-10.7853
▁Te	-10.7854
▁በከተማዋ	-10.7857
▁ሚስቶች	-10.7858
ዘሩ	-10.7864
says	-10.7866
▁broke	-10.7872
▁careful	-10.7875
▁(13	-10.7875
▁እንቁ	-10.7876
▁testimony	-10.788
▁በአብዛኛው	-10.788
▁music	-10.788
▁በስጋ	-10.7882
▁አለብን	-10.7884
▁faces	-10.789
▁እስራኤልን	-10.7892
ዮሃንስ	-10.7894
▁lifted	-10.79
▁ጆ	-10.7907
ዪ	-10.7911
▁energy	-10.7911
▁receiving	-10.7911
▁በባህር	-10.7911
▁ሞክር	-10.7911
▁የያእቆብ	-10.7915
▁ክፉዎች	-10.7916
▁ለመቋቋም	-10.7916
▁የቀሩት	-10.7916
▁ሊባል	-10.7917
▁ሁኔታውን	-10.7921
ወስደው	-10.7923
▁Ad	-10.7927
▁የሃዋርያት	-10.7931
ች፤	-10.7936
▁abundant	-10.7942
▁eternal	-10.7942
▁sanctify	-10.7942
▁ማስታወቂያ	-10.7942
▁pastures	-10.7947
▁surrounding	-10.795
▁abandon	-10.7951
▁(2)	-10.7952
▁ተዋጊዎች	-10.7956
▁ያላችሁ	-10.7957
▁በአንዳንድ	-10.7958
▁firmly	-10.796
▁ሙታን	-10.7961
▁canaan	-10.7972
▁ምእራብ	-10.7973
▁የነበራቸው	-10.7973
▁ዮርዳኖስ	-10.7973
▁በፊቴ	-10.7973
ታየው	-10.7976
▁የተገኘው	-10.7979
▁constantly	-10.798
▁ሆንኩ	-10.7983
▁hid	-10.7986
▁emotional	-10.7993
ሗ	-10.7995
ተኞቹ	-10.8004
▁ወረቀት	-10.8004
▁ፍጽምና	-10.8004
▁ችለዋል	-10.8004
▁game	-10.8004
▁ትግል	-10.8005
▁zealous	-10.8005
▁የደረሰ	-10.801
ract	-10.8011
▁በቤት	-10.8014
▁የሚመጣው	-10.8021
▁ክርስቶስን	-10.8025
▁inform	-10.8026
▁ህዝ	-10.8032
▁ያቀረበው	-10.8032
▁Joshua	-10.8035
▁በትኩረት	-10.8035
▁በየአመቱ	-10.8035
▁የሰይጣን	-10.8035
▁contact	-10.8035
▁ሶስቱ	-10.8035
▁ሌላውን	-10.8036
▁የሚያስፈልገውን	-10.8042
ላችሁን	-10.8042
▁የኢየሩሳሌም	-10.8049
▁teacher	-10.8049
▁እዚያው	-10.805
▁offend	-10.8051
ልኝ።	-10.8059
▁በመካከላችሁ	-10.8066
They	-10.8068
▁ሰጪ	-10.807
▁ልጆቹን	-10.807
▁tender	-10.8074
▁በአዲስ	-10.8075
▁የእግዚአብሄርን	-10.8085
▁ዘርፍ	-10.8087
▁የቀረው	-10.8091
▁ግርማ	-10.8092
own	-10.8095
▁2013	-10.8098
▁ለህዝብ	-10.8098
▁ድርጅቱ	-10.8098
▁ምርኮ	-10.8098
▁አስተዋ	-10.8104
▁captured	-10.8104
▁ሊረዳን	-10.811
▁May	-10.811
▁ሩት	-10.8116
▁1993	-10.8129
▁importance	-10.8129
▁length	-10.8129
▁medicine	-10.8129
▁ለመድረስ	-10.8129
▁ያጣ	-10.8137
▁ተነ	-10.8148
▁joyful	-10.8155
ያስፈልገን	-10.8161
▁ያበረታ	-10.8161
▁circuit	-10.8161
▁doctor	-10.8161
▁እረኞች	-10.8161
▁stars	-10.8162
▁writer	-10.8163
▁ሁን	-10.8164
▁demons	-10.8165
ስላሴ	-10.817
▁consume	-10.8174
▁rules	-10.8178
▁reminded	-10.8184
▁አይተ	-10.819
▁abroad	-10.8193
▁አሳቢነት	-10.8193
▁lamp	-10.8195
▁ተናግረዋል።	-10.8195
▁overcome	-10.8196
▁officers	-10.8202
▁ለቅ	-10.8214
▁sand	-10.8214
▁grown	-10.8216
▁የእኛ	-10.8216
▁ኢየሱስ፣	-10.8216
▁መስሎ	-10.822
▁ኖረ	-10.822
▁chieftain	-10.8225
▁environment	-10.8225
▁heavy	-10.8225
▁multitude	-10.8225
▁ትእግስት	-10.8225
▁ዙፋን	-10.8225
▁ወጥመድ	-10.8225
▁500	-10.8225
▁ሽልማት	-10.8225
▁normal	-10.8226
▁decree	-10.8226
▁passing	-10.8227
▁Why	-10.8227
▁በእጁ	-10.8231
▁ጫና	-10.8231
▁fo	-10.8234
▁የተሞላ	-10.824
▁event	-10.8242
▁overseer	-10.8243
▁scripture	-10.8243
▁count	-10.8245
▁26)	-10.8249
▁አራ	-10.8253
▁9:	-10.8256
▁numerous	-10.8257
▁scholar	-10.8257
▁መደምደሚያ	-10.8257
▁saith	-10.8257
▁መንስኤ	-10.8257
▁በትጋት	-10.8257
▁judgments	-10.8257
▁usually	-10.826
▁freely	-10.8263
▁condemn	-10.8266
▁reply	-10.827
▁owner	-10.827
▁chariots	-10.8276
▁የአብርሃም	-10.8278
▁ካህን	-10.8279
▁የሚሉ	-10.8281
ification	-10.8289
▁conclusion	-10.8289
▁grief	-10.8289
▁investigation	-10.8289
▁session	-10.8289
▁የሚያስፈልጉ	-10.8289
▁በጽናት	-10.8289
▁ፕሬስ	-10.8289
▁ቅርጽ	-10.83
ተሰኘ	-10.8302
▁ሶስተኛ	-10.8304
▁ዞር	-10.8304
ደስታ	-10.8309
ልሃል	-10.8312
▁goat	-10.8318
▁ምሳሌዎች	-10.832
▁rebel	-10.832
▁drug	-10.8321
▁universe	-10.8321
▁እንመረምራለን	-10.8321
▁በድንገት	-10.8321
▁repent	-10.8322
▁nine	-10.8324
▁treatment	-10.8324
▁instructions	-10.8324
▁branches	-10.8329
▁ህይወታቸውን	-10.8338
▁የከፋ	-10.834
▁ማህ	-10.8341
▁meant	-10.8344
▁mistakes	-10.8348
▁delivered	-10.8351
▁specific	-10.8353
▁repair	-10.8353
▁ችግሩ	-10.8353
▁ensure	-10.8353
▁ክርስትና	-10.8353
▁shut	-10.8353
▁severe	-10.8353
▁ይችል	-10.8355
▁payment	-10.836
▁የይሆዋን	-10.8361
▁beth	-10.8364
▁ጽሁፎችን	-10.8373
▁ordered	-10.8378
▁hundreds	-10.8379
▁messengers	-10.8384
▁spoil	-10.8385
▁ንጉሱን	-10.8385
▁ሰማያዊ	-10.8386
▁አቅኚዎች	-10.8386
▁በቁጣ	-10.8387
ክብ	-10.8387
▁vine	-10.8393
▁ለሌላው	-10.8395
▁slaughter	-10.8396
▁የትኞቹን	-10.8399
light	-10.84
▁ይኖሩ	-10.8402
ኢህአዴግ	-10.8418
▁President	-10.8418
▁surface	-10.8418
▁በመግለጽ	-10.8418
▁በንጉሱ	-10.8418
▁United	-10.8418
▁አዳራሽ	-10.8418
▁pleasing	-10.8418
▁የሚሰጠውን	-10.842
▁belonging	-10.8421
▁ድሃ	-10.8436
መልካም	-10.8438
▁ከነበረው	-10.8438
▁ዘዴዎች	-10.8438
▁student	-10.8438
▁እስክ	-10.8446
▁በቀን	-10.8447
▁accident	-10.845
▁prime	-10.845
▁hidden	-10.845
▁ተጠቅሞ	-10.845
▁ነገስት	-10.8453
▁እድል	-10.8462
▁እንድትሆን	-10.8463
▁Or	-10.8464
▁published	-10.8464
▁የማት	-10.8466
በድ	-10.8468
▁ሆነህ	-10.847
▁stream	-10.8483
▁በሰባተኛው	-10.8483
▁sharing	-10.8483
▁የሚደረግ	-10.8484
▁የሚናገረው	-10.8485
▁dig	-10.8488
▁መሆናቸው	-10.8488
ተጻፈ	-10.8491
▁ከኢየሱስ	-10.8492
▁approved	-10.8496
▁ለመስማት	-10.8496
▁determine	-10.8497
▁ህጻናት	-10.8503
▁በሁለተኛው	-10.8503
▁standard	-10.8504
▁ሲሰማ	-10.8515
▁basic	-10.8515
▁herself	-10.8516
▁ፖሊሲ	-10.8516
▁adultery	-10.8516
▁beauty	-10.8516
▁የግብጽ	-10.8516
▁የያዙ	-10.8517
▁አስፋፊዎች	-10.8518
▁ተክል	-10.8524
▁እንባ	-10.8526
▁powers	-10.8528
መልክ	-10.853
▁resolve	-10.853
ler	-10.8531
▁assured	-10.8531
▁ያገኘው	-10.8532
▁holding	-10.8532
▁urged	-10.8532
▁መካ	-10.8532
ራእይ	-10.8536
እንዲህ	-10.8536
ታላቁ	-10.8537
▁homes	-10.8539
▁implement	-10.8546
▁miss	-10.8546
▁tear	-10.8547
▁ካልተ	-10.8548
▁function	-10.8549
▁1997	-10.8549
▁cease	-10.8549
▁relief	-10.8549
▁ጤንነት	-10.8549
▁የኢራቅ	-10.8549
▁ኢራቅ	-10.8549
▁ሲታይ	-10.8549
▁የሚከተሉትን	-10.8552
▁host	-10.8558
▁bearing	-10.8562
▁observed	-10.8564
እነሆ፣	-10.8569
▁መጻህፍትን	-10.857
▁ይህንኑ	-10.8571
▁መቅረብ	-10.8573
▁closely	-10.8575
▁መቃ	-10.8578
ኢንተርኔት	-10.8582
▁synagogue	-10.8582
▁በጽሁፍ	-10.8582
▁እችላለሁ	-10.8582
▁መስፈሪያ	-10.8582
▁መጠጊያ	-10.8582
▁dress	-10.8582
▁የሌለበት	-10.8587
ቀይ	-10.8589
▁የቆየ	-10.8589
▁Iraq	-10.8595
▁እንደሚመጣ	-10.8595
▁ይመራ	-10.8597
▁ሰላምታ	-10.8601
▁ቢሆኑ	-10.8608
▁መዝሙሮች፥	-10.8609
▁growing	-10.8612
▁devotion	-10.8615
▁easier	-10.8615
▁በትምህርት	-10.8615
▁ተወካዮች	-10.8615
▁ኩባንያ	-10.8615
▁ክርስቲያናዊ	-10.8615
▁የሚገልጹ	-10.8615
▁bomb	-10.8615
▁moon	-10.8615
▁cried	-10.8615
▁ፈተናዎች	-10.8621
▁bi	-10.8627
▁መልእክ	-10.8627
▁arab	-10.8635
▁ከሆኑ	-10.8638
▁የወጣው	-10.8643
▁access	-10.8648
▁valuable	-10.8648
▁ቀርቦ	-10.8648
ባእድ	-10.8651
▁herd	-10.8652
▁ጠባቂ	-10.8654
▁product	-10.8655
▁የሚሰጡት	-10.8656
▁መዛሙርቱን	-10.8657
▁በአዲሱ	-10.8666
▁speaks	-10.8667
▁ተሰማ	-10.8675
▁visited	-10.868
▁ሰውነት	-10.8681
ማበረታታት	-10.8681
▁Pharaoh	-10.8681
▁method	-10.8681
▁ትንቢቶች	-10.8681
▁ከእሷ	-10.8682
▁መውጣት	-10.8682
▁ተመለሰ	-10.8693
▁evolution	-10.8694
▁settle	-10.8696
▁አላቸው፥	-10.8697
ብዙ	-10.87
▁heat	-10.8702
▁limited	-10.8713
▁የቀረበው	-10.8714
▁behavior	-10.8715
▁empty	-10.8715
▁መጠበቂያ	-10.8715
▁ሃይሉ	-10.8715
▁የሚመጣ	-10.8718
▁ሊሰማ	-10.8718
▁ስብ	-10.872
▁highly	-10.8722
▁አዘዘ	-10.873
▁ሳሙ	-10.873
▁ይረዳ	-10.873
▁discussed	-10.873
▁ለእያንዳንዱ	-10.873
▁የሚያጠ	-10.8733
▁ልጆቻችን	-10.8737
▁የአካባቢው	-10.8737
▁የልጅ	-10.8739
▁(12	-10.8741
▁whenever	-10.8745
▁ሰጡ	-10.8748
▁ሂዱ	-10.8748
▁ሰባ	-10.8748
▁extent	-10.8749
▁አያውቅም	-10.8749
▁letters	-10.8749
with	-10.8751
▁መባዎች	-10.8751
▁sought	-10.8755
even	-10.8757
▁የልብ	-10.8762
▁affairs	-10.8763
▁Our	-10.8764
▁ዘመቻ	-10.877
▁የተባለውን	-10.8771
▁detail	-10.8774
ጣራ	-10.8776
▁anxious	-10.8782
▁conquer	-10.8782
▁endurance	-10.8782
▁sustain	-10.8782
▁ሊቃውንት	-10.8782
▁በሚሊዮን	-10.8782
▁የማምለኪያ	-10.8782
▁generous	-10.8782
▁በአስራዎቹ	-10.8782
▁ርእሰ	-10.8782
▁democratic	-10.8783
▁ለሁለት	-10.8783
▁የሚያገለግሉ	-10.8783
▁box	-10.8784
▁regards	-10.8784
▁turning	-10.8787
▁ልማት	-10.8787
▁የራሱ	-10.8791
▁አባቶች	-10.8793
▁በመከተል	-10.8794
▁contribute	-10.8797
▁ለስራ	-10.8804
▁drawn	-10.8807
▁(10	-10.8808
▁betray	-10.8816
▁baal	-10.8816
▁ደርሶ	-10.8819
▁ለማከናወን	-10.882
▁የሮም	-10.882
▁beliefs	-10.8827
▁discovered	-10.883
▁የተጻፈው	-10.8834
▁Ch	-10.8834
▁listened	-10.8837
org	-10.8838
▁ይገልጻል	-10.8838
▁ሆኗል	-10.8838
ህዝቤ	-10.8839
▁document	-10.8842
▁የሚሰጡ	-10.8842
▁bath	-10.8843
▁preparation	-10.885
▁society	-10.885
▁active	-10.885
▁ኣ።ም	-10.8852
▁react	-10.8853
▁lessons	-10.8859
▁ስጡ	-10.8859
▁ጉዳዮችን	-10.8863
▁እንችላለን፧	-10.8871
▁በሰራ	-10.8879
▁ezekiel	-10.8884
▁satisfaction	-10.8884
▁ለመውሰድ	-10.8884
▁በዘመናችን	-10.8884
▁ያገኛሉ	-10.8884
▁reap	-10.8884
▁doors	-10.8886
▁የሰጣቸው	-10.8891
▁ለማለት	-10.8893
▁ይላል፦	-10.8894
▁lift	-10.8896
▁ከኤ	-10.8897
▁survive	-10.8899
▁bore	-10.8911
ሉ፡፡	-10.8918
ነገሩ	-10.8918
▁crown	-10.8918
▁shield	-10.8918
▁ጠቦት	-10.8918
▁horns	-10.892
▁የሚያሳየው	-10.892
▁plead	-10.8925
▁ዱ	-10.8927
▁(9	-10.8932
▁በሌሊት	-10.8935
▁ደግሞስ	-10.8937
▁ልጆቼ	-10.8937
▁fields	-10.8941
▁eaten	-10.8945
▁Every	-10.8952
▁utensils	-10.8952
▁vast	-10.8952
▁በሰሜን	-10.8952
▁ሳሉ	-10.8955
▁መቼም	-10.8963
▁አመቱ	-10.8963
መሰረተ	-10.8972
▁ይመስል	-10.8972
▁ፍቅርና	-10.8974
▁drinking	-10.898
▁telling	-10.8981
▁immoral	-10.8985
▁የግድ	-10.8985
▁አቅርቡ	-10.8987
▁protest	-10.8987
▁ያደረገውን	-10.8998
እነዚህ	-10.9003
▁ጐ	-10.9004
ክፉዎች	-10.9006
▁አዋቂ	-10.9006
▁ቤተሰቡ	-10.901
▁requires	-10.9011
▁ይሰማቸዋል	-10.9013
mal	-10.9015
▁wheat	-10.9021
▁ኢዮአብ	-10.9021
▁የሚበልጡ	-10.9021
▁appointment	-10.9023
low	-10.9027
▁exalted	-10.9037
▁officer	-10.9037
▁እንደተናገረው	-10.9038
▁ከክርስቶስ	-10.9039
▁እንበል	-10.9042
▁recognized	-10.9049
▁bars	-10.9049
▁አዋ	-10.9051
▁sanctified	-10.9056
▁transport	-10.9056
▁ኖሬጋ	-10.9056
▁ጣልቃ	-10.9056
▁ርቀት	-10.9056
ነታችሁ	-10.9058
▁courageous	-10.9058
ገለጽ	-10.9059
▁exposed	-10.9063
▁ጠብቁ	-10.9066
▁ጽኑ	-10.9067
▁thrown	-10.9068
▁ይደር	-10.9069
set	-10.9075
▁እንዳሉት	-10.9076
አባቶቻችሁ	-10.9079
▁ማንነት	-10.9084
▁ሃና	-10.9085
take	-10.9089
▁ሺ	-10.909
▁alcohol	-10.909
▁feast	-10.909
▁scroll	-10.909
▁ለመግለጽ	-10.909
▁አልቻሉም	-10.909
▁የተቀደሰ	-10.909
▁ያቀርባል	-10.909
▁fought	-10.9091
▁ሴትየዋ	-10.9091
▁comment	-10.9091
▁በስሜ	-10.9092
▁cloth	-10.9104
ብቶ	-10.9105
ሰኝ	-10.9105
▁የመጡ	-10.9111
▁ቆመው	-10.9111
▁መጣ።	-10.912
▁warn	-10.912
▁pen	-10.9124
ጼ	-10.9125
▁abundance	-10.9125
▁relevant	-10.9125
▁ትሆናለች	-10.9125
▁የሚያስከትለው	-10.9125
▁የተለመደ	-10.9125
▁የተሳሳተ	-10.9125
▁construction	-10.9126
ache	-10.9127
▁የዱር	-10.9128
▁cope	-10.9129
▁እላችሗለሁ	-10.9132
▁sinners	-10.9139
▁30)	-10.9141
▁unable	-10.9142
▁walls	-10.915
ነድ	-10.915
▁አበረታ	-10.9153
▁የከተማዋ	-10.9158
▁agreed	-10.9158
▁contrary	-10.916
▁current	-10.916
▁glorify	-10.916
▁glorious	-10.916
▁policy	-10.916
▁royal	-10.916
▁ሚዛናዊ	-10.916
▁በየጊዜው	-10.916
▁በድፍረት	-10.916
▁አህዛብ	-10.916
▁ዱቄት	-10.916
▁ፓርቲ	-10.916
▁አቤቱ፥	-10.916
▁መአዛ	-10.916
uel	-10.9162
▁መታሰቢያ	-10.9163
ቻችሁን	-10.9164
▁complaint	-10.9169
▁ሳለሁ	-10.9171
▁instruct	-10.9171
▁ድንጋጌዎች	-10.9172
▁arrested	-10.9172
▁ልባችሁ	-10.9173
▁አልኩ	-10.9182
▁እንዲኖረው	-10.9183
▁አለች	-10.9188
ዘፍጥረት	-10.9191
▁የተደረገ	-10.9193
▁ልማዶች	-10.9195
▁ወዳድነት	-10.9195
▁በየቀኑ	-10.9195
▁በነገሰ	-10.9196
▁ጸጥ	-10.9198
▁implementation	-10.9198
▁Christian	-10.9199
▁መሳ	-10.9199
▁ወፍ	-10.9203
▁affected	-10.9203
▁ሆናችሁ	-10.9204
▁አስታውስ	-10.9208
▁ጂ	-10.9209
▁31)	-10.9215
▁ምስክርነት	-10.9215
▁አብረውት	-10.9218
▁ከወንድ	-10.9221
▁armed	-10.9224
▁ጤና	-10.9226
▁oppress	-10.9228
▁የተደረገው	-10.9229
▁በግል	-10.923
ጌታ	-10.923
▁opinion	-10.9231
▁paternal	-10.9231
▁supply	-10.9231
▁ተባእት	-10.9231
መለከታቸው	-10.9231
▁ነጥብ	-10.9231
▁ህይወቴን	-10.9231
▁ለዳዊት	-10.9236
rick	-10.9238
We	-10.9239
ድኑ	-10.9245
▁preserve	-10.9247
▁ecclesiastes	-10.9248
▁attending	-10.9263
▁የማደሪያ	-10.9266
▁ወዳጆች	-10.9267
▁54	-10.9268
▁attendant	-10.9268
▁fig	-10.9275
▁የአሮን	-10.9276
▁የተባሉት	-10.9279
▁መኖሩን	-10.9283
▁hor	-10.9288
▁አገልጋይህ	-10.929
ዮሴፍ	-10.9295
እብ	-10.9297
▁syria	-10.9301
አገልጋዩ	-10.9301
▁በፍርሃት	-10.9301
▁ተናግራለች	-10.9301
▁አራዊት	-10.9301
▁ይሻላል	-10.9301
▁majority	-10.9303
▁arms	-10.9304
▁ወጥተው	-10.9308
▁አለ፥	-10.9309
▁terms	-10.9316
▁የሰራው	-10.9321
heb	-10.9327
▁judged	-10.9331
ተቻለ	-10.9336
▁Council	-10.9337
▁samaria	-10.9337
▁አስፈጻሚ	-10.9337
▁ጓደኞች	-10.9337
▁chron	-10.9337
ቸዋለን	-10.9337
▁የዚያ	-10.9338
▁ወዳለ	-10.9339
▁healed	-10.9339
▁department	-10.9339
▁ይሉ	-10.934
▁involves	-10.9342
▁Day	-10.9342
▁wherever	-10.9346
▁ይሰራል	-10.9347
ou	-10.9353
▁invite	-10.9357
▁የራሳቸውን	-10.9359
▁ተቃዋሚ	-10.9365
▁ያለኝ	-10.9365
but	-10.9372
▁plunder	-10.9373
▁ልውውጥ	-10.9373
▁southern	-10.9373
▁ሸክም	-10.9373
▁ጠፍ	-10.9373
▁የተወለደ	-10.9373
▁boat	-10.938
▁shi	-10.9387
ዮሃ	-10.939
ቹም	-10.9392
ላችሁ፧	-10.9393
▁supported	-10.9394
▁scientists	-10.9397
▁mere	-10.9399
gal	-10.9402
▁almighty	-10.9408
▁honey	-10.9408
▁print	-10.9408
▁solution	-10.9408
▁swear	-10.9408
▁እንክብካቤ	-10.9408
▁የአፍሪካ	-10.9408
▁የጥናት	-10.9409
▁እኮ	-10.9409
▁joab	-10.941
▁የኖሩ	-10.9413
ደሙ	-10.9414
look	-10.9423
▁ከኢ	-10.9424
▁abi	-10.9428
▁With	-10.9433
lah	-10.9437
▁descend	-10.9444
▁participate	-10.9444
▁tradition	-10.9444
▁illegal	-10.9444
▁የተያያዘ	-10.9445
▁ውሸት	-10.9445
▁rely	-10.9451
▁awe	-10.9452
▁ከማድረግ	-10.9453
▁ለእነዚህ	-10.9462
▁horn	-10.9463
▁ማግ	-10.9467
ኢዮብ	-10.9477
▁relative	-10.948
፩	-10.9481
▁fortified	-10.9481
▁ለውጦች	-10.9481
▁እነማን	-10.9481
▁fair	-10.9481
▁እጥፍ	-10.9481
▁designed	-10.9483
▁ጣቢያ	-10.9483
▁shed	-10.9486
▁አለው፦	-10.9488
▁ትቶ	-10.9489
▁Un	-10.9489
▁ናቸው፡፡	-10.949
▁exodus	-10.9492
▁appoint	-10.9493
▁ግብር	-10.9505
ረኩ	-10.9505
▁ተማሪ	-10.9507
▁20:	-10.9507
▁52	-10.9509
there	-10.9509
እንስሳ	-10.9513
ቀበለው	-10.9514
▁furthermore	-10.9517
▁ሃጢአተኞች	-10.9517
▁በጥብቅ	-10.9517
▁transgression	-10.9518
▁requirements	-10.952
▁ከዋክብት	-10.9539
▁total	-10.9542
ገራችን	-10.9544
▁citizens	-10.9546
▁ይቻላል።	-10.9548
▁redeem	-10.9553
▁commercial	-10.9553
▁ጽሁፋዊ	-10.9553
▁ሙከራ	-10.9553
▁ስለሆኑ	-10.9553
▁ወረደ	-10.9553
▁ህንጻ	-10.9553
▁boundary	-10.9554
▁በማሳየት	-10.9554
▁worthless	-10.9555
▁ጨዋታ	-10.956
▁Lo	-10.9565
60	-10.9565
▁ናት።	-10.9565
▁ብቻውን	-10.9587
▁prophesy	-10.959
▁greed	-10.959
▁shine	-10.9591
አምላኩ	-10.9592
▁አውራጃ	-10.9594
▁ስምኦን	-10.9594
ማርያም	-10.9595
▁ብረት	-10.9597
▁cold	-10.9598
▁J	-10.9599
▁star	-10.9601
▁በጥሩ	-10.9601
▁የለሽ	-10.9603
▁ሌላኛው	-10.9607
▁ልኮ	-10.9609
ዎቹም	-10.9611
▁በሰጠው	-10.9612
በቀል	-10.9615
እውነተኛ	-10.962
ራለን	-10.962
▁የትኛውን	-10.9621
መሰረት	-10.9626
▁encouraging	-10.9626
▁operation	-10.9626
▁studied	-10.9626
▁በብዛት	-10.9626
▁ይፈልጋሉ	-10.9626
▁ጎጂ	-10.9626
▁adjust	-10.9626
▁ruling	-10.9626
▁drew	-10.9627
▁commander	-10.9627
▁Al	-10.9628
▁ቀለም	-10.9632
ብኛል	-10.9635
▁ከጌታ	-10.9635
▁flocks	-10.9638
ቶቻቸውን	-10.9643
▁shekels	-10.9644
▁መክብብ	-10.9649
▁Je	-10.9651
▁እጣን	-10.9656
▁traveled	-10.9659
▁port	-10.9661
▁ውል	-10.9662
▁tomorrow	-10.9663
▁ለመከላከል	-10.9663
▁መስዋእቶች	-10.9663
▁በመሆናቸው	-10.9663
▁ሲገልጽ	-10.9663
▁አሳዛኝ	-10.9663
▁ተጠቃሚ	-10.9666
▁የምንኖረው	-10.9667
▁የመጨረሻው	-10.9669
▁እንደሚያደርግ	-10.9669
▁expectation	-10.9669
▁ማመን	-10.967
▁በዳዊት	-10.9675
▁rulers	-10.9675
▁(11	-10.9678
▁የመንፈስ	-10.9682
▁ይናገራሉ።	-10.9686
▁የያዘው	-10.969
▁ስራዎችን	-10.9695
▁ነበር፥	-10.9697
▁farm	-10.97
▁executive	-10.97
▁ሃያላን	-10.97
▁መጸለይ	-10.97
▁ማስታወሻ	-10.97
▁ምሁራን	-10.97
▁በኤርትራ	-10.97
▁coast	-10.97
▁ብቸኛ	-10.97
▁connection	-10.9701
▁responded	-10.9711
▁adds	-10.9714
▁ate	-10.9718
▁golden	-10.9718
▁concluded	-10.9718
እያንዳንዱ	-10.9719
▁በመንገድ	-10.9722
▁jas	-10.973
▁san	-10.9733
▁Jordan	-10.9737
▁certificate	-10.9737
▁imprisonment	-10.9737
▁poverty	-10.9737
▁suppose	-10.9737
▁ለተወሰነ	-10.9737
▁የሚንጸባረቅበት	-10.9737
▁ይስሃቅ	-10.9737
▁ችሏል	-10.9737
▁Levites	-10.9737
▁ገብቷል	-10.9737
▁መዘዝ	-10.9737
▁ለራሱ	-10.9738
▁victory	-10.9738
▁illness	-10.9739
▁beside	-10.9739
▁በላዩ	-10.9743
40	-10.9747
▁scattered	-10.975
W	-10.9751
▁sending	-10.9754
የአምላክ	-10.9754
አገልጋዮቹ	-10.977
▁በእያንዳንዱ	-10.977
▁Sovereign	-10.9774
▁communion	-10.9774
▁recover	-10.9774
▁አለዚያ	-10.9774
▁storm	-10.9774
▁ሳጥን	-10.9776
▁fruitage	-10.9777
▁ልብህ	-10.9778
▁beasts	-10.9779
ያዘው	-10.9782
▁relates	-10.9788
▁ገደለ	-10.9788
▁defeated	-10.9788
▁restore	-10.9793
▁በአንቺ	-10.9797
▁regime	-10.9811
▁trumpet	-10.9811
▁በዋነኝነት	-10.9811
▁የሚፈልግ	-10.9811
▁edom	-10.9811
▁አልቻለም	-10.9811
▁የተሟላ	-10.9812
▁አለ፤	-10.9813
▁State	-10.9814
▁aba	-10.9817
▁ካላቸው	-10.9818
▁የመጡት	-10.9822
▁residents	-10.9824
▁wear	-10.9825
▁ስለምን	-10.983
▁recalled	-10.9832
each	-10.9833
▁የሚገኙትን	-10.9834
▁ይኖራል።	-10.9834
▁ባልንጀራ	-10.9836
▁የባቢሎን	-10.9837
▁ሰጥቷል	-10.9841
▁ዩ።ኤስ	-10.9845
▁Birr	-10.9849
▁Government	-10.9849
▁slain	-10.9849
▁በዝርዝር	-10.9849
▁የሩሲያ	-10.9849
▁ከሶስት	-10.9849
▁የተጠቀመ	-10.9849
▁ወሮታ	-10.985
▁companions	-10.9851
▁difference	-10.9852
▁አልጋ	-10.9867
▁ከይሁዳ	-10.9871
▁Le	-10.9873
▁ያዝ	-10.988
ogi	-10.9883
▁budget	-10.9886
▁enterprise	-10.9886
▁fault	-10.9886
▁የሂሳብ	-10.9886
▁አቅርቦ	-10.9887
▁ሰጥቶናል	-10.9891
▁ግቦች	-10.9892
ሁ፤	-10.9895
▁ቁር	-10.9897
▁mourning	-10.9905
▁conclude	-10.9905
▁ለየት	-10.9916
▁ራስህ	-10.9917
▁kindly	-10.9919
▁አስጠ	-10.9921
▁(15	-10.9921
ችሗል፤	-10.9922
▁Behold	-10.9924
▁administrative	-10.9924
▁በውስጧ	-10.9924
▁yoke	-10.9924
▁woe	-10.9925
ዋቸው	-10.9925
▁ጊዜያዊ	-10.9925
▁ከምን	-10.9926
▁horse	-10.9929
lev	-10.9934
▁ጀመርኩ	-10.9936
▁አላት	-10.994
ኝም።	-10.9941
▁የመሳሰሉ	-10.9945
cho	-10.9951
▁trans	-10.9957
▁foolish	-10.9961
▁cruel	-10.9962
▁advise	-10.9962
▁worry	-10.9962
▁ደካማ	-10.9962
▁ህልም	-10.9962
▁የተፈጠረው	-10.9963
▁ልብሱን	-10.9963
▁ከሌላ	-10.9963
▁creature	-10.9966
▁mass	-10.9968
▁verse	-10.9968
▁particularly	-10.9976
▁አናት	-10.9981
▁አላት።	-10.9982
▁La	-10.9982
god	-10.9982
▁ወዲያ	-10.9987
▁በልቡ	-10.9992
▁approached	-10.9993
▁talents	-10.9994
▁አድርግ።	-10.9999
▁flour	-10.9999
▁refresh	-11
▁የምስክር	-11
ዠ	-11
▁reproach	-11
▁እፈልጋለሁ	-11
▁የመከላከያ	-11
▁በድንጋይ	-11
▁በተባለው	-11
▁የሙሴ	-11
▁taste	-11
▁Law	-11.0003
ተማሪ	-11.0003
▁በሶስተኛው	-11.0004
▁hit	-11.0007
▁ብትሆን	-11.0009
▁seized	-11.0018
▁መገንዘብ	-11.0019
▁ቶም	-11.0021
▁mal	-11.0023
▁iraq	-11.0024
▁ድረ	-11.0028
▁finding	-11.0032
▁besides	-11.0037
▁John	-11.0038
▁celebrate	-11.0038
▁የተባበሩት	-11.0038
▁increasing	-11.0038
▁ፈቃዱ	-11.0038
▁arose	-11.0038
▁pick	-11.0038
▁የቻለው	-11.004
▁ፍጥረት	-11.0044
▁viewed	-11.0046
▁የለም፤	-11.0049
▁inhabited	-11.0053
▁የሰውን	-11.0054
▁continues	-11.0058
▁የሚፈልገው	-11.0062
▁aspects	-11.0063
ሂድ	-11.0064
▁ጉዳ	-11.0064
▁bowl	-11.0065
▁ቪ	-11.0066
▁clouds	-11.0071
እኛ	-11.0074
law	-11.0074
▁zeal	-11.0076
▁global	-11.0077
▁purchase	-11.0077
▁የመምረጥ	-11.0077
▁የሚያስገኘው	-11.0077
▁ማድረጋቸው	-11.0077
▁neck	-11.0077
▁suggestions	-11.0077
▁መያዣ	-11.0077
▁እንዲሰጥ	-11.0079
▁የሌሎችን	-11.0079
▁sex	-11.0081
▁performed	-11.0083
▁acceptable	-11.0084
▁previously	-11.0085
▁governments	-11.0086
▁22:	-11.0088
▁crushed	-11.009
▁(14	-11.009
▁አራቱ	-11.0107
▁የደረሰው	-11.0107
▁tplf	-11.0115
▁ይወስዳል	-11.0115
▁superior	-11.0115
▁ጥቅሞች	-11.0115
▁referred	-11.0116
▁ይጠፋል	-11.0119
▁Eritrean	-11.0122
▁rage	-11.0122
▁ያምናሉ	-11.0124
▁ያደርጋል፤	-11.0124
▁towns	-11.0126
▁ቤቴ	-11.0134
▁urge	-11.0134
▁ጀመሩ።	-11.0135
ጥፋቱ	-11.0137
▁ዮ	-11.0139
▁መካፈል	-11.0143
▁እንዲሄድ	-11.0145
▁ቤቴል	-11.015
ization	-11.0153
▁application	-11.0154
▁dedication	-11.0154
▁potential	-11.0154
▁zechariah	-11.0154
▁የታሪክ	-11.0154
▁እንደሚኖር	-11.0154
▁delay	-11.0155
▁dangerous	-11.0156
ቀላቀ	-11.0156
▁load	-11.0157
It	-11.0164
▁አሮንን	-11.0164
ረጋቸው	-11.0167
▁rome	-11.0169
▁extend	-11.017
▁ኤል	-11.0171
▁በተስፋ	-11.0172
▁ሶስተኛው	-11.0174
▁ከየት	-11.0183
▁ትተው	-11.0184
▁የተነገረ	-11.0185
than	-11.0186
▁18:	-11.0186
▁መጠጥ	-11.0192
▁judicial	-11.0192
▁serpent	-11.0192
▁ሌዋውያን	-11.0192
▁የትምህርት	-11.0192
▁ፍቅሩ	-11.0193
▁ኣይን	-11.0195
▁ፈራ	-11.0196
ግማሽ	-11.0198
▁mistake	-11.0199
▁ጀርባ	-11.02
▁gathering	-11.0203
▁dan	-11.0206
▁ወደሚገኘው	-11.0206
▁አድርጋ	-11.0207
▁weigh	-11.0207
▁የልማት	-11.0211
▁የፍትህ	-11.0219
▁ይፈልጋል	-11.0225
▁የሚስማማ	-11.0229
▁ኤፌ	-11.0231
▁confront	-11.0231
▁esau	-11.0231
▁staff	-11.0231
▁ትናንሽ	-11.0231
▁የሚሉት	-11.0232
▁trip	-11.0232
▁occurred	-11.0232
▁አልአዛር	-11.0233
▁ስራቸውን	-11.0235
▁የእሳት	-11.0236
▁net	-11.0237
▁Because	-11.0244
▁levi	-11.0245
▁handle	-11.0246
▁ህያዋን	-11.0248
▁base	-11.0252
▁rams	-11.0255
ገለግሉ	-11.0257
▁quick	-11.0259
▁Your	-11.0268
▁chiefs	-11.0269
ህዝቦች	-11.027
▁assistance	-11.027
▁registration	-11.027
▁በዙሪያው	-11.027
▁ተለይቶ	-11.027
▁ተቋማት	-11.027
▁እንደመሆናችን	-11.027
▁ዜጎች	-11.027
▁ababa	-11.027
▁መመርመር	-11.027
▁trained	-11.0271
▁ምንዝር	-11.0271
▁Bible	-11.0272
▁murder	-11.0272
▁ጀልባ	-11.0272
▁ለማረጋገጥ	-11.0273
▁exactly	-11.0275
ፍሬ	-11.0278
▁በህይወቴ	-11.028
▁claimed	-11.029
▁21:	-11.0293
▁ወሰዱ	-11.0295
▁119	-11.0298
▁ጓደኛህ	-11.0299
they	-11.0301
▁አመጡ	-11.0305
▁አሳይ	-11.0309
▁eplf	-11.031
▁messiah	-11.031
▁scale	-11.031
▁ተናግሮ	-11.031
▁መንፈሱ	-11.031
▁harsh	-11.031
▁መምራት	-11.0311
▁ነውና፤	-11.0316
▁western	-11.0323
▁ለመመለስ	-11.0326
▁disciple	-11.0328
▁ዋናው	-11.033
▁origin	-11.0332
▁16:	-11.0341
So	-11.0344
▁ማስተማር	-11.0349
▁ተናጋሪ	-11.0349
▁አቤቱታ	-11.035
▁በቤተሰብ	-11.0353
▁ድምጹን	-11.0357
ይላል	-11.0359
▁statutes	-11.0363
ሁትን	-11.0364
▁የሚወጡ	-11.0376
▁ፈሪሳውያን	-11.0384
▁verses	-11.0384
▁የላቸውም	-11.0385
▁render	-11.0386
▁admit	-11.0387
▁cap	-11.0388
▁paper	-11.0389
▁quoted	-11.0389
▁review	-11.0389
▁መከላከያ	-11.0389
▁ማስታወስ	-11.0389
▁ህጻን	-11.0389
▁ድንበር	-11.0389
▁olive	-11.0389
▁በቤቱ	-11.0389
▁በረዶ	-11.039
▁bright	-11.0391
▁concerns	-11.0392
▁Com	-11.0393
▁ወንዶችና	-11.0398
▁ለመያዝ	-11.0399
▁ሞትን	-11.04
▁eprdf	-11.0402
▁finish	-11.0406
form	-11.0409
▁በጽድቅ	-11.041
▁ቆዳ	-11.0412
▁By	-11.0413
G	-11.0415
▁recall	-11.0415
ይህን	-11.0424
hab	-11.0425
ታላቂቱ	-11.0428
▁Kingdom	-11.0428
▁decades	-11.0428
▁ephesians	-11.0428
▁obedience	-11.0428
▁renew	-11.0428
▁ባለስልጣኑ	-11.0428
▁ዩናይትድ	-11.0428
▁ማስወገድ	-11.0428
▁ማውጣት	-11.0428
▁በደግነት	-11.0428
▁በስፋት	-11.0429
▁1,000	-11.0431
▁professor	-11.0431
▁19:	-11.0434
▁lambs	-11.0438
▁እንዲያደርግ	-11.0439
▁አጋር	-11.0441
▁ኑሮ	-11.0443
▁Sa	-11.045
▁therein	-11.0452
▁የሚገባውን	-11.0456
▁በመከራ	-11.0456
▁ቤታቸው	-11.0458
▁consideration	-11.0459
put	-11.046
▁expressions	-11.046
▁wipe	-11.0468
▁የጠበቀ	-11.0468
▁አስረኛ	-11.0469
▁watching	-11.047
ገናኝ	-11.047
ሉትን	-11.0471
ካህኑ	-11.0477
▁images	-11.0478
▁የገባውን	-11.0496
▁ሆነ፤	-11.0498
▁america	-11.05
▁የክርስቲያን	-11.0501
▁conceal	-11.0508
▁degree	-11.0508
▁federal	-11.0508
▁እንደማይችል	-11.0508
▁የሚያሳዝነው	-11.0508
▁eastern	-11.0508
▁proud	-11.0508
▁ለመቀጠል	-11.0508
▁hungry	-11.0508
▁ግፍ	-11.0509
▁የሚሰሩ	-11.051
▁የሚወድ	-11.051
ወላጆች	-11.0511
ዎቻቸውን	-11.0515
እንግዲህ	-11.0524
▁weep	-11.0529
▁increased	-11.0548
▁easily	-11.0548
▁በነበሩት	-11.0548
▁ተጠንቀቁ	-11.0548
▁ደፋር	-11.0548
▁bought	-11.0548
▁እንዲያውቁ	-11.0549
▁unlike	-11.0551
▁ነገራቸው	-11.0555
▁forest	-11.0555
▁experiences	-11.0556
▁የእጅ	-11.0558
▁አገልጋዮቹን	-11.0562
▁deuteronomy	-11.0562
ቅጣት	-11.0563
▁ይታይ	-11.0565
dan	-11.0568
▁አንደኛ	-11.0573
▁rid	-11.0579
▁fifth	-11.0589
▁blue	-11.0589
▁roof	-11.0589
▁super	-11.0589
▁ድሆች	-11.0589
▁መበለት	-11.0589
▁scribes	-11.0589
▁deserve	-11.0589
▁intention	-11.059
▁ቃለ	-11.0591
ካህናቱ	-11.0591
▁meles	-11.0592
▁ያገኛል	-11.0593
▁አላቸው፦	-11.0594
▁reality	-11.0596
▁employee	-11.06
▁መመለስ	-11.0602
▁ወንድሞቼ	-11.0603
▁የዘር	-11.0608
▁የተስፋ	-11.0609
▁tie	-11.061
እጅ	-11.0615
▁የማግኘት	-11.0616
▁healthy	-11.0618
ኒያ	-11.0619
70	-11.0624
▁አድርጉ።	-11.0627
▁prevail	-11.0629
▁await	-11.0629
▁jehoshaphat	-11.0629
▁merciful	-11.0629
▁population	-11.0629
▁ማረፊያ	-11.0629
▁ጠያቂ	-11.0629
▁አልችልም	-11.0629
▁(5	-11.0631
▁ቀጠለ	-11.0636
▁developed	-11.0638
▁laugh	-11.0638
10	-11.064
▁ከክፉ	-11.0645
ችሗቸው	-11.0646
▁ማሳሰቢያ	-11.0649
▁የፍቅር	-11.0651
▁Iraqi	-11.0653
▁paragraphs	-11.0656
▁አደርጋለሁ።	-11.0663
▁የወንድ	-11.0666
▁ወገ	-11.0667
እርስ	-11.0669
▁prostitute	-11.067
▁መኳንንት	-11.067
▁በእርግጠኝነት	-11.067
መሰክር	-11.067
▁የተጠቀሱት	-11.067
▁የሚጠቁም	-11.067
where	-11.0672
▁parable	-11.0673
▁ጓደኛችሁ	-11.0673
ለታል።	-11.0675
▁ለሃጢአት	-11.0676
መኖሪያ	-11.0678
▁እርሱም።	-11.0684
▁intended	-11.0685
▁ሰፈር	-11.0688
who	-11.0689
▁weeping	-11.069
▁assure	-11.0693
▁በጊዜ	-11.0699
ወጣት	-11.0702
▁ham	-11.0708
▁ገዛ	-11.0708
▁People	-11.071
▁persecution	-11.071
▁ለበርካታ	-11.071
▁ምድራዊ	-11.071
▁ታሪኮች	-11.071
▁የተፈጥሮ	-11.071
▁ዩኒቨርሲቲ	-11.071
▁threw	-11.071
▁አማራጭ	-11.0711
▁running	-11.0711
▁ጨርቅ	-11.0711
▁የሚያስችሉ	-11.0711
▁transform	-11.0711
▁corner	-11.0711
▁እንደሚሉት	-11.0711
▁ministers	-11.0712
▁selfish	-11.0713
uz	-11.0714
▁ማዶ	-11.0716
▁Su	-11.0721
▁products	-11.0723
▁ስልጣንና	-11.0723
▁shew	-11.0728
▁አዳምና	-11.0732
▁ወላጆቼ	-11.0737
▁አስተማሪ	-11.0739
▁ይፋ	-11.0739
In	-11.0742
here	-11.0744
▁72	-11.0744
▁ወለደች	-11.0748
▁attended	-11.0751
▁conviction	-11.0751
▁pattern	-11.0751
▁absalom	-11.0751
▁deputy	-11.0751
▁floor	-11.0751
▁temporary	-11.0751
▁repeatedly	-11.0751
▁በከንቱ	-11.0752
▁የሚቻል	-11.0752
▁በትዳር	-11.0753
▁ቅሬታ	-11.0753
▁ለመወጣት	-11.0755
▁devoted	-11.076
▁የቃል	-11.0761
▁አስተዋይ	-11.0766
▁እውነተኛውን	-11.0766
▁33)	-11.0767
▁ሳኦልም	-11.077
then	-11.0771
▁ተገቢውን	-11.0772
▁ላሉ	-11.0775
▁Tom	-11.0776
ማስተዋል	-11.0781
▁አሳው	-11.0786
▁arch	-11.0787
ኸውን	-11.0792
ፓትርያርኩ	-11.0793
▁Palestinian	-11.0793
▁ተአምራት	-11.0793
▁አዛዥ	-11.0793
▁birr	-11.0793
▁የማይችል	-11.0793
▁እያደገ	-11.0793
▁ought	-11.0794
▁የብዙ	-11.0795
▁km	-11.0795
ሻእቢያ	-11.0799
ዩ።ኤስ	-11.0804
▁elderly	-11.0815
▁bare	-11.0817
▁shoulder	-11.0821
▁focused	-11.0821
ድያ	-11.0824
right	-11.0827
▁አህያ	-11.0831
rev	-11.0834
▁shadow	-11.0834
▁ሰጥቷቸዋል	-11.0834
▁ጸጉር	-11.0834
▁አላውቅም	-11.0834
▁ክርክር	-11.0834
ቋቋሙ	-11.0834
▁shape	-11.0834
▁በፍርድ	-11.0834
▁የሚጠቀሙ	-11.0834
▁ባድማ	-11.0834
▁እንዲያገለግሉ	-11.0836
▁ወጣ።	-11.0838
አንዲት	-11.0838
▁ግንባታ	-11.0841
▁የሰዎችን	-11.0843
ጋድ	-11.0847
▁የማታ	-11.0847
▁አራተኛ	-11.085
▁በተናገረው	-11.0852
ክርስቲያን	-11.0854
▁gad	-11.0854
▁ብቁ	-11.0861
▁points	-11.0864
▁ጆን	-11.0865
▁ለሆነው	-11.0869
▁ያመለክታል	-11.0871
▁አይደለም፧	-11.0875
▁structure	-11.0875
▁ሃይማኖቶች	-11.0875
▁forgiving	-11.0875
▁በአግባቡ	-11.0875
▁35)	-11.0876
▁sorts	-11.0879
▁mountainous	-11.0879
▁ሉአላዊነት	-11.088
▁አልባ	-11.0883
▁ባዶ	-11.0885
ጠቀሱ	-11.0888
▁ሆኗል።	-11.089
▁አስፈላጊውን	-11.089
▁53	-11.0896
ፍሩ	-11.0897
▁forgiven	-11.0897
▁feared	-11.0901
▁ዋይ	-11.0903
▁charges	-11.0904
▁ፈረሶች	-11.0904
▁እንዳደረገ	-11.0913
▁አድርገዋል	-11.0913
▁foreigners	-11.0914
▁ammonites	-11.0917
▁impossible	-11.0917
▁ተገልጿል	-11.0917
▁የዋስትና	-11.0917
▁ይሆዋ።	-11.0921
▁Jo	-11.0923
▁ይገኛል	-11.0923
▁african	-11.0929
▁አለኝ።	-11.093
▁ለአብርሃም	-11.0931
▁mid	-11.0933
▁ህዝቅኤል	-11.0938
▁ቆም	-11.0943
ዳይ	-11.0948
▁cure	-11.0949
▁ማእድ	-11.0959
▁domestic	-11.0959
▁gradually	-11.0959
▁violate	-11.0959
▁ለመቆጣጠር	-11.0959
▁ለመፍታት	-11.0959
▁የብልግና	-11.0959
▁diligent	-11.0959
▁prefer	-11.0959
▁አዎንታዊ	-11.0959
▁psalmist	-11.0959
▁ascend	-11.096
▁aim	-11.0962
place	-11.0962
▁እድሜው	-11.0962
▁ባለቤቱ	-11.0964
▁የአል	-11.0968
▁ቆየ	-11.097
▁የሚገልጸውን	-11.0977
▁lowly	-11.0978
▁emotions	-11.0979
▁አክሎም	-11.0981
▁streets	-11.0981
▁compare	-11.0982
▁praised	-11.099
▁ideas	-11.0992
▁ቀኑን	-11.0993
▁National	-11.1001
▁ለማጠናከር	-11.1001
▁ለንጉሱ	-11.1001
▁መለኮታዊ	-11.1001
▁ስኬታማ	-11.1001
▁የሃሳብ	-11.1001
▁ጥንካሬ	-11.1001
▁salt	-11.1001
▁repay	-11.1002
▁ሚስጥር	-11.1002
▁2012	-11.1003
▁attacks	-11.1004
▁ከምት	-11.1007
መንግስት	-11.1008
▁appears	-11.1009
▁Bo	-11.101
▁ended	-11.1013
▁ሰንበት	-11.1013
ሞከረ	-11.1017
▁chariot	-11.1018
▁outer	-11.1018
▁ፕሮፌሰር	-11.1019
ያደርሱ	-11.1019
▁ያውቅ	-11.102
▁restored	-11.1022
▁mourn	-11.1023
▁tents	-11.1025
አልና	-11.1026
በደል	-11.1029
መስማት	-11.1033
ቅናት	-11.1033
▁directed	-11.1041
መጽሃፍ	-11.1041
▁chamber	-11.1043
▁frame	-11.1043
▁nebuchadnezzar	-11.1043
▁suspect	-11.1043
▁technology	-11.1043
▁ተመልካቾች	-11.1043
▁የሚደረገው	-11.1043
▁micah	-11.1043
▁ለማዳበር	-11.1043
▁ይወጣል	-11.1043
▁strip	-11.1043
Like	-11.1043
▁radio	-11.1043
▁ሲናገሩ	-11.1043
▁(17	-11.1045
▁የሚነካ	-11.1046
ሃለሁ፤	-11.1047
ልጆቻችሁ	-11.1049
▁growth	-11.1052
▁details	-11.1053
ተጠቀሙ	-11.1055
▁resolved	-11.1068
his	-11.1069
▁የሞተ	-11.1072
▁አላማው	-11.1076
እነሱ	-11.108
ለት፤	-11.1082
▁ተናግረዋል	-11.1083
▁ሄደ፤	-11.1083
▁deceive	-11.1086
▁square	-11.1086
▁unique	-11.1086
▁ማሰላሰል	-11.1086
▁ተወዳዳሪ	-11.1086
▁ጾታ	-11.1086
▁ሩሲያ	-11.1086
▁drop	-11.1086
▁የመኖር	-11.1086
▁ሰነድ	-11.1089
▁slavery	-11.1089
▁በእሷ	-11.1092
keep	-11.1092
▁የእውነት	-11.1096
▁የመጀመሪያዎቹ	-11.1096
▁ወንድሞች፣	-11.1096
▁foreigner	-11.1104
አገልግሎታችን	-11.1108
▁አይኖች	-11.1112
▁አጠና	-11.1113
▁Ne	-11.1116
ush	-11.1125
▁ዚ	-11.1128
▁ረድቶኛል	-11.1128
▁ትሆናለህ	-11.1128
▁ጥቅሱ	-11.1128
▁ተእለት	-11.1128
▁እንዲቀጥል	-11.1128
▁cedar	-11.1128
▁ለደቀ	-11.1131
▁busy	-11.1133
▁earn	-11.114
▁ኤፌሶን	-11.1141
ቋንቋ	-11.1143
▁ጦርነቱ	-11.1155
▁condemned	-11.1158
▁europe	-11.1168
▁reigned	-11.1169
▁background	-11.1171
▁edition	-11.1171
▁አካላዊ	-11.1171
▁እምላለሁ	-11.1171
▁ashamed	-11.1171
▁device	-11.1171
▁የወረዳ	-11.1171
▁ባንክ	-11.1173
▁ከሞተ	-11.1174
▁sinful	-11.1174
▁tomb	-11.1174
▁translated	-11.1175
mark	-11.1176
▁comments	-11.1178
▁institutions	-11.1183
▁merely	-11.1184
እንግሊዝኛ	-11.1185
90	-11.1185
▁regulation	-11.119
▁ከማንኛውም	-11.1196
▁acting	-11.1198
▁ከብር	-11.1209
▁york	-11.1214
▁በስብከቱ	-11.1214
▁ውስጣዊ	-11.1214
▁ዘካርያስ	-11.1214
▁ይጠይቃል	-11.1214
▁ፋሲካ	-11.1214
▁milk	-11.1214
▁ተመልሰው	-11.1214
▁Even	-11.1214
▁መገናኛ	-11.1214
▁በአንዱ	-11.1215
▁እጁ	-11.1215
▁edge	-11.1215
▁highlight	-11.1215
▁nearby	-11.1216
▁dedicated	-11.1219
ተጠቀሰ	-11.122
▁በቤቴል	-11.1221
Who	-11.1222
▁pope	-11.1223
▁ቢሮው	-11.1229
▁pillar	-11.1233
▁execute	-11.1238
▁values	-11.1245
▁(16	-11.1248
▁require	-11.1249
▁ሰሪ	-11.1249
▁ይበሉ	-11.125
▁ይሄ	-11.1253
▁clothed	-11.1253
▁endeavor	-11.1257
▁swore	-11.1257
▁ያብራራል	-11.1257
▁ተግባራት	-11.1257
▁internal	-11.1257
▁የጻፈው	-11.1257
▁በቅርብ	-11.1257
▁proof	-11.1258
▁ጋብቻ	-11.1258
▁ፍቺ	-11.1259
▁እልል	-11.126
▁disgusting	-11.1261
▁እውነቱን	-11.1261
▁sheba	-11.1264
▁ገብተው	-11.1265
▁cat	-11.1269
▁ማማ	-11.1269
▁describes	-11.1273
▁አጋጣሚዎች	-11.1273
▁select	-11.1278
▁አለው፤	-11.1282
▁አደረገ፤	-11.1283
▁sentence	-11.1287
▁clothes	-11.1288
▁secured	-11.129
▁resources	-11.1293
▁በተቻለ	-11.1298
▁achieve	-11.13
▁annual	-11.13
▁essential	-11.13
▁አሳልፌ	-11.13
▁የስብከቱ	-11.13
▁አነጋገር	-11.13
▁ምድብ	-11.13
▁አጭር	-11.1301
▁vain	-11.1301
▁የፈጠረው	-11.1302
▁OF	-11.1302
▁ሀብት	-11.1302
▁played	-11.1306
ክፉ	-11.1308
▁ገለጸ	-11.1308
▁(18	-11.1309
ብቃት	-11.1314
▁የሚወጣው	-11.1317
can	-11.1319
▁street	-11.1321
▁ኢትዮጵያዊ	-11.1325
To	-11.1334
▁ረዳ	-11.1337
ማንኛውም	-11.1338
▁annihilate	-11.1344
▁chronicles	-11.1344
▁confess	-11.1344
▁grasp	-11.1344
▁pursuant	-11.1344
▁ሪፐብሊክ	-11.1344
▁ርዝመት	-11.1344
▁አገላለጽ	-11.1344
▁ኢዮሳፍጥ	-11.1344
▁ጲላጦስ	-11.1344
▁ቃሌን	-11.1344
▁ዮርክ	-11.1344
▁አረጋዊ	-11.1344
▁አስፈሪ	-11.1344
▁የምትኖር	-11.1344
▁የሚያውቁ	-11.1344
▁የሚናገር	-11.1345
▁በሮም	-11.1345
▁sickness	-11.1349
▁ገዥ	-11.1349
▁በብሄራት	-11.1349
▁በአገሪቱ	-11.1354
▁በሆኑት	-11.1358
▁opening	-11.1362
▁wage	-11.1369
ፋችሁ	-11.1376
▁ውበት	-11.1376
▁ያደርጋሉ።	-11.1377
▁treasures	-11.1381
▁willingly	-11.1383
▁Pro	-11.1385
▁ይገኙበታል	-11.1386
▁blame	-11.1386
▁critical	-11.1387
▁rebellion	-11.1387
▁significant	-11.1387
▁socket	-11.1387
▁theocratic	-11.1387
▁ሊያደርጉ	-11.1387
▁እንደምንችል	-11.1387
▁ዲሞክራሲያዊ	-11.1387
▁የሚቀርቡ	-11.1387
▁ይባላል	-11.1387
▁በመግባት	-11.1388
▁reference	-11.1388
▁አማካሪ	-11.1388
▁forced	-11.1388
▁bowed	-11.14
▁jar	-11.1403
▁directly	-11.1408
▁ስለምት	-11.141
▁የተጻፈ	-11.141
▁መለከት	-11.1415
▁በጎቹ	-11.1415
የሰው	-11.1416
▁ያመጣል	-11.1423
▁strangers	-11.1426
▁perceive	-11.1431
▁province	-11.1431
▁video	-11.1431
▁ሰባኪዎች	-11.1431
▁በማቅረብ	-11.1431
▁በዩናይትድ	-11.1431
▁የኢኮኖሚ	-11.1431
▁በትህትና	-11.1431
▁ጨረቃ	-11.1431
▁ፈታኝ	-11.1431
that	-11.1433
ታይም	-11.1433
ብሽ	-11.1434
well	-11.1435
▁russian	-11.1437
▁hot	-11.144
ቃዩ	-11.1442
▁በዚህች	-11.1442
▁Those	-11.145
▁ዘዳግም	-11.1454
መጋቢ	-11.1455
▁seize	-11.1457
▁slaughtered	-11.1461
▁ልጆቻችሁን	-11.1463
▁የእነሱ	-11.1469
ሰላም	-11.1472
▁ማብራሪያ	-11.1475
▁ማወቃችን	-11.1475
▁ተመለከተ	-11.1475
▁ተቀምጠው	-11.1475
▁ይደረጋል	-11.1475
▁ይጠቁማል	-11.1475
▁አይቻልም	-11.1475
▁depth	-11.1475
▁brain	-11.1475
▁denied	-11.1475
▁palm	-11.1475
▁ይሄዳሉ	-11.1475
▁በተለየ	-11.1476
▁በማለዳ	-11.1476
▁በሚለው	-11.148
Do	-11.1482
ሃል፧	-11.149
▁applying	-11.149
▁ከሌለ	-11.1491
▁የካህናት	-11.1491
▁inherit	-11.1497
▁bird	-11.1498
አገልግሎቱ	-11.1505
ረጋገጥ	-11.1512
▁fit	-11.1512
▁permit	-11.1518
▁repeat	-11.1519
▁challenging	-11.1519
▁invitation	-11.1519
▁opposite	-11.1519
▁pronounce	-11.1519
▁spain	-11.1519
▁ምኞቶች	-11.1519
▁ውዳሴ	-11.1519
▁ማርቆስ	-11.152
▁ኪዳኑ	-11.152
▁window	-11.1521
▁ይጠቅ	-11.1521
ይሁዳ	-11.1521
▁ተመራማሪዎች	-11.1523
▁ቤዛ	-11.1524
▁weaken	-11.1525
▁የሰጡት	-11.1526
▁caring	-11.1527
What	-11.1529
▁Sub	-11.153
▁አባቱን	-11.153
▁creditor	-11.1531
▁pharisees	-11.1535
▁በቃሉ	-11.1537
▁hated	-11.1539
▁choices	-11.1552
ተያዘ	-11.1563
▁ቃሉ	-11.1563
▁mock	-11.1564
▁prophecies	-11.1564
▁sorrow	-11.1564
▁grass	-11.1564
▁management	-11.1564
▁ለመግባት	-11.1564
▁ጥናቶች	-11.1564
▁rulership	-11.1565
▁ብንሆን	-11.1568
▁በስም	-11.1571
▁የፍጥረት	-11.1586
ቾች	-11.1587
▁ተዋጊ	-11.1591
▁የጥፋት	-11.1593
iving	-11.1594
▁positions	-11.1608
▁Samuel	-11.1609
▁unexpected	-11.1609
▁ቦርድ	-11.1609
▁ታደርጋለህ	-11.1609
▁አግኝተዋል	-11.1609
▁የፍልስጤም	-11.1609
▁ተሳትፎ	-11.1609
▁የበኩር	-11.1609
▁ቁጥራቸው	-11.1609
▁ወላጅ	-11.1609
▁ተሰጥቶ	-11.1609
ጥበበኞች	-11.1609
▁ያንን	-11.1609
▁abuse	-11.1609
▁ይላሉ።	-11.1612
▁ተራራማ	-11.1614
▁warriors	-11.1619
▁የተሰጠውን	-11.1623
▁crowds	-11.163
▁ስጋዊ	-11.1635
▁ህብረት	-11.164
▁ስራችን	-11.1649
▁differ	-11.1651
▁hospital	-11.1652
▁ራቅ	-11.1652
መሆኗ	-11.1653
▁yield	-11.1653
▁inspect	-11.1653
▁nathan	-11.1653
▁በህይወታቸው	-11.1653
▁ቁልፍ	-11.1654
▁እንዲያገኝ	-11.1654
▁ይሁኑ	-11.1654
▁duty	-11.1655
▁Russian	-11.1657
▁US	-11.1658
▁mold	-11.1658
matthew	-11.1665
▁cherubs	-11.1667
▁lower	-11.1674
▁አብራ	-11.1676
▁ሰባቱ	-11.1676
▁stretch	-11.1676
16	-11.1687
▁Eritrea	-11.1691
▁ለሰራ	-11.1694
▁ሳል	-11.1695
▁ሚስቱን	-11.1696
▁transfer	-11.1698
▁Agency	-11.1698
▁communicate	-11.1698
▁providing	-11.1698
▁quiet	-11.1698
▁secular	-11.1698
▁unleavened	-11.1698
▁ህልውና	-11.1698
▁ቦርዱ	-11.1698
▁Satan	-11.1698
▁በምስራቅ	-11.1698
▁steal	-11.1698
▁ለማምጣት	-11.1699
▁በጥልቅ	-11.1699
▁በተሻለ	-11.1699
▁የሚያገኙት	-11.1699
▁እንደሚረዳ	-11.1706
▁የተባሉ	-11.1706
ድሃ	-11.1708
▁Look	-11.1708
▁ሲያዩ	-11.1709
ሗችሁ	-11.1709
▁evidently	-11.1709
▁ጽህፈት	-11.1714
▁የማወቅ	-11.1716
▁ሃጢአተኛ	-11.1717
▁አቤል	-11.1721
▁ሳይቀር	-11.1721
▁ሃዋርያቱ	-11.1722
▁ከእስራኤላውያን	-11.1724
▁piece	-11.1724
ላለች	-11.1731
▁evident	-11.1733
▁hills	-11.1741
▁plot	-11.1744
▁ሊባኖስ	-11.1744
▁የስብከት	-11.1744
▁መልእክተኞች	-11.1744
▁አስበው	-11.1747
▁ኩራት	-11.1749
▁bush	-11.1752
▁ለሞት	-11.1764
▁del	-11.1783
▁66	-11.1785
▁ሃሳቦችን	-11.1785
▁Y	-11.1788
▁1999	-11.1789
▁Pope	-11.1789
▁causing	-11.1789
▁constitution	-11.1789
▁discreet	-11.1789
▁korea	-11.1789
▁sharp	-11.1789
▁እናሳያለን	-11.1789
▁ካደረገ	-11.1789
▁ስእለት	-11.1789
▁ፍጥነት	-11.1789
▁ወደፊቱ	-11.1789
▁missionary	-11.179
▁በሰንበት	-11.179
▁lawyer	-11.179
▁ደንቦች	-11.1791
ያከናውን	-11.1791
▁የሚታይ	-11.1791
read	-11.1792
▁በወንድ	-11.1793
▁የሚናገሩት	-11.1795
▁documents	-11.18
▁ጠበቃ	-11.1802
▁ማስረጃዎች	-11.1803
▁ረዳት	-11.1806
ጊዜ	-11.1807
▁measured	-11.1808
▁ከሚገኘው	-11.1811
መጥፎ	-11.1812
▁መጽሃፉ	-11.1815
እስራኤላውያን	-11.1818
▁እውን	-11.1819
▁shortly	-11.1819
▁600	-11.182
▁Da	-11.1824
ቅዱሳን	-11.1826
▁በምንም	-11.1828
▁ያገኙት	-11.1829
▁ሰኔ	-11.1831
▁author	-11.1833
▁አደረጉ።	-11.1833
▁የዮሴፍ	-11.1834
▁ተቆጣ	-11.1834
▁sweet	-11.1835
eccl	-11.1835
ኢዮርብአም	-11.1835
▁ambassador	-11.1835
▁መመስረት	-11.1835
▁መናፍስት	-11.1835
▁መዋእል	-11.1835
▁ተስማሚ	-11.1835
▁ወንጌል	-11.1835
▁ተደርገው	-11.1835
▁አመጸኛ	-11.1835
▁ውርሻ	-11.1835
▁መሃላ	-11.1836
▁fool	-11.1836
▁germany	-11.1838
ወንድሞች	-11.1839
▁ሳኦልን	-11.1841
▁እስክት	-11.1843
▁ዝርያዎች	-11.1844
▁career	-11.1846
turn	-11.1847
▁ይለኛል	-11.1848
▁ይገልጻል።	-11.185
መስጠቱ	-11.1855
ቃወም	-11.1856
▁መንግስቱን	-11.1858
▁ነኝ፤	-11.1867
▁አገሩ	-11.1871
ጥራት	-11.188
▁wheel	-11.1881
▁አይደለሁም	-11.1881
▁astray	-11.1881
▁option	-11.1881
▁stupid	-11.1881
▁temper	-11.1881
▁ሰረገሎች	-11.1881
▁zone	-11.1881
▁ለፍርድ	-11.1881
▁ገልጸዋል	-11.1881
▁እግሩ	-11.1882
▁ሽብር	-11.1884
▁exceeding	-11.1888
መሰረቱ	-11.1888
▁መንደር	-11.1894
▁bulls	-11.1894
▁ለሰባት	-11.1896
▁happens	-11.1898
18	-11.19
ዘገየ	-11.19
▁የኖረ	-11.1905
▁መንገዱን	-11.1908
▁በባቢሎን	-11.1911
▁ዘጸአት	-11.1912
▁በየትኛውም	-11.1914
▁site	-11.1916
▁ያለህን	-11.1918
▁የሚሄዱ	-11.1918
▁ኢየሩሳሌምን	-11.192
▁የእናንተ	-11.1925
▁asleep	-11.1927
▁popular	-11.1927
▁stumbling	-11.1927
▁thrill	-11.1927
▁ምዝገባ	-11.1927
▁በተቃራኒ	-11.1927
▁ደቂቃ	-11.1927
▁queen	-11.1927
▁ግዙፍ	-11.1927
▁ፍጡር	-11.1927
▁በሶስት	-11.1927
▁ትርፍ	-11.1928
▁ኤሳው	-11.1929
▁በስብሰባዎች	-11.193
▁ግዛ	-11.1931
▁ጸረ	-11.1932
▁relate	-11.1937
▁አውሬ	-11.1937
▁የሚሆነውን	-11.1943
አባትህ	-11.1948
▁አለብን።	-11.1949
▁ሲመለከት	-11.195
▁shared	-11.1952
▁instructed	-11.1956
▁አገኙ	-11.1957
▁በራስ	-11.1957
▁ሙሽራ	-11.1958
▁ድንጋጌ	-11.1958
▁covering	-11.1959
▁በድን	-11.1959
▁ይሰጣል።	-11.1965
▁States	-11.197
▁እንዳታ	-11.1971
▁Ababa	-11.1973
▁expense	-11.1973
▁meditating	-11.1973
▁pregnant	-11.1973
▁sworn	-11.1973
▁ዝግጅቶች	-11.1973
▁አያውቁም	-11.1973
▁አክአብ	-11.1973
▁literal	-11.1973
▁ምሁር	-11.1973
▁ይኖርብሃል	-11.1973
▁viewpoint	-11.1974
▁harmful	-11.1976
▁ሃረግ	-11.198
▁describe	-11.1985
▁contains	-11.1986
▁pin	-11.1986
▁የሚታየው	-11.1991
▁patiently	-11.1995
▁የሚመስል	-11.1995
▁56	-11.2009
▁ያሳየ	-11.2011
▁guided	-11.2011
▁Ja	-11.2015
▁interpret	-11.2017
▁prior	-11.2018
▁australia	-11.202
▁feature	-11.202
▁ተመልከቱ	-11.202
▁እሆናለሁ	-11.202
▁ድንገት	-11.202
▁ባሻገር	-11.202
▁intense	-11.202
▁ባልሆነ	-11.202
▁መለየት	-11.202
▁ጥቁር	-11.202
▁አቀፉ	-11.202
▁ይሰጣሉ	-11.2024
▁አሉታዊ	-11.2024
▁የሞት	-11.2024
▁ቡሽ	-11.2025
▁researchers	-11.2027
▁እንደነበረው	-11.2029
▁እሷን	-11.203
▁ያጠና	-11.2031
▁judea	-11.2035
▁ሰርቶ	-11.2035
▁ስፍራዎች	-11.2039
▁የቀድሞው	-11.2044
▁ለማሰብ	-11.2045
▁ያለበትን	-11.2047
▁ይረዳሃል	-11.2051
▁Republic	-11.2066
▁ሄኖክ	-11.2066
▁ያደርገዋል	-11.2066
▁sky	-11.2066
▁የአስተዳደር	-11.2066
▁በጨለማ	-11.2066
▁unjust	-11.2067
▁ልምድ	-11.2069
▁mixed	-11.2072
▁የተረጋገጠ	-11.2073
▁bit	-11.2075
▁ነበረ፤	-11.2075
▁ለመግደል	-11.2077
▁የሚያሰኝ	-11.2086
▁reaching	-11.2088
▁fleshly	-11.209
▁የሚገልጸው	-11.2093
▁newly	-11.2094
▁eager	-11.2102
▁beneficial	-11.2113
▁jeroboam	-11.2113
▁opportunities	-11.2113
▁ቆይቷል	-11.2113
▁በማግስቱ	-11.2113
▁እንፈልጋለን	-11.2113
▁የምንችልበት	-11.2113
▁ጥንቃቄ	-11.2113
▁chance	-11.2113
▁በቅንአት	-11.2113
▁Thus	-11.2113
▁አውጥቶ	-11.2113
▁አይሁዳዊ	-11.2113
▁የሚያስገኝ	-11.2113
▁ለራሳቸው	-11.2113
▁ፍየል	-11.2113
▁ውሰድ	-11.2113
▁sudan	-11.2114
▁entertainment	-11.2114
▁ናታን	-11.2115
▁በኩር	-11.2118
ቸዋለሁ።	-11.2124
▁sale	-11.2131
▁ደመወዝ	-11.2136
▁(20	-11.2136
▁ለሚገኙ	-11.2137
▁እጃቸውን	-11.2137
▁ዳኛ	-11.2138
▁ወስደው	-11.2139
▁አቀረቡ	-11.2144
▁belief	-11.2145
▁resident	-11.2146
ሂዱ	-11.2148
▁እንዲፈጸም	-11.2153
▁ተፈጻሚ	-11.2155
▁reveals	-11.2155
▁band	-11.2159
▁Isaac	-11.216
▁arrow	-11.216
▁height	-11.216
▁አመልክቷል	-11.216
▁እንውሰድ	-11.216
▁የድርጅቱ	-11.216
▁ዮፍታሄ	-11.216
▁thorough	-11.216
▁deaf	-11.216
▁አለመሆኑን	-11.216
▁እሁድ	-11.2161
▁በመስራት	-11.2161
▁የመጠጥ	-11.2161
▁በመልካም	-11.2161
▁ይህችን	-11.2162
▁አገባ	-11.2165
▁eden	-11.2165
▁እንዳደረገው	-11.2165
▁400	-11.2168
▁የሚመራ	-11.2168
▁deny	-11.2172
▁ሊረዳ	-11.2172
▁remembered	-11.2173
ሰማራ	-11.2173
ወረዱ	-11.2176
▁የሚያበቃ	-11.2181
▁ጀመረች	-11.2182
▁በእጅህ	-11.2185
▁ይመስላል።	-11.2186
▁ይደረግ	-11.2188
▁ሞኝ	-11.2188
▁ሄዱ።	-11.2189
▁የሚከተለው	-11.2193
▁pur	-11.2199
▁neighbors	-11.22
▁ክፋትን	-11.2202
▁primary	-11.2208
▁ለመግዛት	-11.2208
▁በምትገኘው	-11.2208
▁ባለትዳሮች	-11.2208
▁የምናገኘው	-11.2208
▁የተትረፈረፈ	-11.2208
▁baby	-11.2208
▁የምችለው	-11.2208
▁cave	-11.2208
▁spare	-11.2208
▁የመሆን	-11.2209
▁በይፋ	-11.2209
▁ተነሱ	-11.221
▁troubled	-11.2211
▁ይነሳል	-11.2213
▁አደራ	-11.2216
▁የሚያስፈልጋቸውን	-11.2217
▁ባወጣ	-11.2218
▁(4)	-11.2223
▁iraqi	-11.2226
▁overseers	-11.2229
▁ከመሆኑ	-11.223
▁jer	-11.2234
▁surprise	-11.2236
▁journalists	-11.2237
▁ጽፏል።	-11.224
▁counted	-11.2241
▁አይገባም።	-11.2243
ረጋገጠ	-11.2248
ጦርነቱ	-11.2251
ልጄ	-11.2254
▁curtain	-11.2255
▁በየትኞቹ	-11.2255
▁ያስፈልጋል	-11.2255
▁ጨካኝ	-11.2255
▁ፍትሃዊ	-11.2255
▁copy	-11.2255
▁ማክበር	-11.2255
▁መጋረጃ	-11.2256
▁ራሳችን	-11.2259
▁closed	-11.2259
▁2002	-11.226
▁ህይወቱ	-11.2264
▁faithfully	-11.2264
▁impressed	-11.2265
ኢሳይያስ	-11.2272
▁joyfully	-11.2275
▁ህይወታቸው	-11.2278
▁reminders	-11.2279
▁አሰሪ	-11.2284
▁ህሊናችን	-11.2285
not	-11.2287
▁associated	-11.2288
▁በብር	-11.229
▁modest	-11.2298
▁drawing	-11.23
ቲኦክራሲያዊ	-11.2303
▁pornography	-11.2303
▁prominent	-11.2303
▁አፈጻጸም	-11.2303
▁እውነቶች	-11.2303
▁engine	-11.2303
▁በኣለም	-11.2303
▁በጥሞና	-11.2303
▁ሰረገላ	-11.2303
▁ጠቦቶች	-11.2303
▁አልቀረም	-11.2303
▁እናድርግ	-11.2303
▁forgotten	-11.2303
▁ከደረሰ	-11.2304
▁invest	-11.2304
▁በሚኖሩ	-11.2304
▁harp	-11.2304
▁በኣል	-11.2305
▁አሳይቷል	-11.2306
ሁሉም	-11.2308
▁የቤቱ	-11.2312
▁partial	-11.2312
▁መወጣት	-11.2317
ፍልስጤማውያን	-11.232
▁ሙስና	-11.2327
▁divide	-11.2332
▁አጋንንት	-11.2341
▁applied	-11.2351
▁complex	-11.2351
▁spear	-11.2351
▁ሚኒስትሩ	-11.2351
▁ምክትል	-11.2351
▁ተገነዘብኩ	-11.2351
▁ከፈለግን	-11.2351
▁ያስፈልጋቸዋል	-11.2351
▁በማገልገል	-11.2351
▁እሰጣለሁ	-11.2351
▁የሳኦል	-11.2351
▁safeguard	-11.2351
▁እንዳገኘ	-11.2351
▁ለጊዜው	-11.2351
▁የመነጨ	-11.2352
▁factors	-11.2352
▁እንዲችል	-11.2353
col	-11.2362
▁አይሰማ	-11.2365
መንፈሳዊ	-11.2367
▁መክፈል	-11.2378
▁arrive	-11.2381
▁indicated	-11.2388
▁constant	-11.2389
▁victims	-11.2396
▁ጉድ	-11.2396
▁washed	-11.2399
▁Office	-11.24
▁entrusted	-11.24
▁ignore	-11.24
▁profane	-11.24
▁ቍርባን	-11.24
▁በከፊል	-11.24
▁obvious	-11.24
▁ማእከል	-11.24
▁የሚሰጠን	-11.24
▁partner	-11.24
▁መሆናችንን	-11.2402
▁ደሙን	-11.2404
▁አጠፋ	-11.2406
▁philippians	-11.2411
ቤታቸው	-11.2414
▁ከኢየሩሳሌም	-11.2416
▁እንዲሰራ	-11.2422
▁(8	-11.2426
▁strengthening	-11.2426
▁ራሳችሁ	-11.2426
▁settled	-11.2427
ለምን	-11.2427
▁chi	-11.2436
may	-11.2441
▁egyptians	-11.2443
▁commend	-11.2446
▁leprosy	-11.2448
▁probably	-11.2448
▁reuben	-11.2448
▁ሳምንታት	-11.2448
▁ቴክኖሎጂ	-11.2448
▁link	-11.2448
▁bag	-11.2448
▁በመናገር	-11.2449
▁አ።አ	-11.245
▁reaction	-11.2451
▁ኖር	-11.2454
▁ታች	-11.2456
▁ከሃጢአት	-11.2461
▁ወደሆነው	-11.2468
▁ባዩ	-11.2468
▁የሚያነሳሳ	-11.2471
▁እትም	-11.2474
ሙታን	-11.2474
▁ህይወቴ	-11.2478
▁እንዲሰሩ	-11.2481
▁ዘመኑ	-11.249
▁ሰብሳቢ	-11.2495
▁Democratic	-11.2497
▁supplication	-11.2497
▁በአቅኚነት	-11.2497
▁ፊልጵ	-11.2497
▁በመውሰድ	-11.2497
▁alongside	-11.2497
▁scarlet	-11.2497
▁ተከተሉ	-11.2499
▁mission	-11.25
▁abel	-11.25
▁በርሳችሁ	-11.2501
▁imperfection	-11.2501
▁ጫማ	-11.2502
▁ማለቱ	-11.2504
▁34)	-11.2507
ስተውል	-11.2507
▁ከብቶች	-11.251
▁የሚችሉበት	-11.2512
▁አገልግሎ	-11.2525
▁የህብረት	-11.2526
▁ሲሰሙ	-11.2526
ኢሳ	-11.2526
▁approve	-11.2527
other	-11.2535
▁120	-11.2538
▁encounter	-11.2546
▁jericho	-11.2546
▁lifestyle	-11.2546
▁palestinian	-11.2546
▁በባህሩ	-11.2546
▁የወንድማማች	-11.2546
▁panel	-11.2546
▁ታላንት	-11.2546
▁ለሶስት	-11.2546
▁ረሃብ	-11.2546
▁እንደነበሩ	-11.2546
▁flying	-11.2546
▁rush	-11.2547
▁assume	-11.2547
▁couples	-11.255
▁የተረፈ	-11.2555
over	-11.2555
ተወው	-11.2556
▁በአካባቢ	-11.2556
▁ወንድሜ	-11.2557
▁ለእርሱ	-11.256
▁Am	-11.2562
▁ገዢዎች	-11.2562
▁ጋዜጠኞች	-11.2564
▁file	-11.2566
ክርስቶስ	-11.2572
▁መሳሪያዎችን	-11.2576
▁disc	-11.2581
▁trusted	-11.2587
heart	-11.2591
▁check	-11.2595
▁ለማስተማር	-11.2595
▁የትውልድ	-11.2595
▁profit	-11.2595
▁wool	-11.2595
▁መገመት	-11.2595
▁የደህንነት	-11.2595
▁ሊኖረን	-11.2595
▁መብራት	-11.2595
▁ልብሶች	-11.2595
አሜሪካ	-11.2596
▁ኢትዮጵያውያን	-11.26
▁ቅርብ	-11.2604
▁tend	-11.2605
▁tar	-11.2606
▁መዝሙራዊው	-11.2608
▁code	-11.261
▁experts	-11.2618
miss	-11.262
▁አምኖ	-11.2621
▁2000	-11.2622
▁exalt	-11.2623
▁በተደረገው	-11.2626
▁vessels	-11.2626
No	-11.2629
▁widely	-11.2633
▁conventions	-11.2638
▁block	-11.2645
▁guarantee	-11.2645
▁መቀመጫ	-11.2645
▁ሚክያስ	-11.2645
▁ግብጻውያን	-11.2645
▁መውደድ	-11.2645
▁prompt	-11.2645
▁ነቀፋ	-11.2645
▁መስበክ	-11.2645
▁ወርዱ	-11.2645
▁ተናገሩ	-11.2645
▁urgent	-11.2645
▁figure	-11.2646
▁የሚያውቅ	-11.2646
▁የዜና	-11.2646
▁ለማስፈጸም	-11.2649
▁ወጣ፤	-11.2649
▁58	-11.2655
▁tired	-11.2657
▁pioneering	-11.2657
▁goodness	-11.2661
▁ናቡከደነጾር	-11.2662
▁satisfying	-11.2662
▁የነበረችው	-11.2663
▁ለነበሩት	-11.2666
▁compared	-11.2667
chan	-11.2669
▁ነበረች።	-11.2677
ተወሰደ	-11.2678
▁አምሳ	-11.2683
▁እያየ	-11.2691
▁grape	-11.2694
▁speed	-11.2694
▁ልጆቿ	-11.2694
▁ተወላጅ	-11.2695
▁አስከፊ	-11.2695
▁authorized	-11.2695
ፈጽመው	-11.2695
▁የሙያ	-11.2696
▁ዝሙት	-11.2697
▁ከመጠን	-11.2699
▁ከኢትዮጵያ	-11.2703
▁ጀመርኩ።	-11.2705
▁አስቦ	-11.2707
▁በህይወቱ	-11.2708
▁balanced	-11.271
▁ለያእቆብ	-11.2722
ሃይማኖት	-11.2732
▁recalls	-11.2733
▁ሲሄዱ	-11.2739
▁Solomon	-11.2744
▁phone	-11.2744
▁rebuke	-11.2744
▁terrified	-11.2744
▁ባዘዘው	-11.2744
▁አጥብቀው	-11.2744
▁location	-11.2745
▁zemen	-11.2745
▁በጥበብ	-11.2745
▁በጉጉት	-11.2745
▁ተነሳስቶ	-11.2745
▁ሂሳብ	-11.2745
▁የሚታዩ	-11.2745
▁በፍታ	-11.2748
▁የጋራ	-11.2749
▁ያገኙ	-11.2753
እጆቹ	-11.2757
▁የአገሪቱ	-11.2757
▁ያደረጉ	-11.276
▁የእድሜ	-11.276
▁ተቆጣጣሪ	-11.2761
▁ከአባ	-11.2764
አገልጋይህ	-11.2766
When	-11.2766
come	-11.2773
▁ሆነች	-11.2778
▁በቅዱሳን	-11.2781
▁አዳሪ	-11.2793
▁ያዙ	-11.2794
▁brief	-11.2795
▁loaves	-11.2795
▁version	-11.2795
▁pleasant	-11.2795
▁የጥንቶቹ	-11.2795
▁ግምጃ	-11.2795
▁ወይፈን	-11.2795
▁አሏቸው	-11.2795
▁በራእይ	-11.2795
▁የማይችሉ	-11.2796
▁አታስ	-11.2799
▁ከወጣ	-11.2801
▁ሴራ	-11.2803
▁ተስፋዎች	-11.2807
▁reporter	-11.2816
ሽማግሌ	-11.2817
ከባድ	-11.2819
▁ዮሀንስ	-11.2822
▁የሌለ	-11.2824
▁አለችው።	-11.2834
▁አብራም	-11.2841
▁prosper	-11.2844
▁capacity	-11.2845
▁sufficient	-11.2845
▁twenty	-11.2845
▁የአትክልት	-11.2845
▁እያደረገ	-11.2845
▁የሚያጋጥሙ	-11.2845
▁green	-11.2845
▁የተሰጣቸው	-11.2845
▁ዴሞክራሲያዊ	-11.2845
▁ይጠብቅ	-11.2845
▁እጄን	-11.2846
▁በወርቅ	-11.2846
▁ይሰጠዋል	-11.2846
▁push	-11.2848
ፈሩት	-11.2851
ባቢሎን	-11.2852
▁inclined	-11.2854
▁ለመከተል	-11.2857
▁መለያ	-11.286
▁Philistines	-11.2864
▁ያገኘነው	-11.2864
▁በመሸ	-11.2864
▁እየሰራ	-11.2866
▁stronger	-11.2867
ደገፍ	-11.2882
▁Of	-11.2883
▁charged	-11.2892
▁representatives	-11.2892
▁1991	-11.2896
▁administer	-11.2896
▁captain	-11.2896
▁captivity	-11.2896
▁execution	-11.2896
▁glorified	-11.2896
▁locust	-11.2896
▁rebellious	-11.2896
▁ቦኤዝ	-11.2896
▁ተሰብስበው	-11.2896
▁አስተዳዳሪ	-11.2896
▁አስኪያጅ	-11.2896
▁እንደመሆኑ	-11.2896
▁የግጦሽ	-11.2896
▁መዝናኛ	-11.2896
▁kiss	-11.2896
▁knee	-11.2897
▁priority	-11.2898
▁rescued	-11.2898
▁continually	-11.2898
▁finger	-11.2899
▁ወግ	-11.2899
▁የቀረ	-11.2899
▁እንዲሰጡ	-11.29
▁57	-11.2908
ፈጸማ	-11.2909
▁የደረሰባቸው	-11.2917
▁income	-11.2918
መክፈል	-11.292
press	-11.292
▁adopt	-11.2925
▁consumed	-11.2926
▁ስምህን	-11.2927
▁metal	-11.2927
አይሁዳውያን	-11.2936
▁previous	-11.2936
▁ይሰጡ	-11.2937
▁numbered	-11.2943
▁ፖለቲካ	-11.2944
ቅዱስ	-11.2944
oh	-11.2945
▁democracy	-11.2947
▁determination	-11.2947
▁eliminate	-11.2947
▁preparing	-11.2947
▁ridicule	-11.2947
▁scientific	-11.2947
▁ወላጆቻቸው	-11.2947
▁enoch	-11.2947
▁በቅድሚያ	-11.2947
▁የሚቀርበው	-11.2947
▁manager	-11.2947
▁ከተናገረ	-11.2947
▁መለወጥ	-11.2947
▁noble	-11.2947
▁መልሰው	-11.2948
▁ክንፍ	-11.2948
▁discernment	-11.2951
▁movement	-11.2958
▁ዘሩ	-11.2961
▁ዘገባው	-11.2963
▁ተዘጋጅ	-11.2963
▁lest	-11.2966
▁sadly	-11.2967
▁coat	-11.2969
draw	-11.2971
▁በክፉ	-11.2977
▁በመፈጸም	-11.298
▁institution	-11.2983
▁የደም	-11.2988
▁considering	-11.2995
▁2011	-11.2998
▁doctrine	-11.2998
▁ንጽህና	-11.2998
▁አወድሱ	-11.2998
▁ስብእና	-11.2998
▁እርሾ	-11.2998
▁ይወድቃሉ	-11.2999
▁እባብ	-11.3
▁ያለምንም	-11.3
▁62	-11.3
▁failure	-11.3001
▁teeth	-11.3003
▁ስንል	-11.3007
▁stage	-11.3007
▁አይቶ	-11.3007
▁outcome	-11.3008
ፍትህ	-11.3012
▁painful	-11.3014
▁ስፍር	-11.3015
▁ይሰማቸዋል።	-11.3017
▁ውጣ	-11.3018
▁የፈጸመው	-11.3018
▁አለ፦	-11.3018
▁አለባቸው።	-11.3019
▁በሚደርስ	-11.3019
ጠብቃቸው	-11.3021
▁robe	-11.3021
▁involve	-11.3024
▁associations	-11.3024
ከተማ	-11.3031
▁defile	-11.3031
▁ኤጀንሲ	-11.3035
▁employees	-11.3035
▁ይኖረዋል	-11.3046
▁አደርጋለሁ፤	-11.3047
▁dealings	-11.3047
▁devastated	-11.305
▁disgrace	-11.305
▁invisible	-11.305
▁womb	-11.305
▁አእምሯችን	-11.305
▁ኮሚሽን	-11.305
▁mature	-11.305
▁ይታያል	-11.305
▁rebelled	-11.3051
▁residence	-11.3051
lay	-11.3054
ዘጋጀው	-11.3055
ምድሪቱ	-11.3058
▁ያቀፈ	-11.3059
▁afflicted	-11.306
▁ቢኖርም	-11.3061
▁ቢሆኑም	-11.3061
▁እጅህን	-11.3063
▁surrounded	-11.3066
▁ተመልከት።	-11.3066
መሰዊያ	-11.3075
አብርሃም	-11.3075
እውቀት	-11.3076
▁ለመጠቀም	-11.3076
ዋለች	-11.308
long	-11.3083
▁helpful	-11.3088
▁ከሰጠ	-11.3089
▁ነበረበት	-11.3091
▁King	-11.3092
Y	-11.3097
▁የሚሰራው	-11.3099
▁cherish	-11.3102
ያስፈልገኝ	-11.3102
▁agency	-11.3102
▁josiah	-11.3102
▁nehemiah	-11.3102
▁rebuild	-11.3102
▁scheme	-11.3102
▁መግለጽ	-11.3102
▁ታዋቂ	-11.3102
▁እሄዳለሁ	-11.3102
ትምህርቱ	-11.3102
▁ጉጉት	-11.3102
ጠናቀቅ	-11.3102
▁ሰምተው	-11.3102
▁የተናገረ	-11.3103
▁clay	-11.3104
▁planet	-11.3118
▁ለማዳን	-11.3121
▁surprised	-11.3122
▁እጅህ	-11.3124
ማግኘት	-11.3127
▁publish	-11.3129
▁extended	-11.3131
▁bus	-11.3136
▁ትችላላችሁ።	-11.3145
▁companion	-11.3151
▁instruction	-11.3151
▁በቀጣዩ	-11.3154
▁ትርጉሞች	-11.3154
▁የእብራይስጥ	-11.3154
▁pardon	-11.3154
▁አልሆነ	-11.3154
▁ሃይሌ	-11.3154
▁ዘመናዊ	-11.3154
▁ትልቁ	-11.3155
▁huge	-11.3156
▁ፖለቲካዊ	-11.3157
▁ተወዳጅ	-11.3159
▁ይመጣሉ	-11.3163
▁እንደሌለው	-11.3169
▁israelite	-11.3174
▁የምትባል	-11.3177
why	-11.318
200	-11.3184
▁ችሎ	-11.3184
▁ሳር	-11.3188
▁አይደሉም።	-11.3188
▁ሰራተኛው	-11.3195
ኟ	-11.3206
▁entitled	-11.3206
▁motive	-11.3206
▁repentance	-11.3206
▁thanksgiving	-11.3206
▁twelve	-11.3206
▁ቅዱሳዊ	-11.3206
▁አዘውትረን	-11.3206
▁የሚያቀርበው	-11.3206
▁convey	-11.3206
▁drag	-11.3206
▁dealt	-11.3206
▁ከቅርብ	-11.3206
▁cancel	-11.3206
▁double	-11.3206
▁ሰምቶ	-11.3207
▁ከአንዱ	-11.3207
▁መራቅ	-11.3208
▁ፈጣን	-11.3208
▁refugees	-11.3209
▁እንዴ	-11.3209
▁witnessing	-11.3214
▁Their	-11.3215
▁እንዳልተ	-11.3216
▁የወደፊት	-11.3219
እስራኤል	-11.3219
▁መብቱ	-11.3221
▁ቤተሰቡን	-11.3223
ሚከተሉት	-11.3224
▁kingship	-11.3227
▁wages	-11.3233
▁assign	-11.3235
ሻገሩ	-11.3235
▁ስጦታዎች	-11.3235
▁ቤታችን	-11.3241
ጸኑ	-11.3241
▁አስነሳ	-11.3245
▁እገዛ	-11.3245
▁obtained	-11.3247
▁እንዲመለስ	-11.3251
▁ስጥ	-11.3252
▁refer	-11.3253
▁የሚናገሩ	-11.3253
▁ይኖርበታል።	-11.3253
▁jephthah	-11.3259
▁solid	-11.3259
▁twice	-11.3259
▁መተማመን	-11.3259
▁ርዝመቱ	-11.3259
▁በተገቢው	-11.3259
▁በእንጨት	-11.3259
▁distant	-11.3259
▁guest	-11.3259
▁ካገኘ	-11.3259
▁ጥብቅ	-11.3259
▁thick	-11.3259
▁ስንዴ	-11.3259
▁ያሳያሉ	-11.326
▁playing	-11.3261
▁reform	-11.3261
▁ይጠፋሉ	-11.3261
▁thereafter	-11.3264
▁ለኢየሱስ	-11.3268
▁እላለሁ	-11.3268
▁የማይገባ	-11.3274
▁ተገለጠ	-11.3278
▁defiled	-11.3278
▁punish	-11.3286
▁ከፊት	-11.3286
▁አባትህ	-11.3289
▁ያእ	-11.3291
▁የሚጠይቅ	-11.3297
▁haile	-11.3298
▁ነዋሪ	-11.3301
My	-11.3303
ጸሎት	-11.3307
▁ያዘጋጀ	-11.3307
▁differences	-11.3308
▁ያውቃል።	-11.331
▁prostitution	-11.3312
▁ባልንጀሮቻችን	-11.3312
▁የሚያገለግል	-11.3312
▁የሚበልጥ	-11.3312
▁ወረዳ	-11.3312
▁ክፍት	-11.3312
▁የሚጠራ	-11.3313
Will	-11.3313
▁affliction	-11.3313
▁bind	-11.3313
▁billion	-11.3313
▁የእነሱን	-11.3315
▁healing	-11.3315
አሰሪ	-11.3316
▁mill	-11.3317
▁cleanse	-11.3319
▁ምሳሌዎችን	-11.3335
▁ከቦታ	-11.3335
ሰባት	-11.3342
▁ለመማር	-11.3344
▁reduce	-11.3346
▁የቅዱሳን	-11.3352
▁እላችሗለሁ፣	-11.3362
▁captives	-11.3363
▁mild	-11.3363
▁Korea	-11.3365
▁Service	-11.3365
▁disbelieve	-11.3365
▁ማክሰኞ	-11.3365
▁ትሆናላችሁ	-11.3365
▁አለመግባባት	-11.3365
▁አግኝቶ	-11.3365
▁በሃዘን	-11.3365
▁እንድትችል	-11.3365
▁peer	-11.3367
▁hardship	-11.3369
▁አድርገዋል።	-11.337
▁ቆላ	-11.337
▁modesty	-11.3371
ሙስና	-11.3377
▁ይጠበቅ	-11.3377
▁instruments	-11.338
▁ይገባል፧	-11.339
▁prey	-11.3391
▁ነን።	-11.3391
እርዳታ	-11.3395
▁discover	-11.3396
ውሳኔ	-11.3398
▁በእግር	-11.3398
▁የተወሰነውን	-11.3399
▁engaged	-11.3401
▁ቁጣዬ	-11.3404
▁complain	-11.3405
part	-11.3408
▁የሻእቢያ	-11.341
▁employ	-11.341
▁ስማቸው	-11.341
▁የሚናገረውን	-11.3415
▁ለቤተ	-11.3417
▁identified	-11.3418
▁summer	-11.3418
▁swallow	-11.3418
▁volunteer	-11.3418
▁መልአኩ	-11.3418
▁የፌዴራል	-11.3418
▁wedding	-11.3418
▁amazed	-11.3418
▁valid	-11.3418
▁በተሟላ	-11.3418
▁የተገለጸው	-11.3419
▁በእስር	-11.3419
▁ነፍሰ	-11.3419
▁እምነታቸው	-11.3419
▁hoping	-11.342
▁ይገባዋል	-11.3421
▁seated	-11.3422
▁observers	-11.3422
▁ምሳሌያዊ	-11.3427
▁ዝና	-11.3431
▁ለሆኑ	-11.3434
▁አዩ	-11.3441
▁breaking	-11.3444
▁አገኘሁ	-11.3445
▁መኖራቸው	-11.3449
tell	-11.3449
▁ፍጻሜውን	-11.3452
እግር	-11.3453
▁አምላካቸው	-11.3459
▁russia	-11.3464
ሃዋርያት	-11.3467
▁አይኖርም።	-11.3469
▁disturb	-11.3472
▁france	-11.3472
▁miraculous	-11.3472
▁mislead	-11.3472
▁sacrificing	-11.3472
▁እንደሚፈልግ	-11.3472
▁magic	-11.3472
▁ያስከተለ	-11.3472
▁ወንድሞቻቸው	-11.3472
▁ሁላችሁም	-11.3472
▁የሗላ	-11.3472
▁crop	-11.3472
▁ትይዩ	-11.3472
▁እንደዚያ	-11.3473
▁card	-11.3473
▁ትክክለኛውን	-11.3473
▁wept	-11.3474
▁cook	-11.3475
▁በጀት	-11.3476
▁የገፉ	-11.3479
▁wondered	-11.3483
▁ከዳዊት	-11.3486
▁አብሬ	-11.3499
አንቺ	-11.3499
▁ያስነሳ	-11.3502
ዞር	-11.3503
▁እንዲቆይ	-11.3504
▁ውርደት	-11.3505
▁አስቡ	-11.3505
▁india	-11.3513
▁መጡ።	-11.3518
▁quit	-11.3522
▁gratitude	-11.3526
▁shock	-11.3526
▁sprout	-11.3526
▁አስገራሚ	-11.3526
▁ወስደህ	-11.3526
▁የተመዘገቡት	-11.3526
▁ጀርመን	-11.3526
▁ምግቦች	-11.3526
▁አስታወቀ	-11.3526
▁canada	-11.3526
▁ፍለጋ	-11.3526
▁ያደረጋቸው	-11.3527
▁የሚያህሉ	-11.3527
መስጠት	-11.3528
▁ገዳይ	-11.3528
▁የሚበላ	-11.3529
▁circumcised	-11.353
▁signed	-11.3531
▁የሚባሉ	-11.3531
▁ለእነርሱ	-11.3532
▁ማረጋገጥ	-11.3533
▁Holy	-11.3537
▁ቀጥሉ	-11.3541
▁የተመለከተው	-11.3542
▁openly	-11.3543
▁ትችላለህ፧	-11.3544
▁ነበረው።	-11.3556
▁rob	-11.3559
▁oppose	-11.3561
▁welcome	-11.3561
▁ጠይቅ	-11.3565
▁gained	-11.3565
▁seriously	-11.3568
▁ማዳን	-11.357
ሚገኘው	-11.3577
▁symbol	-11.3577
▁Not	-11.3579
▁exhort	-11.358
▁inquire	-11.358
▁model	-11.358
▁petition	-11.358
▁september	-11.358
▁አጠቃላይ	-11.358
▁ማሸነፍ	-11.3581
▁እርማት	-11.3581
▁ጣፋጭ	-11.3581
▁ባገኘ	-11.3581
▁አጥብቆ	-11.3581
▁ሸክላ	-11.3581
▁ግፊት	-11.3581
▁አስቴር	-11.3581
▁ቀጠሮ	-11.3581
▁ገለል	-11.3581
▁North	-11.3582
▁ሳይንስ	-11.3585
▁ይቀጣ	-11.3587
▁ወንድምህ	-11.359
▁miracles	-11.3592
▁camped	-11.3593
▁soft	-11.3593
▁announced	-11.3593
▁qualified	-11.3595
▁የተማረ	-11.3595
▁prisoners	-11.3597
▁ሊረዳህ	-11.3603
▁executed	-11.3604
▁በልብ	-11.3606
▁ሊኖረው	-11.3607
▁era	-11.361
ተቃዋሚ	-11.3611
ሌዋውያኑ	-11.3611
▁በእጅ	-11.3614
▁እንደሚሰጥ	-11.3615
ገድለው	-11.3617
የእስራኤል	-11.3618
▁ውሃዎች	-11.3624
▁አሳይቷል።	-11.3632
ሃጢአታችን	-11.3635
▁While	-11.3635
▁burial	-11.3635
▁empire	-11.3635
▁expand	-11.3635
▁ይታወቃል	-11.3635
▁fresh	-11.3635
▁የተላለፈ	-11.3635
▁expel	-11.3635
▁spy	-11.3635
▁እንደሚሆኑ	-11.3635
▁የሚያስደስት	-11.3635
▁ftn	-11.3635
▁purple	-11.3635
▁ታቦቱ	-11.3636
▁capable	-11.3637
▁አይኑ	-11.3638
▁ቤዛው	-11.3639
▁ደሴት	-11.364
▁refers	-11.364
▁ይገኛል።	-11.3643
▁መስተዳድር	-11.3643
▁ለሆነ	-11.3643
▁ይፈልጋል።	-11.3644
▁ወንድሙን	-11.3647
▁በአእምሮ	-11.3654
▁ሞቱ	-11.3654
▁በገንዘብ	-11.3655
▁starting	-11.3666
▁confirm	-11.3668
▁ህዝቦቹ	-11.3673
▁ruled	-11.3676
▁ሰጥቶታል	-11.3678
▁ሲያይ	-11.3686
መላእክቱ	-11.369
ኰ	-11.369
▁Public	-11.369
▁anymore	-11.369
▁hatred	-11.369
▁haughty	-11.369
▁identity	-11.369
▁intelligence	-11.369
▁shoot	-11.369
▁ሳይሆኑ	-11.369
▁ጥርጣሬ	-11.369
▁target	-11.369
▁ከሗላ	-11.3692
▁farmers	-11.3695
▁የሚያገኘው	-11.3699
▁discouraged	-11.3701
▁topic	-11.3703
▁ማጥፋት	-11.3704
body	-11.3715
▁ኢዩ	-11.3716
▁ይሰማል	-11.3721
▁መወሰን	-11.3723
▁መደበኛ	-11.3725
▁ፊቱን	-11.373
ህያዋን	-11.3732
▁argument	-11.3745
▁prosecutor	-11.3745
▁rachel	-11.3745
▁remnant	-11.3745
▁thessalonians	-11.3745
▁vengeance	-11.3745
▁በዙፋኑ	-11.3745
▁እንድናገኝ	-11.3745
▁ተጠቅመው	-11.3745
▁ደጃፍ	-11.3745
▁በኢራቅ	-11.3745
▁ሃቀኛ	-11.3745
▁የሚሰጣቸው	-11.3746
ቅድስና	-11.3746
▁በኩራት	-11.3746
▁ገንዘቡን	-11.3746
▁የምትኖረው	-11.3755
▁sector	-11.3755
▁ቁራ	-11.3758
▁የምታደርገው	-11.3759
▁ጽዮን	-11.376
▁ከእግዚአብሄር	-11.3762
▁useful	-11.3764
▁ሆነዋል	-11.3767
▁32)	-11.3767
▁respected	-11.3772
▁unit	-11.3773
▁ማሳሰቢያዎች	-11.3774
▁የገባው	-11.3776
▁obeyed	-11.3777
▁የምድሪቱ	-11.3783
▁አደርግ	-11.379
get	-11.3792
▁depression	-11.3801
▁routine	-11.3801
▁wander	-11.3801
▁ጠረጴዛ	-11.3801
▁ከሰሜን	-11.3801
▁trap	-11.3801
▁crossed	-11.3801
▁ብሏቸዋል	-11.3801
▁የሚጠብቅ	-11.3801
▁መምጣት	-11.3801
▁ሰልፍ	-11.3801
▁የሙሉ	-11.3802
▁መውጫ	-11.3802
▁directive	-11.3802
▁Zion	-11.3806
▁Ex	-11.3806
▁supporting	-11.3818
▁talked	-11.3823
▁አስተማሪዎች	-11.3823
▁stretched	-11.3828
▁persia	-11.3831
▁contributed	-11.3832
▁lovers	-11.3835
▁ችሎት	-11.3839
▁ቁጣው	-11.3845
▁1994	-11.3857
▁Although	-11.3857
▁companies	-11.3857
▁disobedience	-11.3857
▁examination	-11.3857
▁incident	-11.3857
▁space	-11.3857
▁መኮንኖች	-11.3857
▁ስናደርግ	-11.3857
▁እንደገለጹት	-11.3857
▁ጽሁፎቻችን	-11.3857
▁የምታደርጉ	-11.3857
▁ግድግዳ	-11.3857
▁ርብቃ	-11.3857
▁amazing	-11.3857
▁ነፍሴ	-11.3857
▁ጠየቁ	-11.3857
▁እንደሌላቸው	-11.3857
▁በእውነተኛው	-11.3857
▁ፈለግ	-11.3857
▁equipment	-11.3858
▁Eli	-11.3858
▁captive	-11.3859
▁አምድ	-11.3859
▁ተመለስ	-11.3861
ህይወት	-11.3861
▁regardless	-11.3861
ታተሉ	-11.3863
▁passage	-11.3863
▁accountable	-11.3869
▁ገጽታ	-11.3872
▁በመቶዎች	-11.3875
▁እንዳይሆን	-11.3884
▁size	-11.3887
▁ጌታችን	-11.389
መድሃኒት	-11.3891
በማለት	-11.3891
▁counter	-11.3891
▁ነጋዴ	-11.3892
was	-11.3893
▁ተቃዋሚዎች	-11.3894
▁የሚመራው	-11.3899
ዳንኤል	-11.391
መዘጋጀት	-11.3913
▁basket	-11.3913
▁torture	-11.3913
▁warfare	-11.3913
▁በተለያየ	-11.3913
▁አስከሬን	-11.3913
▁የተዘጋጁ	-11.3913
▁የውዳሴ	-11.3913
▁ያተኮረ	-11.3913
▁june	-11.3913
▁insult	-11.3913
▁ሃሳቡን	-11.3914
▁herod	-11.3915
▁messenger	-11.3916
▁hill	-11.3916
▁flight	-11.3916
▁apparently	-11.3918
▁New	-11.3919
▁ተቀመጡ	-11.3921
▁በእነርሱ	-11.3924
▁እንዳለብኝ	-11.3925
▁planted	-11.3928
▁ጠብቆ	-11.3932
▁sentenced	-11.3938
▁እንዲገባ	-11.3946
ትክክለኛ	-11.3947
genesis	-11.3947
▁አዳኝ	-11.395
▁በልባቸው	-11.3953
▁suggested	-11.3954
ይበልጥ	-11.396
▁escaped	-11.3961
ከፈለው	-11.3961
▁እውነቱ	-11.3964
▁directives	-11.3968
▁Prime	-11.3969
▁heartfelt	-11.3969
▁introduce	-11.3969
▁palace	-11.3969
▁schedule	-11.3969
▁አቀባይ	-11.3969
▁የድንጋይ	-11.3969
▁THE	-11.3969
▁ንግግሩ	-11.3969
▁የሚፈጽሙ	-11.3969
▁ሲያደርጉ	-11.3969
▁እንዳደረጉ	-11.3969
▁attract	-11.3969
▁ፈሪሃ	-11.3969
▁corpse	-11.397
▁ይወጣሉ	-11.397
▁የቻሉት	-11.397
▁የሚያስፈልገንን	-11.397
▁የክብር	-11.397
▁ጉልበት	-11.397
▁sugar	-11.397
▁camels	-11.3971
▁unrighteousness	-11.3971
▁ከምንም	-11.3977
▁uncleanness	-11.3979
▁ያስችለናል	-11.3981
▁ሰጥቷል።	-11.3982
ተገደሉ	-11.3987
▁holder	-11.399
▁ከገባ	-11.4002
▁ጠብቅ	-11.4003
psalm	-11.4004
ከተሞች	-11.4005
▁Ra	-11.4009
ላችሗለሁ	-11.4014
▁dad	-11.4017
▁ሲሞት	-11.4018
▁april	-11.4026
▁argue	-11.4026
▁continuing	-11.4026
▁explanation	-11.4026
▁spot	-11.4026
▁በዘመኑ	-11.4026
▁የካቶሊክ	-11.4026
▁ጸሀፊ	-11.4026
▁bride	-11.4026
▁injury	-11.4026
▁ቀርበው	-11.4026
▁እያደረጉ	-11.4026
▁ተፈጥሮ	-11.4026
▁potter	-11.4026
ጢሮስ	-11.4026
▁dying	-11.4026
▁ተኩል	-11.4028
ቆርጥ	-11.4028
▁interpretation	-11.4029
▁torn	-11.403
▁representative	-11.4031
make	-11.4032
▁(5)	-11.404
▁አንዳችሁ	-11.4041
▁sen	-11.4044
▁selected	-11.4055
▁መታዘዝ	-11.4056
▁dealing	-11.406
▁register	-11.4061
ኢያሱ	-11.4064
።።።	-11.4072
▁ስለነበረው	-11.4073
▁ጥሎ	-11.4074
▁requested	-11.4078
▁ባይሆንም	-11.408
▁አሳየ	-11.408
ፈጣሪ	-11.4081
▁unfaithful	-11.4082
▁proceed	-11.4083
▁broad	-11.4083
▁neglect	-11.4083
▁believing	-11.4083
▁terrible	-11.4083
▁tremble	-11.4083
▁መጽናኛ	-11.4083
▁ተአምራዊ	-11.4083
▁ያረጋግጣል	-11.4083
▁mineral	-11.4083
▁የተናገሩት	-11.4083
▁ራሷን	-11.4083
▁enduring	-11.4083
▁ስለነበሩ	-11.4083
▁የሚቻለው	-11.4083
▁በራሴ	-11.4084
▁ይችሉ	-11.4084
▁influenced	-11.4085
▁ቸር	-11.4086
▁catch	-11.4087
▁oppression	-11.4087
▁victim	-11.4088
▁ከከተማዋ	-11.409
▁sixth	-11.4095
▁character	-11.4101
▁የአእምሮ	-11.4104
▁ለወንድ	-11.4107
▁የሌሎች	-11.4112
▁defeat	-11.4119
▁maintaining	-11.4119
room	-11.4119
መላእክት	-11.412
Let	-11.412
መጪው	-11.412
እብራውያን	-11.412
▁lad	-11.4121
▁rate	-11.4122
▁የጊዜ	-11.4127
▁አብሮት	-11.4128
▁ጸሀይ	-11.4128
▁ሴቲቱ	-11.4129
▁61	-11.4133
▁የለኝም	-11.4135
▁ሉአላዊ	-11.4135
▁proclaimed	-11.4135
▁እምነታችንን	-11.4137
ሗት	-11.414
፲	-11.4141
▁audience	-11.4141
▁contempt	-11.4141
▁drunk	-11.4141
▁imprisoned	-11.4141
▁lazarus	-11.4141
▁obstacle	-11.4141
▁silence	-11.4141
▁ቅርንጫፎች	-11.4141
▁በውስጣቸው	-11.4141
▁objective	-11.4141
▁ሚያዝያ	-11.4141
▁መምህር	-11.4141
▁መስፈርት	-11.4141
▁solve	-11.4141
▁install	-11.4141
▁ሲወጣ	-11.4141
▁የተፈጸመው	-11.4145
▁sail	-11.4148
▁thankful	-11.4151
▁ለመካፈል	-11.4154
▁አስገባ	-11.4158
▁ነጋዴዎች	-11.4162
▁አባታችሁ	-11.4165
▁ስላላ	-11.4165
▁Abi	-11.4168
▁inhabit	-11.4177
▁dish	-11.4177
▁አስተዳደ	-11.4178
ጽህፈት	-11.4178
▁የሚሄድ	-11.4184
▁hin	-11.4184
▁ተሰማኝ	-11.4187
መንገድ	-11.4188
▁የእንግሊዝ	-11.4188
▁allowing	-11.4194
▁እንግሊዝኛ	-11.4197
▁Just	-11.4199
▁Wherefore	-11.4199
▁abram	-11.4199
▁august	-11.4199
▁fiery	-11.4199
▁politics	-11.4199
▁smoking	-11.4199
▁ማሰላሰላችን	-11.4199
▁ውጤቶች	-11.4199
▁የምትገኘው	-11.4199
▁የፈርኦን	-11.4199
▁ፍየሎች	-11.4199
▁series	-11.4199
▁ራሄል	-11.4199
▁መድረስ	-11.4199
▁christmas	-11.4199
▁network	-11.4199
▁የመዳብ	-11.4199
▁መናገሩ	-11.4199
ught	-11.42
▁10,000	-11.42
▁ጽናት	-11.4201
▁አምስቱ	-11.4201
▁ባሉበት	-11.4201
▁ይገኙበታል።	-11.4201
▁ሎጥ	-11.4202
▁fuel	-11.4202
▁ወተት	-11.4202
▁ብልሹ	-11.4202
▁የተሰጡ	-11.4206
ብርሃን	-11.4208
▁(22	-11.4209
▁ቀኖች	-11.4211
▁egyptian	-11.4212
▁jew	-11.4217
▁እስካለ	-11.4221
▁አስፈላጊነት	-11.4222
ung	-11.4225
▁reasoning	-11.4228
▁ሄሮድስ	-11.4229
▁lame	-11.4232
▁አውሎ	-11.4233
▁truthful	-11.4234
▁የደረሰበት	-11.4234
▁እንዲወጡ	-11.4235
▁recommend	-11.4254
▁appreciated	-11.4256
▁encamp	-11.4257
▁choosing	-11.4257
▁ለወንዶች	-11.4257
▁መቅሰፍት	-11.4257
▁በተካሄደ	-11.4257
▁በዝግመተ	-11.4257
▁ጄኔራል	-11.4257
▁raising	-11.4257
▁ከተለያዩ	-11.4257
▁አሳልፈው	-11.4257
▁የቤተሰቡ	-11.4257
▁simon	-11.4257
▁bake	-11.4257
▁minutes	-11.4257
▁መጥቷል	-11.4257
▁ለመምራት	-11.4257
ህይወታ	-11.4258
▁ለማስረዳት	-11.4258
▁አይተው	-11.4259
▁row	-11.426
እነዚያ	-11.4261
▁christianity	-11.4277
▁የጀመረው	-11.4277
▁ስርአቱ	-11.4281
▁successfully	-11.4285
ታውቀው	-11.4291
▁gas	-11.4293
▁ሲመጡ	-11.4314
▁ኢኮኖሚ	-11.4315
▁speaker	-11.4315
▁conceive	-11.4315
▁galilee	-11.4315
▁ቀርቧል	-11.4315
▁የማደርገው	-11.4315
▁steward	-11.4315
▁ያለማቋረጥ	-11.4315
▁ይጠብቃል	-11.4315
▁outstanding	-11.4315
▁esther	-11.4315
▁መኮንን	-11.4315
▁የእርሻ	-11.4315
▁ተከትሎ	-11.4315
▁ስኬት	-11.4316
▁ይዘህ	-11.4318
▁መዝገብ	-11.4318
▁european	-11.4319
ህብረት	-11.4319
▁ሰማሁ	-11.432
▁ያመለክታል።	-11.4321
▁leaven	-11.4322
▁በልጁ	-11.4324
▁ቅጂዎች	-11.4326
▁ገደሉ	-11.4326
▁መስመር	-11.4328
▁በጭንቀት	-11.4336
▁ማርታ	-11.434
▁አይችሉም።	-11.4346
▁ቀዶ	-11.4352
▁satisfy	-11.4354
በዚያ	-11.4355
▁director	-11.4358
▁poles	-11.4361
▁strange	-11.4369
▁factor	-11.4373
▁Moreover	-11.4374
▁accusation	-11.4374
▁dishonest	-11.4374
▁specified	-11.4374
▁stories	-11.4374
▁በዘይት	-11.4374
▁ለማክበር	-11.4374
▁ድህነት	-11.4374
▁የለብንም	-11.4374
▁ሙቀት	-11.4375
▁ከሆንክ	-11.4375
▁dread	-11.4375
▁hebron	-11.4375
▁እርስዋም	-11.4376
▁የሚያገለግሉት	-11.4377
▁ሩቅ	-11.4379
▁የሚነሱ	-11.4382
▁ባሪያህ	-11.4384
▁stranger	-11.4387
Come	-11.4388
መጠመቅ	-11.4392
▁driven	-11.4395
▁እንደሚሰማ	-11.4399
ቾ	-11.4403
▁ከአንቺ	-11.4403
▁አቢሴሎም	-11.4407
Because	-11.4414
▁ባይነት	-11.4414
▁credit	-11.4418
▁እንግሊዝ	-11.4425
▁earthquake	-11.4433
▁interview	-11.4433
▁pack	-11.4433
▁performance	-11.4433
▁splendor	-11.4433
▁thirty	-11.4433
▁ለማዘጋጀት	-11.4433
▁ሚኒስቴሩ	-11.4433
▁ባለስልጣኖች	-11.4433
▁እንደነዚህ	-11.4433
▁እኩሌታ	-11.4433
▁ውስብስብ	-11.4433
▁multiply	-11.4433
▁ባለቤቷ	-11.4433
▁የንጉስ	-11.4433
▁ወዴት	-11.4433
▁lampstand	-11.4433
▁thunder	-11.4434
▁roar	-11.4434
▁እህቴ	-11.4435
▁ልባም	-11.4435
▁snow	-11.4436
▁ቸል	-11.4436
ታላቅ	-11.4442
▁paying	-11.4443
▁rank	-11.4443
▁Him	-11.4444
የያህዌ	-11.4445
▁noticed	-11.4446
▁1919	-11.4447
▁ይሆናሉ፤	-11.4447
▁overwhelmed	-11.445
▁የአዲስ	-11.445
▁አትፍራ	-11.4451
አገልግሎት	-11.4466
▁dew	-11.4467
80	-11.447
▁የተወሰደ	-11.4476
▁በቀኝ	-11.4477
▁intend	-11.448
▁below	-11.4484
▁ሉኣላዊው	-11.4486
▁64	-11.4488
ዘሌዋውያን	-11.4493
▁delegate	-11.4493
▁humbly	-11.4493
▁michael	-11.4493
▁repurchase	-11.4493
▁taunt	-11.4493
▁አቀፋዊ	-11.4493
▁ከመካከላቸው	-11.4493
▁ክንውኖች	-11.4493
▁ዜግነት	-11.4493
▁ጓደኝነት	-11.4493
▁ጽሁፉ	-11.4493
▁ፈልጎ	-11.4493
▁ለማድረስ	-11.4493
▁የተደረጉ	-11.4493
▁attain	-11.4493
▁አለቆቹ	-11.4493
▁የኣለም	-11.4493
▁የተመረጡ	-11.4493
▁ስውር	-11.4496
▁ተነገረ	-11.4497
▁1950	-11.4502
▁ጥራት	-11.4503
▁የማየት	-11.4507
▁መልእክተኛ	-11.451
▁ራቁ	-11.4522
▁Take	-11.4525
እርሱ	-11.4529
▁meaningful	-11.453
▁ቀኑ	-11.4532
▁initial	-11.4542
▁ከመጀመሪያው	-11.4544
▁forsake	-11.4553
▁january	-11.4553
▁recognition	-11.4553
▁ሃብታም	-11.4553
▁መለኪያ	-11.4553
▁መፍጠር	-11.4553
▁በመካከላችን	-11.4553
▁በፖለቲካ	-11.4553
▁የድንኳን	-11.4553
▁የግንባታ	-11.4553
▁የጳውሎስ	-11.4553
▁titus	-11.4553
▁መርከቦች	-11.4553
▁saint	-11.4553
▁ከሌሎቹ	-11.4553
▁የደቡብ	-11.4553
▁bury	-11.4553
▁july	-11.4553
▁በአጭር	-11.4553
▁hinder	-11.4553
▁ማናቸውም	-11.4553
▁ከሚኖሩ	-11.4554
▁ፈጣሪያችን	-11.4554
▁ይበላሉ	-11.4554
▁ቅንአት	-11.4554
▁hunt	-11.4555
▁ሀሴት	-11.4555
▁ማህበራዊ	-11.4555
ሶርያውያን	-11.4557
▁የተገባ	-11.4558
ነፍስ	-11.4563
▁colossians	-11.4564
▁የጸና	-11.4567
▁ሀገር	-11.4569
መጨረሻ	-11.4569
▁ስልክ	-11.4572
▁comforted	-11.4573
▁አገልጋዬ	-11.4578
▁በመያዝ	-11.4579
▁አዋቂዎች	-11.4579
▁እጆች	-11.4586
▁balance	-11.4594
ኤፌሶን	-11.4594
ባለቤቴ	-11.4594
▁ሄደህ	-11.4611
▁Ho	-11.4611
▁ይጠቀሙ	-11.4613
ክርስቲያኗ	-11.4613
▁bethlehem	-11.4613
▁cooperation	-11.4613
▁disobey	-11.4613
▁exclusive	-11.4613
▁labour	-11.4613
▁ለማስደሰት	-11.4613
▁በማስገባት	-11.4613
▁የአውራጃ	-11.4613
▁ግሪክኛ	-11.4613
▁compel	-11.4613
▁restrain	-11.4613
ከለዳውያን	-11.4613
▁ስደተኞች	-11.4613
▁የሚደርሰው	-11.4613
▁title	-11.4613
▁chain	-11.4613
▁ምናሴ	-11.4613
▁በሚወጣ	-11.4613
▁Bush	-11.4614
▁የለባቸውም	-11.4614
▁ግንቦት	-11.4614
▁መሬቱ	-11.4618
▁ቀድሞው	-11.4622
▁(21	-11.4622
▁መሰረተ	-11.4631
▁jan	-11.4637
▁ማለፍ	-11.4643
600	-11.4645
▁plane	-11.4645
▁ባልተ	-11.4646
▁ቀንበር	-11.4646
▁wearing	-11.4648
ጽድቅ	-11.4649
▁refugee	-11.465
ጠንቀቅ	-11.4652
▁ከተሰማ	-11.4653
▁ይሰጥ	-11.4658
▁ተጠራ	-11.4661
▁በረሃ	-11.4663
▁ride	-11.4663
aim	-11.4666
▁እየመጣ	-11.4673
በኞች	-11.4673
ሃጢአቱ	-11.4674
▁abilities	-11.4674
▁stubborn	-11.4674
▁በሰይጣን	-11.4674
▁ተፈጥሯዊ	-11.4674
▁የአይሁድ	-11.4674
▁የፍየል	-11.4674
▁exult	-11.4674
▁በቀረበ	-11.4674
▁ክስተቶች	-11.4674
▁ያነሳሳናል	-11.4674
▁ለሚኖሩ	-11.4674
▁የተጻፉ	-11.4674
▁section	-11.4675
▁ፊልጵስዩስ	-11.4679
▁ነክ	-11.4683
▁ውድድር	-11.4684
▁ማስተካከያ	-11.4684
war	-11.4689
▁ዜናዊ	-11.4692
▁አለችው	-11.4699
▁የሚያምን	-11.4703
▁በሽታዎች	-11.4704
▁hail	-11.4704
67	-11.471
▁በእስራኤላውያን	-11.4718
▁ወለደ፤	-11.4722
▁britain	-11.4734
▁gideon	-11.4734
▁majesty	-11.4734
▁rebekah	-11.4734
▁እንደሚያስገኝ	-11.4734
▁chairman	-11.4735
▁disorder	-11.4735
▁horror	-11.4735
▁investigate	-11.4735
▁occupation	-11.4735
▁scene	-11.4735
▁በቁጥጥር	-11.4735
▁ታዛቢዎች	-11.4735
▁አደርገዋለሁ	-11.4735
▁እንደተጠበቀ	-11.4735
▁ይበልጣል	-11.4735
▁ቅዳሜ	-11.4735
▁Power	-11.4735
▁ለራሳችሁ	-11.4735
▁cain	-11.4735
▁wail	-11.4735
▁ድራማ	-11.4735
▁meek	-11.4735
▁spanish	-11.4735
▁marvelous	-11.4735
▁በደመና	-11.4735
▁remarkable	-11.4736
▁chase	-11.4736
▁እሳቱ	-11.474
▁difficulties	-11.4742
▁ከስጋ	-11.4742
▁የራቀ	-11.4743
▁ለመቅረብ	-11.4744
▁ሲያደርግ	-11.4748
▁ያወጣል	-11.4755
▁ሰፋ	-11.4757
▁spirituality	-11.4759
▁ቀንዶች	-11.4762
▁attacked	-11.4773
worthy	-11.4778
▁የሁሉ	-11.4784
▁አልነበሩም	-11.4796
▁ኢንዱስትሪ	-11.4796
▁የሚያስከትል	-11.4796
ኢሃዴግ	-11.4796
▁Pharisees	-11.4796
▁embrace	-11.4796
▁grieve	-11.4796
▁industry	-11.4796
▁television	-11.4796
▁treacherous	-11.4796
▁ሸንጎ	-11.4796
▁በዮርዳኖስ	-11.4796
▁በጥቂት	-11.4796
▁የሚያበረታታ	-11.4796
▁የማመዛዘን	-11.4796
▁የምትችሉት	-11.4796
▁ደሴቶች	-11.4796
▁በሺዎች	-11.4796
▁worshipped	-11.4796
▁ከሌላው	-11.4798
▁gaze	-11.4798
▁አባቶቻችን	-11.4798
▁pot	-11.4799
▁በሰጡት	-11.4801
▁ላላቸው	-11.4801
scribe	-11.4802
▁እምነቱ	-11.4806
▁anointing	-11.4811
them	-11.4817
▁ሬሳ	-11.4822
▁አካዝ	-11.4823
▁የሚያከናውኑት	-11.4843
▁የሰሩ	-11.4844
▁ያስችለናል።	-11.4845
▁cursed	-11.4847
▁ተሰጠ	-11.4852
▁የሚመለከቱ	-11.4852
▁የሚጠበቅ	-11.4856
▁accompanied	-11.4858
▁breast	-11.4858
▁declaring	-11.4858
▁sprinkle	-11.4858
▁swift	-11.4858
▁trespass	-11.4858
▁uncircumcised	-11.4858
▁ባደረጉት	-11.4858
▁ቆይተዋል	-11.4858
▁እሰጥሃለሁ	-11.4858
▁በእርሻ	-11.4858
▁winter	-11.4858
ተላለፉ	-11.4858
▁ቃየን	-11.4858
▁ቅድመ	-11.4858
▁መፍራት	-11.4858
▁cleansing	-11.4859
▁የሚመጡት	-11.486
▁አገልግሎቱን	-11.4862
▁ለጋስ	-11.4863
▁lacking	-11.4866
cut	-11.487
▁arranged	-11.487
▁outlook	-11.4874
give	-11.4879
▁ኣይነ	-11.4882
▁ጥርስ	-11.4885
▁householder	-11.489
▁ከተነሳ	-11.4903
▁በክርስቲያን	-11.4907
▁በሰጠ	-11.4913
▁dam	-11.4915
▁unrighteous	-11.4918
ብቸኝነት	-11.492
▁2014	-11.492
▁mortal	-11.492
▁reliable	-11.492
▁ungodly	-11.492
▁vehicle	-11.492
▁ሙዚቃ	-11.492
▁እስረኞች	-11.492
▁ጸልዩ	-11.492
ተከለከለ	-11.492
▁ተአምር	-11.492
▁ለመቀነስ	-11.492
▁የረዳው	-11.492
▁ለማውጣት	-11.492
▁መርከቡ	-11.492
ቆጣጠረው	-11.492
▁በክብር	-11.492
▁ቢኖሩ	-11.492
▁እነሆም፥	-11.492
▁canaanites	-11.4922
stand	-11.4922
▁በህጉ	-11.4922
▁dependent	-11.4923
▁ከውጭ	-11.4923
▁በነበረ	-11.4925
▁ከራስ	-11.4931
▁heap	-11.4932
▁ነህ፤	-11.4933
▁relation	-11.4934
▁jah	-11.4936
▁በልዩ	-11.4945
ጽዮን	-11.4962
▁አደጋዎች	-11.4963
▁physically	-11.4965
ዤ	-11.4982
▁compensation	-11.4982
▁pedestals	-11.4982
▁propaganda	-11.4982
▁rehoboam	-11.4982
▁retreat	-11.4982
▁uncover	-11.4982
▁voluntary	-11.4982
▁መንግስታዊ	-11.4982
▁ብልጽግና	-11.4982
▁ይቀበላል	-11.4982
▁drama	-11.4982
▁flame	-11.4982
▁እንደሚያሳየው	-11.4982
▁ሃላፊነቶች	-11.4982
▁መምሰል	-11.4982
▁አሳማኝ	-11.4982
▁እገዳ	-11.4983
▁thread	-11.4983
▁midian	-11.4984
▁ገንዳ	-11.4984
▁ነግሮ	-11.4984
neh	-11.4984
▁አልነበረውም	-11.4984
ገላትያ	-11.499
▁ይበላል	-11.4993
▁ያውቁ	-11.4997
▁ወንድሙ	-11.4998
▁ያሳድ	-11.4999
▁ገበሬዎች	-11.5
▁rent	-11.5004
▁አሸዋ	-11.5008
▁killing	-11.5016
▁የሚሰሩት	-11.5018
▁letting	-11.5021
▁scatter	-11.5023
▁publication	-11.5023
▁ገበሬ	-11.5027
ወታደራዊ	-11.5029
ስለዚህ	-11.5029
▁ላኩ	-11.504
▁accomplished	-11.5042
▁import	-11.5044
▁japan	-11.5045
▁headquarters	-11.5045
▁internet	-11.5045
▁perfume	-11.5045
▁threshing	-11.5045
▁ለማስተካከል	-11.5045
▁መስከረም	-11.5045
▁በክርስቲያናዊ	-11.5045
▁እንማራለን	-11.5045
▁እ።ኤ።አ	-11.5045
▁የፖሊስ	-11.5045
▁ጥቅልል	-11.5045
▁copies	-11.5045
▁crash	-11.5045
▁ከንጉሱ	-11.5045
▁porch	-11.5045
▁planning	-11.5045
▁አስታውሱ	-11.5045
▁ቶማስ	-11.5045
▁አስርተ	-11.5045
▁ይጠብቁ	-11.5045
▁እንደምትችል	-11.5045
▁ወድቆ	-11.5045
▁transferred	-11.5046
▁ነህምያ	-11.5046
▁አምስተኛ	-11.5046
▁provoke	-11.5047
▁አቆመ	-11.5048
▁data	-11.5048
▁አውጪ	-11.5048
▁አመቺ	-11.5049
▁ነች	-11.505
▁ደረቅ	-11.5051
▁Mary	-11.5051
▁ለምድር	-11.5053
አንዳንድ	-11.5059
▁በቁም	-11.5061
▁ሳቢያ	-11.5061
▁ሊኖራቸው	-11.5062
▁የሚፈጸም	-11.5064
▁ቢደርስ	-11.507
▁በስብሰባው	-11.5081
▁crush	-11.5086
▁accord	-11.5088
▁publicly	-11.5089
▁ለሆኑት	-11.509
will	-11.5093
በዚህ	-11.5094
▁rewarded	-11.5098
your	-11.5102
▁አለው፧	-11.5103
▁ስለምታ	-11.5107
▁በመካከለኛው	-11.5108
▁አትችልም	-11.5108
▁ጭፍን	-11.5108
▁የሰራዊቱ	-11.5108
▁ካደረግን	-11.5109
▁የክልሉ	-11.5109
▁rahab	-11.5109
ፈተና	-11.511
▁የሚመለከት	-11.511
▁ይዛችሁ	-11.511
▁ከሩቅ	-11.511
▁መስዋእትነት	-11.5112
▁ያስባሉ	-11.5113
▁ጠየቅ	-11.5114
▁ተቀበሉ	-11.5117
▁earnestly	-11.5117
▁ለጌታ	-11.5118
▁touches	-11.5119
▁ያገለግሉ	-11.5121
▁ሰሚ	-11.5124
▁crying	-11.5125
▁ምስራቹ	-11.5126
ሌሎች	-11.5129
▁ታውቋል።	-11.5137
▁cow	-11.5139
off	-11.514
▁preserved	-11.5143
▁reflected	-11.5143
▁ህዝባዊ	-11.5147
▁በቅዱስ	-11.515
▁በአሜሪካ	-11.5151
▁readers	-11.5156
ጠቅላይ	-11.5157
▁እንዲደርስ	-11.516
▁Noriega	-11.5172
▁administrator	-11.5172
▁bishop	-11.5172
▁export	-11.5172
▁independent	-11.5172
▁principal	-11.5172
▁recreation	-11.5172
▁ቆርጦ	-11.5172
▁አይኖርብንም	-11.5172
▁የማገልገል	-11.5172
▁ያደርገናል	-11.5172
▁injured	-11.5172
▁የምናደርግ	-11.5172
▁የደረሱ	-11.5172
▁ደርሷል	-11.5172
▁behave	-11.5172
▁እጥረት	-11.5172
መንግስተ	-11.5172
▁የሆናቸው	-11.5172
▁referring	-11.5173
▁ስለሌለ	-11.5179
ጠፋቸው	-11.5182
▁የሰዎች	-11.5185
▁summoned	-11.5185
▁እድሜያቸው	-11.5187
serve	-11.5188
እናቴ	-11.519
አዲሱ	-11.5192
▁ከከተማ	-11.5197
▁Ze	-11.5199
▁ባደረገው	-11.5201
▁የመታሰቢያ	-11.5202
▁En	-11.5206
▁ክፉውን	-11.5207
▁ዋነኛው	-11.5208
▁አገሪቱ	-11.5208
ኖራችሁ	-11.5209
ላቸዋለሁ	-11.521
▁የመስጠት	-11.5213
ለመሆኑ	-11.5219
▁shouting	-11.5221
▁joint	-11.5223
▁ሲሰጥ	-11.5224
▁spending	-11.5226
ረጋግጥ	-11.5233
▁Benjamin	-11.5236
▁grace	-11.5236
▁remote	-11.5236
▁finance	-11.5236
▁missionaries	-11.5236
▁salary	-11.5236
▁savior	-11.5236
▁siege	-11.5236
▁testify	-11.5236
▁ከዮርዳኖስ	-11.5236
▁disperse	-11.5236
▁ለመጠየቅ	-11.5236
▁አዳራሹ	-11.5236
▁terrorist	-11.5236
▁መምረጥ	-11.5236
▁አሮጌ	-11.5236
▁ውጤቱ	-11.5236
▁ጣኦት	-11.5236
▁ማሳለፍ	-11.5236
▁ክቡር	-11.5236
▁ከወይን	-11.5236
▁ወሰነ	-11.5237
▁የምትችል	-11.5237
▁በአባቱ	-11.5237
▁የፈጠራ	-11.5237
▁ቁስል	-11.5237
▁bill	-11.524
▁ለመደገፍ	-11.5241
▁aroma	-11.5241
▁ቲቶ	-11.5247
▁በተደረገ	-11.5247
love	-11.5254
▁cleansed	-11.5261
▁በጦርነት	-11.5263
▁በጉዳዩ	-11.5263
▁obeying	-11.5265
መሳሰሉ	-11.5266
▁ብሆን	-11.5269
▁እንግዶች	-11.527
▁ይገኛሉ።	-11.5281
house	-11.5281
ነገስታት	-11.5287
K	-11.5287
declares	-11.5287
▁extreme	-11.529
ezek	-11.5294
፪	-11.53
▁frighten	-11.5301
▁prohibit	-11.5301
EPRDF	-11.5301
ኮምፒዩተር	-11.5301
▁arrogant	-11.5301
▁bridegroom	-11.5301
▁disagree	-11.5301
▁noriega	-11.5301
▁possibly	-11.5301
▁reputation	-11.5301
▁ለልጆቻቸው	-11.5301
▁ኢዮስያስ	-11.5301
▁እየተናገረ	-11.5301
▁እናገራለሁ	-11.5301
▁የሁለቱ	-11.5301
▁compassionate	-11.5301
▁ኤፍሬም	-11.5301
▁hired	-11.5301
▁carved	-11.5301
▁ማደሪያ	-11.5301
▁በራሳችን	-11.5301
▁sodom	-11.5301
▁ዘጠኝ	-11.5301
▁ከወርቅ	-11.5301
▁resentment	-11.5302
▁consistent	-11.5302
▁መሃሪ	-11.5304
▁ሴሎች	-11.5305
▁hunger	-11.5308
▁መለሱ	-11.5308
▁fruitful	-11.5308
▁ተፈጻሚነት	-11.5308
▁ይዘት	-11.5309
▁nobody	-11.5309
▁boil	-11.5309
▁ዘምሩ	-11.531
Go	-11.531
▁ከአባቱ	-11.5311
▁በሰማርያ	-11.5315
▁አብዛኛው	-11.5321
▁700	-11.5323
▁survived	-11.5337
▁አገራቸው	-11.5341
▁pity	-11.5347
▁ሽማግሌዎቹ	-11.5349
▁130	-11.5351
33	-11.5355
▁ሀዋርያ	-11.5356
▁ጎል	-11.5366
▁adorn	-11.5366
▁cooperate	-11.5366
▁england	-11.5366
▁memory	-11.5366
▁october	-11.5366
▁ponder	-11.5366
▁suicide	-11.5366
▁ሰነዶች	-11.5366
▁ሲያጋጥሙ	-11.5366
▁በሌለበት	-11.5366
▁አዘጋጁ	-11.5366
▁የሚያጽናና	-11.5366
▁threatened	-11.5366
▁ሰጥተዋል	-11.5366
▁ይመስለኛል	-11.5366
▁firearm	-11.5366
▁ክብደት	-11.5366
▁ይግባኝ	-11.5366
▁አርአያ	-11.5366
▁የምክር	-11.5366
▁የክልል	-11.5366
▁ወቅቶች	-11.5366
▁alert	-11.5367
▁መጠጣት	-11.537
▁establishment	-11.5374
▁ቀጥተኛ	-11.5374
▁በአካል	-11.538
▁tempted	-11.5382
▁በመጠበቅ	-11.5397
▁spreading	-11.5407
▁150	-11.5407
▁bone	-11.5409
▁ሊሰጥ	-11.5417
Look	-11.5418
ደግሞም	-11.5418
ትራክ	-11.5419
▁ከመሆን	-11.5429
▁አልሰማ	-11.5431
ባለስልጣናቱ	-11.5431
▁accompany	-11.5431
▁defect	-11.5431
▁dominate	-11.5431
▁leviticus	-11.5431
▁naomi	-11.5431
▁observing	-11.5431
▁poison	-11.5431
▁ለመስበክ	-11.5431
▁በአቅራቢያ	-11.5431
▁ኮምፒውተር	-11.5431
▁drove	-11.5431
▁አላደረገ	-11.5431
▁ephod	-11.5431
▁dollar	-11.5431
▁prize	-11.5431
▁ከጥንት	-11.5431
▁ታይቶ	-11.5431
▁ያድርግ	-11.5431
▁boaz	-11.5433
▁vote	-11.5434
▁native	-11.5434
▁የአባቱን	-11.5437
▁Most	-11.5438
▁መጠንቀቅ	-11.5444
▁በረሃብ	-11.5446
▁በሚመለከት	-11.5453
▁እንዲጠፋ	-11.5457
▁ይሰማኝ	-11.5466
ፍቅር	-11.547
▁rejoiced	-11.5471
▁cometh	-11.5474
▁ማንንም	-11.5474
▁arrest	-11.5475
▁touching	-11.5477
▁103	-11.5481
ከዚህ	-11.5484
▁flu	-11.5488
እህሉ	-11.549
ending	-11.5491
▁መሆናችን	-11.5493
▁ጓደኛዬ	-11.5495
ዘገበው	-11.5496
▁bottom	-11.5497
▁ceremony	-11.5497
▁efficient	-11.5497
▁extraordinary	-11.5497
▁fundamental	-11.5497
▁historian	-11.5497
▁initiative	-11.5497
▁involving	-11.5497
▁lebanon	-11.5497
▁pursuit	-11.5497
▁variety	-11.5497
▁zedekiah	-11.5497
▁ለመገንባት	-11.5497
▁በአድናቆት	-11.5497
▁ተሰሎንቄ	-11.5497
▁አደባባይ	-11.5497
▁የጽሁፍ	-11.5497
▁ፍቅራዊ	-11.5497
▁offense	-11.5497
▁refine	-11.5497
▁በእጃቸው	-11.5497
▁fury	-11.5497
▁እግሮቹ	-11.5497
▁dining	-11.5497
▁ኮከብ	-11.5497
▁upper	-11.5497
▁ጠላቶቻቸው	-11.5498
▁ፈረስ	-11.5498
ግብዝነት	-11.5498
▁reprove	-11.5498
▁ስምምነቱ	-11.55
▁jealousy	-11.5501
▁1980	-11.5502
▁ይሞላ	-11.5505
▁ቀሪዎች	-11.5507
▁ነጠላ	-11.5508
▁melt	-11.551
ተባሉ	-11.5513
"'"	-11.5516
▁ለህይወት	-11.5517
▁ይገኛሉ	-11.5517
▁እያንዳንዳችሁ	-11.5518
▁ግብረ	-11.5522
▁እየመራ	-11.5526
▁ሆንክ	-11.5533
▁በራስህ	-11.5536
15	-11.5552
መገዛት	-11.5558
▁mad	-11.5558
▁connect	-11.5561
▁ski	-11.5561
▁correspond	-11.5563
▁ስላደረገ	-11.5563
▁በሚያደርጉ	-11.5563
▁በተራራው	-11.5563
▁እንሆናለን	-11.5563
▁እየደረሰ	-11.5563
▁የሙዚቃ	-11.5563
▁predict	-11.5563
▁ችያለሁ	-11.5563
▁limitations	-11.5563
▁ጠብቀው	-11.5563
▁አንደበት	-11.5564
▁poll	-11.5566
▁ministerial	-11.5567
▁እርሻው	-11.5569
▁በጦር	-11.5569
▁armor	-11.5573
▁የሚገዛ	-11.5576
▁ከጥፋት	-11.5579
▁ነበረባቸው	-11.558
▁ይረዳቸዋል	-11.5582
▁happening	-11.5587
josh	-11.5593
▁wisely	-11.56
▁በእነዚያ	-11.5601
▁accuse	-11.5611
▁fatherless	-11.5613
▁አባታቸው	-11.5614
born	-11.5624
ገንዘቡ	-11.5629
▁Babylon	-11.563
▁Canaan	-11.563
▁december	-11.563
▁demonstration	-11.563
▁distinguish	-11.563
▁historical	-11.563
▁persist	-11.563
▁pursuing	-11.563
▁resolution	-11.563
▁sackcloth	-11.563
▁ለመገናኘት	-11.563
▁ለመፍጠር	-11.563
▁መከላከል	-11.563
▁አውሮፕላን	-11.563
▁ያስወግዳል	-11.563
▁ይመለከታል	-11.563
▁status	-11.563
▁chaldeans	-11.563
▁እንድታደርግ	-11.563
▁የሚመስሉ	-11.563
▁ገለጹ	-11.563
▁ጠቅሶ	-11.563
▁መምጣቱ	-11.563
ቋረጠ	-11.563
ተገረዙ	-11.563
▁fitting	-11.5631
state	-11.5632
▁የሚያረጋግጥ	-11.5633
▁ይሞታል	-11.5637
▁የምናሴ	-11.564
▁ለመታዘዝ	-11.5641
▁አግባብነት	-11.5646
▁በአንደኛው	-11.5649
▁ken	-11.5652
ሌሊት	-11.5652
▁deepen	-11.5652
▁reduced	-11.5654
▁aspect	-11.5654
▁ወታደሮቹ	-11.5654
▁እያንዳንዳችን	-11.5661
▁separated	-11.5675
▁የአይሁዳውያን	-11.5675
እህል	-11.5683
▁ቅጽ	-11.5684
from	-11.5696
▁Regional	-11.5697
▁assault	-11.5697
▁criticize	-11.5697
▁eagle	-11.5697
▁eleazar	-11.5697
▁exercising	-11.5697
▁proposal	-11.5697
▁traffic	-11.5697
▁ማመልከቻ	-11.5697
▁ተገንዝቦ	-11.5697
▁ታሪካዊ	-11.5697
▁አረጋውያን	-11.5697
▁እስትንፋስ	-11.5697
▁ፍንዳታ	-11.5697
▁groan	-11.5697
▁impact	-11.5697
▁latin	-11.5697
▁ከወሩም	-11.5697
▁የሚጠብቁ	-11.5697
▁የተቀመጡ	-11.5697
▁ያደረግነው	-11.5697
▁ከእምነት	-11.5697
▁South	-11.5698
▁mildness	-11.5699
▁ይሰራሉ	-11.5705
▁estimated	-11.5708
▁ትላለች	-11.5708
▁አዘነ	-11.571
▁ዋሻ	-11.5711
▁endured	-11.5715
▁hanging	-11.5716
▁fee	-11.5717
▁stir	-11.5722
▁ተሰበሰቡ	-11.5724
▁የሞተው	-11.5724
▁nah	-11.5726
▁deut	-11.574
▁ቆላስይስ	-11.5742
▁የተነሱ	-11.5743
▁advanced	-11.5746
Article	-11.5753
መንፈስ	-11.5757
▁construct	-11.5762
▁mom	-11.5763
▁british	-11.5764
▁penalty	-11.5764
▁smile	-11.5764
▁trinity	-11.5764
▁ማሰልጠን	-11.5764
▁ማእከላዊ	-11.5764
▁የሚቃጠለው	-11.5764
▁ህጻኑ	-11.5764
▁በሃሰት	-11.5764
▁በማንበብ	-11.5764
▁subdue	-11.5764
▁መሰብሰብ	-11.5764
▁ግርጌ	-11.5764
▁ይኑራችሁ	-11.5764
▁till	-11.5764
▁micro	-11.5764
▁በፊታቸው	-11.5765
▁የላከው	-11.5765
▁ልጃቸው	-11.5765
▁infant	-11.5765
▁ከትዳር	-11.5765
▁insist	-11.5765
▁ሰለባ	-11.5767
▁countless	-11.5767
▁እያለሁ	-11.5767
▁ፈራጅ	-11.5768
▁lawful	-11.5769
▁መራራ	-11.5769
▁የሄደ	-11.5773
▁(23	-11.5774
▁persecuted	-11.5776
▁vessel	-11.579
▁የሚሰማቸው	-11.5793
▁missing	-11.5806
▁አዘጋጀ	-11.581
▁63	-11.5815
▁weeds	-11.5822
▁ሆነዋል።	-11.5829
▁consist	-11.5831
▁armageddon	-11.5832
▁dawn	-11.5832
▁diplomatic	-11.5832
▁manuscript	-11.5832
▁mosaic	-11.5832
▁permission	-11.5832
▁shelter	-11.5832
▁slander	-11.5832
▁smote	-11.5832
▁ሊያስከትል	-11.5832
▁ልጇን	-11.5832
▁በአክብሮት	-11.5832
▁በየቤተሰባቸው	-11.5832
▁ትፈልጋለህ	-11.5832
▁ፖፕ	-11.5832
▁martha	-11.5832
▁restrict	-11.5832
▁የጥበብ	-11.5832
▁የሚቃጠሉ	-11.5832
▁beneath	-11.5832
▁እንዲጠብቁ	-11.5832
▁ንገራቸው	-11.5832
▁ለመውጣት	-11.5833
▁የሚያቀርቡት	-11.5833
▁tip	-11.5833
▁በንግድ	-11.5834
▁በመስክ	-11.5835
ሰበሰብ	-11.5835
▁submitted	-11.5835
▁abide	-11.5836
▁stability	-11.5836
▁እምነታችን	-11.5837
▁ያቀረበ	-11.5838
▁ለኢትዮጵያ	-11.584
▁eighth	-11.5843
▁mail	-11.585
▁lean	-11.5856
▁soldier	-11.5859
▁ከመጀመሪያ	-11.5859
▁ጠባቂዎች	-11.586
▁ይሰማሃል	-11.5863
▁ከሚገኙት	-11.5869
▁የተሞላበት	-11.5872
▁በእለት	-11.5874
▁despise	-11.5882
▁enabled	-11.5884
▁ዝርያ	-11.5888
member	-11.5889
ጻድቅ	-11.5891
▁demon	-11.5892
▁extra	-11.59
▁According	-11.5901
▁adversaries	-11.5901
▁applicable	-11.5901
▁አልፈልግም	-11.5901
▁የመጠበቂያ	-11.5901
▁የፋሲካ	-11.5901
▁በንጹህ	-11.5901
▁amorites	-11.5901
▁ትብብር	-11.5901
▁በቀድሞ	-11.5901
▁elected	-11.5901
▁scar	-11.5901
▁Also	-11.5902
▁fond	-11.5902
▁pound	-11.5905
▁developing	-11.591
▁lovingly	-11.5911
▁utterly	-11.5912
▁ደህና	-11.5912
▁Say	-11.5916
▁ተገኘ	-11.5917
▁dismissed	-11.592
▁Beth	-11.5933
አዛር	-11.5936
▁እሺ	-11.5954
power	-11.5961
▁shake	-11.5962
▁ይለዋል	-11.5963
▁transgress	-11.5968
▁desperate	-11.597
▁striking	-11.597
▁unknown	-11.597
▁ለጥቂት	-11.597
▁ተጽፏል	-11.597
▁ወላጆቹ	-11.597
▁spice	-11.597
▁shop	-11.597
▁ለማጥናት	-11.597
▁ተጽፎ	-11.597
▁Egyptians	-11.597
▁የሃይል	-11.597
▁Give	-11.597
▁በመታሰቢያው	-11.597
▁በሚሆንበት	-11.597
▁ያጽናና	-11.597
▁ንግስት	-11.597
▁ያስገኝልናል	-11.597
▁እስከዚያ	-11.597
▁beaten	-11.597
▁ያቀረቡት	-11.597
▁ያሏቸው	-11.5971
▁ባርነት	-11.5971
▁የወለደ	-11.5972
ኢትዮ	-11.598
▁Some	-11.5981
▁ለጦርነት	-11.5981
▁የተነገረው	-11.5983
ፍጥረት	-11.5986
▁eagerly	-11.5986
▁የሚያስፈራ	-11.5989
▁75	-11.599
▁ከነበረ	-11.5997
▁clothe	-11.5998
▁የሚያነሳ	-11.5999
▁rendered	-11.6009
▁ይረዳል	-11.6014
▁churches	-11.6015
▁properly	-11.6016
▁የሚጠራው	-11.602
▁ጽፏል፥	-11.6024
▁utter	-11.6028
▁ይከብ	-11.603
▁flowing	-11.6032
date	-11.6036
▁borrow	-11.6039
▁nuclear	-11.6039
▁sport	-11.6039
▁የተቀረጸ	-11.6039
▁የወደፊቱ	-11.6039
▁በማጥናት	-11.6039
▁በማድረጉ	-11.6039
▁ክልሎች	-11.6039
▁dried	-11.6039
▁ማህተም	-11.604
▁roll	-11.604
▁Without	-11.604
▁exert	-11.604
▁ቀለል	-11.604
መንገዳቸው	-11.604
▁ከራሱ	-11.6041
▁ማሳደግ	-11.6043
▁humiliated	-11.6043
▁ስለመሆኑ	-11.6043
▁everywhere	-11.6044
▁በጋራ	-11.6045
ባልንጀራህ	-11.6049
▁የተመሰረቱ	-11.605
▁ሽባ	-11.6051
▁distributed	-11.6051
▁subjection	-11.6052
▁ዘጸ	-11.6057
▁ካለፈ	-11.6057
▁outset	-11.6059
▁አስታውቋል።	-11.6061
▁ይኖርብናል፧	-11.6061
▁በሃጢአት	-11.6062
▁በጽዮን	-11.6076
▁ሲፈጸም	-11.6084
▁ጓደኛቸው	-11.6105
▁naked	-11.6107
▁WHEREAS	-11.6109
▁college	-11.6109
▁pestilence	-11.6109
▁ripped	-11.6109
▁ለመፈለግ	-11.6109
▁መፈለግ	-11.6109
▁በመጥቀስ	-11.6109
▁በተፈጥሮ	-11.6109
▁በውስጤ	-11.6109
▁ተከታታይ	-11.6109
▁አግኝቻለሁ	-11.6109
▁እርግማን	-11.6109
▁ዘላለም	-11.6109
▁የአውሮፓ	-11.6109
▁ይወርሳሉ	-11.6109
▁ፍጹማን	-11.6109
▁distinct	-11.6109
▁editor	-11.6109
▁ለማሻሻል	-11.6109
▁pagan	-11.6109
▁አጥጋቢ	-11.6109
▁የሚገርመው	-11.6109
▁High	-11.6109
▁ሲደርሱ	-11.6109
▁competence	-11.611
▁ዜጋ	-11.611
▁እንዲወጣ	-11.611
▁የገለጸው	-11.611
▁cancer	-11.611
▁torment	-11.6111
ፈቃድ	-11.6111
▁collected	-11.6111
▁መሆኗን	-11.6111
▁ክምር	-11.6112
▁ለመላው	-11.6112
▁ስሜታዊ	-11.6113
▁ይነሳሉ	-11.6113
▁assembled	-11.6116
▁መደገፍ	-11.6126
▁upset	-11.6126
▁በነቢዩ	-11.6132
▁ስመለከት	-11.6132
▁tools	-11.6132
▁ስሜቶች	-11.6132
እግሬ	-11.6134
Nor	-11.615
▁ሱፍ	-11.6153
▁motivate	-11.6161
▁legally	-11.6165
እረፍት	-11.6172
ስምኦን	-11.6173
ጴ	-11.618
▁immortal	-11.618
አይሁዳውያኑ	-11.618
ጸሃፍት	-11.618
ፕሬዚዳንቱ	-11.618
▁anguish	-11.618
▁boundaries	-11.618
▁deception	-11.618
▁gracious	-11.618
▁mistreat	-11.618
▁persuade	-11.618
▁surrender	-11.618
▁ባልንጀሮቹ	-11.618
▁አምባሳደር	-11.618
▁ከነአናውያን	-11.618
▁ኮረብታ	-11.618
▁የሚያመለክት	-11.618
▁የስኳር	-11.618
▁bribe	-11.618
▁drank	-11.618
▁strict	-11.618
▁ተመልክቶ	-11.618
▁shechem	-11.618
▁እንደማይቀር	-11.618
▁minor	-11.618
▁እየሆነ	-11.618
▁ወታደር	-11.618
▁ሞክሩ	-11.618
▁ባለጸጋ	-11.618
▁በማደሪያ	-11.618
▁ዶላር	-11.618
▁ጮኸ	-11.618
▁losing	-11.6181
▁jehu	-11.6181
▁እንደሆንን	-11.6183
▁ጭንቅ	-11.6191
▁ለመወሰን	-11.6193
▁እንደሚያስብ	-11.6195
▁inspiring	-11.6199
▁በትንሳኤ	-11.6209
▁ሃላፊዎች	-11.6209
▁cubit	-11.6211
▁የጽዮን	-11.6219
▁አመቷ	-11.6219
▁የሚገባቸው	-11.622
▁የእለት	-11.6222
▁ከተባለ	-11.6231
lecommunications	-11.6231
▁38)	-11.6237
ልማት	-11.624
▁emperor	-11.6251
▁familiar	-11.6251
▁indignation	-11.6251
▁ከሁለቱ	-11.6251
▁የመግዛት	-11.6251
▁ፖሊሶች	-11.6251
▁የላከኝ	-11.6251
▁መነጋገር	-11.6251
▁revolt	-11.6251
▁የተመካው	-11.6251
▁በመነሳት	-11.6251
▁ገመድ	-11.6251
▁የተለዩ	-11.6251
▁trustworthy	-11.6251
▁የበዛ	-11.6255
▁አምላኪዎች	-11.6258
▁ያያሉ	-11.6269
head	-11.627
▁ለመንፈሳዊ	-11.6276
▁መንገዱ	-11.6282
▁ቀረበ	-11.6291
Selah	-11.6297
▁ስላላቸው	-11.6314
ክርስቲያኖች	-11.6315
▁scorn	-11.6322
▁cyrus	-11.6322
▁deposit	-11.6322
▁draft	-11.6322
▁holiness	-11.6322
▁operate	-11.6322
▁preceding	-11.6322
▁tobacco	-11.6322
▁ቀለበቶች	-11.6322
▁በመመልከት	-11.6322
▁በየሳምንቱ	-11.6322
▁ተያያዥ	-11.6322
▁አጠቃቀም	-11.6322
▁እስማኤል	-11.6322
▁የሸክላ	-11.6322
▁የተንጸባረቀበት	-11.6322
▁የተደነገገው	-11.6322
▁ቢችልም	-11.6322
▁ያካትታል	-11.6322
▁ለራስህ	-11.6322
▁የካቲት	-11.6322
▁ጉብኝት	-11.6322
▁abound	-11.6322
▁የወይራ	-11.6322
▁ከፊቱ	-11.6323
ልኡሉ	-11.6323
▁ጭቃ	-11.6324
▁ረአብ	-11.6324
▁የጦርነት	-11.6325
▁Noah	-11.6336
▁ተገለጸ	-11.635
▁punished	-11.6352
▁39)	-11.6367
▁ሌባ	-11.6374
▁replace	-11.6378
▁hang	-11.6379
▁fan	-11.6379
▁lend	-11.6381
አምላኬ	-11.6387
▁german	-11.6388
▁Oromia	-11.6394
▁comparison	-11.6394
▁confusion	-11.6394
▁screen	-11.6394
▁ትርጉሙ	-11.6394
▁ትእዛዙ	-11.6394
▁ንጉሳዊ	-11.6394
▁አበኔር	-11.6394
▁አክሊል	-11.6394
▁ድክመት	-11.6394
▁ጎላ	-11.6394
▁murmur	-11.6394
▁ሃቀኝነት	-11.6394
▁ታማኙ	-11.6394
▁ደሞዝ	-11.6394
▁በጻፈው	-11.6394
▁ከቀድሞ	-11.6394
▁በተሞላ	-11.6394
▁የአሶር	-11.6394
▁ታጋሽ	-11.6394
▁ከአምስት	-11.6394
▁ሄጄ	-11.6396
▁መዳብ	-11.6396
▁ከልቡ	-11.6398
▁correction	-11.6402
▁ከሚገኙ	-11.6403
▁ኤፍ	-11.6408
▁ኑሩ	-11.6414
▁የተወሰዱ	-11.6418
▁surround	-11.6424
▁adopted	-11.6425
▁አንዴ	-11.6426
ለደረሰ	-11.6444
▁secretly	-11.6444
▁ጥለው	-11.6454
ፊልጵስዩስ	-11.646
▁intent	-11.6466
▁Notwithstanding	-11.6466
▁abusive	-11.6466
▁begotten	-11.6466
▁changing	-11.6466
▁chemical	-11.6466
▁inclination	-11.6466
▁judas	-11.6466
▁parliament	-11.6466
▁በሃቀኝነት	-11.6466
▁እምብዛም	-11.6466
▁ለማሟላት	-11.6466
▁ማእበል	-11.6466
▁ሃፍረት	-11.6466
▁እንዲሰፍን	-11.6466
▁ድርጊቱ	-11.6466
▁በአጭሩ	-11.6466
▁ቀጣይ	-11.6467
▁robert	-11.6467
▁በክልሉ	-11.6467
▁tail	-11.6467
▁በመምጣት	-11.6467
▁በሜዳ	-11.6467
▁afar	-11.6467
ማህበረ	-11.6469
▁plow	-11.6471
▁suspended	-11.6471
ተስፋ	-11.6473
▁overtake	-11.6477
▁የግሪክኛ	-11.6479
▁የቻለ	-11.6484
▁ዝቅተኛ	-11.6484
▁belt	-11.649
▁pull	-11.6517
▁ከደቀ	-11.6521
after	-11.6527
አምላካችሁ	-11.6533
Why	-11.6534
ጻድቃን	-11.6534
▁pilate	-11.6539
▁violation	-11.6539
▁ለመመስረት	-11.6539
▁ሬዲዮ	-11.6539
▁ሰሎሞን	-11.6539
▁በሰራዊቱ	-11.6539
▁ከተወሰነ	-11.6539
▁ዘግቧል	-11.6539
▁ያገለግላሉ	-11.6539
▁Since	-11.6539
▁applies	-11.6539
▁አናውቅም	-11.6539
▁wrongdoing	-11.6539
▁pool	-11.6539
▁wilt	-11.6539
▁ብድራት	-11.6539
▁sorry	-11.6539
▁የውስጥ	-11.6539
▁ሃኪም	-11.654
▁ጽንፈ	-11.654
▁የሚያምኑ	-11.6542
▁somali	-11.6542
▁foolishness	-11.6543
▁owe	-11.6544
▁መልእክቱን	-11.6544
▁የምፈልገው	-11.6545
▁ይገደል	-11.6551
▁extremely	-11.6552
▁fixed	-11.6553
▁replaced	-11.6559
▁ለመጨረሻ	-11.656
▁በነጻነት	-11.6562
መታሰቢያ	-11.6573
▁prince	-11.6576
▁73	-11.6579
ask	-11.6584
▁corinth	-11.6613
▁footnote	-11.6613
▁ishmael	-11.6613
▁መሳፍንት	-11.6613
▁መኳንንቱ	-11.6613
▁በሩሲያ	-11.6613
▁አልነበራቸውም	-11.6613
▁እንደተገለጸው	-11.6613
▁ፊልጶስ	-11.6613
▁አስታውቀዋል	-11.6613
▁እወዳለሁ	-11.6613
▁stead	-11.6613
▁የመገናኛ	-11.6613
▁Work	-11.6613
▁ሮማውያን	-11.6613
▁contend	-11.6613
▁ፈቀቅ	-11.6613
▁በአየር	-11.6614
▁ይናገሩ	-11.6614
▁ease	-11.6614
▁recommendation	-11.6616
▁italy	-11.6618
▁ashes	-11.6619
▁የወሰነ	-11.662
▁shaken	-11.6621
▁በጌታችን	-11.6621
▁በስነ	-11.6625
▁(24	-11.6625
▁250	-11.6628
▁motivated	-11.6633
▁ወሰንኩ	-11.6635
▁በአደራ	-11.6641
▁supporters	-11.6649
▁inherited	-11.665
▁shekel	-11.6651
▁weighing	-11.6651
▁ርቆ	-11.6652
▁68	-11.6655
▁ተቀበለ	-11.6685
▁Agreement	-11.6687
▁criticism	-11.6687
▁evangelizer	-11.6687
▁expensive	-11.6687
▁priesthood	-11.6687
▁ለማመልከት	-11.6687
▁ለዘለቄታው	-11.6687
▁ማዘጋጀት	-11.6687
▁ማጠናከር	-11.6687
▁በአንጻሩ	-11.6687
▁በዙሪያቸው	-11.6687
▁አግኝተው	-11.6687
▁አዘዛቸው	-11.6687
▁በስውር	-11.6687
▁መልሼ	-11.6687
▁ችለናል	-11.6687
▁Meles	-11.6687
▁style	-11.6687
▁ፈልጉ	-11.6687
▁driving	-11.6687
▁የመናገር	-11.6688
▁የተሞሉ	-11.6688
▁ባረከ	-11.6688
▁ተንኮል	-11.6688
▁ልቦና	-11.6689
▁ከሰፈሩ	-11.6689
▁ይኑር	-11.6689
▁ካናዳ	-11.669
▁በገነት	-11.6692
▁imposed	-11.6696
▁dance	-11.6698
▁ፊቱ	-11.6706
▁ገጽታዎች	-11.6706
▁pulled	-11.671
▁የተጣለ	-11.6711
▁አጥፊ	-11.6712
▁አብራራ	-11.6712
▁የመከራ	-11.6714
▁ተቀበል	-11.6717
ያገኘው	-11.6746
did	-11.6758
፱	-11.6762
▁blossom	-11.6762
▁dwelt	-11.6762
▁mutual	-11.6762
▁snare	-11.6762
▁split	-11.6762
▁telephone	-11.6762
▁welfare	-11.6762
▁መሆኔን	-11.6762
▁በፈረንሳይ	-11.6762
▁እስራኤላዊ	-11.6762
▁ክሊንተን	-11.6762
▁ገጾች	-11.6762
▁ጓደኞቼ	-11.6762
▁ፋብሪካ	-11.6762
▁barley	-11.6762
▁club	-11.6762
▁stronghold	-11.6762
▁ለሁለተኛ	-11.6762
▁ኣቃቤ	-11.6762
▁ይወዳል	-11.6762
▁ወቅታዊ	-11.6762
▁avenge	-11.6762
▁ለአባቱ	-11.6762
▁መሲሁ	-11.6762
▁ቢንያም	-11.6762
▁ለትዳር	-11.6762
▁መጋቢት	-11.6762
▁ከመዳብ	-11.6762
▁ይፈልግ	-11.6762
▁partake	-11.6762
ስልጣናቸው	-11.6762
▁ማግባት	-11.6766
▁ጉድለት	-11.6767
▁አትፍሩ	-11.6767
▁እንሂድ	-11.6768
17	-11.6769
▁ትላላችሁ	-11.6769
▁ሞኝነት	-11.6772
▁ሸሹ	-11.6775
▁የአባቶች	-11.6785
▁የሌለባቸው	-11.6797
▁signal	-11.6799
▁rendering	-11.68
▁expert	-11.6802
▁83	-11.681
▁ቋሚዎች	-11.683
ማህበራዊ	-11.6833
ኹ	-11.6837
▁Constitution	-11.6837
▁TPLF	-11.6837
▁creating	-11.6837
▁deprive	-11.6837
▁excellent	-11.6837
▁fierce	-11.6837
▁hurled	-11.6837
▁maturity	-11.6837
▁ለአደጋ	-11.6837
▁በመሆናችን	-11.6837
▁እንሄዳለን	-11.6837
▁እንደሚገልጸው	-11.6837
▁ወደሚገኝ	-11.6837
▁የጥብቅና	-11.6837
▁ይጠበቃል	-11.6837
▁በቅዱሱ	-11.6837
▁ከመሆናቸው	-11.6837
▁በልባችን	-11.6837
▁match	-11.6837
▁calf	-11.6837
▁የተረገመ	-11.6837
▁የጀመሩ	-11.6837
▁ደማቅ	-11.6837
▁የሰሜን	-11.6837
▁ማጨስ	-11.6838
▁ትሰራለህ	-11.6838
▁sunday	-11.6839
▁ብዙሃን	-11.684
▁ፊቴን	-11.6842
▁frequently	-11.6844
ፈነዳ	-11.6846
▁መሃን	-11.6847
▁highest	-11.6859
▁ወርዶ	-11.6875
▁መኖሩ	-11.6876
▁Dr	-11.6886
መግደል	-11.6896
ከሃዲዎች	-11.691
ሁኔታው	-11.691
▁Regulation	-11.6913
▁brotherhood	-11.6913
▁embassy	-11.6913
▁perspective	-11.6913
▁sheikh	-11.6913
▁technical	-11.6913
▁track	-11.6913
▁ለሚቃጠል	-11.6913
▁ሮበርት	-11.6913
▁በጊልያድ	-11.6913
▁አይደለንም	-11.6913
▁እንደተናገሩት	-11.6913
▁ክርስቲያናት	-11.6913
▁ይመሳሰላል	-11.6913
▁envy	-11.6913
▁ይመለሳል	-11.6913
▁ጆርጅ	-11.6913
▁stray	-11.6913
▁ማስገባት	-11.6913
▁ፍላጻ	-11.6913
▁foretell	-11.6913
▁ተቀብሎ	-11.6913
▁አጋማሽ	-11.6913
▁በሰፊው	-11.6913
▁እንድንኖር	-11.6913
▁የሚያስገርም	-11.6913
▁citizenship	-11.6913
▁በወይን	-11.6913
▁ርቀው	-11.6913
▁ወሰኑ	-11.6913
▁ውስጠ	-11.6913
▁ይሰጣቸዋል	-11.6913
▁eva	-11.6914
▁የላመ	-11.6921
▁incite	-11.6921
▁ወራሪ	-11.6922
▁አበረታታ	-11.6929
▁jw	-11.6931
▁ስፋት	-11.6935
▁በስብሰባ	-11.694
▁ዩኒቨርስቲ	-11.6943
▁43)	-11.6953
▁የተመለከቱ	-11.6955
▁ሊደርስ	-11.6959
hear	-11.6964
▁ሃይለ	-11.6981
break	-11.6987
proverbs	-11.6987
ተከተሉ	-11.6989
▁ቅጂ	-11.6989
▁exhaust	-11.6989
አቤሴሎም	-11.6989
▁AND	-11.6989
▁Representatives	-11.6989
▁afford	-11.6989
▁cheerful	-11.6989
▁quarrel	-11.6989
▁smooth	-11.6989
▁ሃጢአቶች	-11.6989
▁ሆስፒታል	-11.6989
▁ለመገኘት	-11.6989
▁ረቂቅ	-11.6989
▁ራእዮች	-11.6989
▁በተሳሳተ	-11.6989
▁እንዲፈጠር	-11.6989
▁ይከታተላል	-11.6989
▁ፍላጎታቸው	-11.6989
▁ጭቆና	-11.6989
▁አሞናውያን	-11.6989
▁ይሞታሉ	-11.6989
▁ነፍሳት	-11.6989
▁አደረግኩ	-11.6989
▁ተከትለው	-11.6989
▁በታሪክ	-11.6989
▁አትክልት	-11.6989
▁ቀጥሏል	-11.6989
▁weakness	-11.6989
▁ክፍለ	-11.6989
▁ተኝቶ	-11.6989
▁impartial	-11.6989
፪ሺ	-11.699
▁ታናሽ	-11.6991
▁admitted	-11.6991
▁hospitality	-11.6991
▁ጽፎ	-11.6994
▁disappointed	-11.6994
▁ያመነ	-11.6996
▁ሲገባ	-11.6997
▁ጭስ	-11.6999
▁በሬዎች	-11.701
▁welcomed	-11.7016
▁ጥጃ	-11.702
▁የማሰብ	-11.7027
▁አለማዊ	-11.7031
መራው	-11.7031
▁audit	-11.7037
▁አትበል	-11.7037
▁ክፉኛ	-11.704
▁thirst	-11.706
▁uncle	-11.7063
firm	-11.7063
እያንዳንዳቸው	-11.7064
▁Spirit	-11.7066
▁advocate	-11.7066
▁caesar	-11.7066
▁deliberate	-11.7066
▁february	-11.7066
▁fiameta	-11.7066
▁hannah	-11.7066
▁trembling	-11.7066
▁ሮብአም	-11.7066
▁በርናባስ	-11.7066
▁በፈርኦን	-11.7066
▁አስረድተዋል	-11.7066
▁አቋማችንን	-11.7066
▁ማምለክ	-11.7066
▁ከእስር	-11.7066
▁crag	-11.7066
▁ምክሮች	-11.7066
ያስችል	-11.7066
▁የሰፈረው	-11.7066
▁ከተገኘ	-11.7066
▁ለሙሴ	-11.7066
▁እንደሆንክ	-11.7066
▁ታደርግ	-11.7066
▁እንደሚቻል	-11.7066
▁ከአደጋ	-11.7066
▁አቧራ	-11.7066
▁እንደሚገኝ	-11.7066
▁ቁስሉ	-11.7067
▁incur	-11.7067
ስጦታ	-11.7073
▁ተሞክሮዎች	-11.7073
▁የፈቀደው	-11.7075
ልተገኘ	-11.7087
▁ጭን	-11.7089
▁ባሎች	-11.7095
▁ሲመለከቱ	-11.7101
▁በቀለ	-11.7127
ዲያብሎስ	-11.7142
▁EPLF	-11.7143
▁assurance	-11.7143
▁declaration	-11.7143
▁discharge	-11.7143
▁emphasize	-11.7143
▁isolated	-11.7143
▁thyself	-11.7143
▁መምህራን	-11.7143
▁መገባደጃ	-11.7143
▁በድርጅቱ	-11.7143
▁ተመልክቷል	-11.7143
▁ተችሏል	-11.7143
▁አውሮፓ	-11.7143
▁አግኝቷል	-11.7143
▁የሚከናወነው	-11.7143
▁define	-11.7143
▁funeral	-11.7143
▁በጥንቷ	-11.7143
▁ካደረጉ	-11.7143
▁Court	-11.7143
▁እንደደረሰ	-11.7143
▁አሳፋሪ	-11.7143
▁ለመዋጋት	-11.7143
▁ስያሜ	-11.7143
▁missile	-11.7143
▁መድረክ	-11.7144
▁readily	-11.7144
▁ኢኮኖሚያዊ	-11.7144
▁grandson	-11.7145
▁ምድሩ	-11.7145
▁horsemen	-11.7145
▁አይኖረውም	-11.7145
▁jonah	-11.7146
▁አታላይ	-11.7147
▁ይሰማሃል፧	-11.7149
▁ይምጣ	-11.7154
ወንድምህ	-11.7155
▁initially	-11.7158
▁ተማሪዎቹ	-11.7161
▁ይቻላል፧	-11.7167
▁confirmed	-11.7175
▁prophetic	-11.7179
▁ግድያ	-11.7183
▁ውጡ	-11.7186
▁resurrect	-11.7197
▁earnest	-11.7213
▁የታየ	-11.7216
▁ከበደ	-11.7217
▁amend	-11.7217
back	-11.7221
J	-11.7221
▁balaam	-11.7221
▁childhood	-11.7221
▁damascus	-11.7221
▁disregard	-11.7221
▁eternity	-11.7221
▁generosity	-11.7221
▁ordinary	-11.7221
▁practicing	-11.7221
▁praising	-11.7221
▁swarm	-11.7221
▁ልብሶቹን	-11.7221
▁መመርመራችን	-11.7221
▁ስህተቶች	-11.7221
▁ስልጣኑን	-11.7221
▁አመስጋኞች	-11.7221
▁የኾነ	-11.7221
▁ያደርጋቸዋል	-11.7221
▁productive	-11.7221
▁በኤደን	-11.7221
▁cake	-11.7221
▁ቅዱሱ	-11.7221
▁ድንግል	-11.7222
▁planned	-11.7222
▁በየወሩ	-11.7222
▁ጥፋተኛ	-11.7222
▁የሚያቀርብ	-11.7222
▁ናሙና	-11.7222
▁በመርዳት	-11.7222
▁ውደድ	-11.7222
▁ongoing	-11.7222
▁ሃሰተኛ	-11.7222
▁ሰላሳ	-11.7222
▁አንባቢ	-11.7222
▁አይገኝም	-11.7222
▁ሩጫ	-11.7223
▁ገርነት	-11.7224
▁shortage	-11.7225
▁የሚወደው	-11.7232
▁willingness	-11.7233
ሰውየው	-11.7237
▁የሞላ	-11.7238
አባቶቻችን	-11.7239
▁ትላለህ	-11.724
▁ባይሆን	-11.7242
▁treaty	-11.7244
▁opposed	-11.7249
▁ጉቦ	-11.7249
Or	-11.726
▁ወስዳ	-11.726
▁ምቹ	-11.7269
▁በልብህ	-11.7271
▁dismiss	-11.7279
ኢየሩሳሌም	-11.7285
▁reminder	-11.7292
▁devi	-11.7295
▁advertise	-11.73
▁analyze	-11.73
▁brazil	-11.73
▁deceptive	-11.73
▁despair	-11.73
▁disappear	-11.73
▁disrespect	-11.73
▁happily	-11.73
▁knock	-11.73
▁merchant	-11.73
▁prophesied	-11.73
▁scourge	-11.73
▁shrewd	-11.73
▁trample	-11.73
▁universal	-11.73
▁whatsoever	-11.73
▁ማጽናኛ	-11.73
▁በበላይነት	-11.73
▁ቪዲዮ	-11.73
▁ያስተምረናል	-11.73
▁ጠቀሜታ	-11.73
▁ambush	-11.73
▁forbidden	-11.73
▁ከረጅም	-11.73
▁ሻለቃ	-11.73
ድቅድቅ	-11.73
▁ይቀርባል	-11.73
▁ምልጃ	-11.73
▁እንዲቀበሉ	-11.73
▁loose	-11.73
አመንዝራ	-11.73
▁ስብከት	-11.73
▁ጽፈዋል	-11.7301
▁የተቀቡ	-11.7301
▁standpoint	-11.7301
▁መሲህ	-11.7302
▁remark	-11.7302
ኮንትራ	-11.7304
▁የሚጠቅም	-11.7304
▁weaknesses	-11.7305
▁አያያዝ	-11.7309
▁በመቃወም	-11.7311
▁overlook	-11.7312
▁rub	-11.7312
▁ቀናተኛ	-11.7313
▁የሰራተኛ	-11.732
▁undergo	-11.7325
▁እንድሆን	-11.7328
ተዋቸው	-11.7329
Get	-11.734
▁ከፊትህ	-11.7342
መመሪያ	-11.7345
▁አምጡ	-11.7346
▁sinner	-11.7349
▁overwhelm	-11.7357
▁announce	-11.7361
ታገስ	-11.7373
bility	-11.7374
▁abimelech	-11.738
▁conscious	-11.738
▁disobedient	-11.738
▁electronic	-11.738
▁exciting	-11.738
▁jehoash	-11.738
▁machine	-11.738
▁ocean	-11.738
▁photo	-11.738
▁quoting	-11.738
▁triumph	-11.738
▁የኤፍሬም	-11.738
▁1995	-11.738
▁ነሃሴ	-11.738
▁ንብረቱ	-11.738
▁አቅማችን	-11.738
▁አታድርጉ	-11.738
▁ይፈጽማል	-11.738
▁pitched	-11.738
▁በመመርመር	-11.738
▁አስከባሪ	-11.738
▁በላያቸው	-11.738
▁outcry	-11.738
▁ገልጸው	-11.738
▁መጠለያ	-11.738
▁ምድራቸው	-11.738
▁አበዛ	-11.7381
▁ጠላቶቹ	-11.7381
▁ከአባቶቹ	-11.7381
▁አዳምጡ	-11.7382
▁ስድብ	-11.7383
▁ከአለም	-11.7385
▁በስሙ	-11.7385
▁መቆም	-11.7387
▁በሚወስደው	-11.739
▁comfortable	-11.7393
▁sown	-11.7406
▁emotionally	-11.7408
▁anna	-11.7412
▁ተከተል	-11.7428
▁tire	-11.7441
▁abner	-11.746
▁conference	-11.746
▁negotiation	-11.746
▁overlaid	-11.746
▁quarter	-11.746
▁remembrance	-11.746
▁species	-11.746
▁መጓዝ	-11.746
▁ወንዞች	-11.746
▁የነዳጅ	-11.746
▁ይቆጣጠራል	-11.746
▁ከየትኛውም	-11.746
▁ጥምቀት	-11.746
▁ነዳጅ	-11.746
▁ያስችላል	-11.746
▁በድብቅ	-11.746
▁እንዲመለሱ	-11.746
▁ፈሳሽ	-11.746
▁ደረሱ	-11.746
▁ክፍሉ	-11.746
▁ፈገግ	-11.746
▁እወቁ	-11.746
ተደሰቱ	-11.746
▁ሰበብ	-11.7461
▁flourish	-11.7461
▁ጓደኛሞች	-11.7463
▁hereby	-11.7464
▁presumptuous	-11.7468
▁ይሰማናል	-11.747
▁አለብህ	-11.7482
▁በልቤ	-11.7486
▁ሚስቶቻቸው	-11.7491
▁ቢሞት	-11.7502
▁የለንም	-11.7503
▁ጸሃፊዎች	-11.7513
▁organize	-11.7522
▁በሶስተኛ	-11.7531
▁clash	-11.7535
▁divers	-11.754
▁measuring	-11.754
▁november	-11.754
▁relating	-11.754
▁shatter	-11.754
▁tigray	-11.754
▁vegetation	-11.754
▁wrapped	-11.754
▁መቁረጥ	-11.754
▁ሚስዮናዊ	-11.754
▁አቋማቸውን	-11.754
▁መፍታት	-11.754
▁ለመውጋት	-11.754
▁አስቀመጠ	-11.754
▁Nations	-11.754
▁ሳይኖር	-11.754
▁ይሆኑ	-11.754
▁lightning	-11.754
▁የማያምኑ	-11.754
▁የማያውቅ	-11.7541
▁tyre	-11.7541
▁ተባባሪ	-11.7541
▁(6)	-11.7541
▁የሁለት	-11.7541
▁fame	-11.7541
▁begat	-11.7541
continue	-11.7542
▁repentant	-11.7543
▁ዳኞች	-11.7547
▁African	-11.7547
▁babylonian	-11.7548
▁የተቀበለ	-11.7548
▁attached	-11.7556
▁despised	-11.7563
▁ቀጠሉ	-11.7564
▁በመላክ	-11.7566
▁ሰገደ	-11.7575
▁አመቴ	-11.759
ጉዳዩ	-11.7591
▁statute	-11.7593
ትንሳኤ	-11.7593
▁ቤቷ	-11.7597
▁አሳየኝ	-11.7612
ሳሳቱ	-11.7613
▁compromise	-11.7622
▁occupied	-11.7622
▁reassure	-11.7622
▁supplies	-11.7622
▁መድሃኒቶች	-11.7622
▁መጽሄቶች	-11.7622
▁ሳይንሳዊ	-11.7622
▁ንግግሮች	-11.7622
▁አቅርበዋል	-11.7622
▁ኤምባሲ	-11.7622
▁የሚካሄደው	-11.7622
▁የአምልኮ	-11.7622
▁ያገለገለ	-11.7622
▁ለማሸነፍ	-11.7622
▁የሁለተኛ	-11.7622
▁ይኖራቸዋል	-11.7622
▁የትግራይ	-11.7622
▁ሃሳባቸውን	-11.7622
▁settlements	-11.7622
▁ezra	-11.7622
▁ከጀመረ	-11.7622
▁የማያውቁ	-11.7622
▁ስፔን	-11.7622
▁እንድችል	-11.7622
▁የሚጠቀምበት	-11.7622
▁ከሄደ	-11.7622
▁william	-11.7623
▁ክንውን	-11.7623
▁ጠብቀን	-11.7624
ሰብሳቢ	-11.7624
የሚለው	-11.7625
▁አልተቀበ	-11.7625
▁commendation	-11.7626
▁range	-11.7627
▁production	-11.7627
▁symbolic	-11.7627
▁(8)	-11.7638
▁በሰፈሩ	-11.7639
▁ለማስተዋል	-11.7655
▁anoint	-11.7661
ስተዳድር	-11.7694
▁murderer	-11.77
▁አጠፋለሁ	-11.7703
መርዶክዮስ	-11.7703
▁characteristic	-11.7703
▁circumcision	-11.7703
▁george	-11.7703
▁obliged	-11.7703
▁pierce	-11.7703
▁sanction	-11.7703
▁ማንጸባረቅ	-11.7703
▁ሴዴቅያስ	-11.7703
▁ተያይዞ	-11.7703
▁ያደረግኩት	-11.7703
▁extensive	-11.7703
▁የተናገራቸው	-11.7703
▁የታጠቁ	-11.7703
▁ማሟላት	-11.7703
▁የምርጫ	-11.7704
▁rising	-11.7704
▁ማራኪ	-11.7704
▁weather	-11.7704
▁ክሪስ	-11.7704
▁የምትገኝ	-11.7704
▁ahaz	-11.7704
▁ገለባ	-11.7704
▁በመኪና	-11.7704
▁ይደርሳል	-11.7704
▁ሟች	-11.7705
▁ግትር	-11.7705
ተከታዮቹ	-11.7707
▁ውስን	-11.7708
ነቢያቱ	-11.771
▁2010	-11.7711
▁ቤዛዊ	-11.7716
▁suit	-11.7716
▁ተጠንቀቅ	-11.7717
▁ጥገና	-11.7717
▁perfection	-11.7719
year	-11.7723
▁sinai	-11.7725
▁van	-11.7726
▁አባቶቻቸው	-11.7728
▁ያገባ	-11.7736
▁rare	-11.7736
▁ለመንግስት	-11.7737
በሏቸው	-11.7739
▁በማየት	-11.774
ሰይፍ	-11.7761
▁inflict	-11.7786
▁multi	-11.7786
▁Jonathan	-11.7786
▁adapt	-11.7786
▁deborah	-11.7786
▁ሲያጋጥመን	-11.7786
▁በአደባባይ	-11.7786
▁ታህሳስ	-11.7786
▁አልቻልኩም	-11.7786
▁አዳራሾች	-11.7786
▁እባካችሁ	-11.7786
▁ያስከትላል	-11.7786
▁ያገለግላል	-11.7786
▁ፍላጎቱ	-11.7786
▁መደረቢያ	-11.7786
▁ባእዳን	-11.7786
▁ተፈላጊ	-11.7786
▁አታውቁም	-11.7786
▁china	-11.7786
▁ይቀጥላል	-11.7786
▁uphold	-11.7786
▁ለመለወጥ	-11.7786
▁የሚያስችለው	-11.7786
▁ለመለየት	-11.7786
▁በደለኛ	-11.7786
▁tension	-11.7786
▁invade	-11.7786
መአህድ	-11.7787
▁የብረት	-11.7787
▁ተቀበረ	-11.7787
▁ለልጁ	-11.7787
▁አለቀሰ	-11.7787
▁በምሳሌያዊ	-11.7787
▁በስልክ	-11.7787
▁የሚያመጣው	-11.7788
▁ወረራ	-11.7788
▁በክልል	-11.7789
ማስጠንቀቂያ	-11.779
▁መረጠ	-11.7792
quit	-11.7795
▁የምትፈልገው	-11.7795
▁singers	-11.7801
▁ከመሞቱ	-11.7807
▁ካወጣ	-11.7808
▁combat	-11.7809
12	-11.7827
▁tract	-11.7827
term	-11.7849
▁immediate	-11.7858
▁hung	-11.7862
▁azariah	-11.7869
▁biblical	-11.7869
▁concubine	-11.7869
▁dictator	-11.7869
▁dignity	-11.7869
▁esteem	-11.7869
▁evaluate	-11.7869
▁producing	-11.7869
▁substance	-11.7869
▁survivor	-11.7869
▁ለነበረው	-11.7869
▁መገንባት	-11.7869
▁በየአባቶቻቸው	-11.7869
▁ቢሊዮን	-11.7869
▁አስጨናቂ	-11.7869
▁የደሀንነት	-11.7869
▁ይገልጻሉ	-11.7869
▁ደናግል	-11.7869
▁ፕሮግራሞች	-11.7869
▁Haile	-11.7869
▁ጠቅላላ	-11.7869
▁laban	-11.7869
▁overseas	-11.7869
▁የሚቀጥለው	-11.7869
▁spokesman	-11.787
▁shave	-11.787
▁ፎቶ	-11.787
▁Other	-11.787
▁አውታር	-11.787
▁ከአስር	-11.7872
▁ይናገር	-11.7872
▁ቄስ	-11.7872
book	-11.7874
ሆኖም	-11.7875
ሸፈኑ	-11.7876
▁controlled	-11.7878
▁Aba	-11.788
▁Make	-11.7882
▁እናገኛለን፧	-11.7887
▁lit	-11.789
▁badness	-11.7897
▁ዘንግ	-11.7901
▁ቡና	-11.7908
▁ሺዎች	-11.791
aut	-11.7912
▁deceitful	-11.7924
ፕሮግራሙ	-11.7953
▁meanwhile	-11.7953
▁mexico	-11.7953
▁mordecai	-11.7953
▁movie	-11.7953
▁narrow	-11.7953
▁realistic	-11.7953
▁temporarily	-11.7953
▁translator	-11.7953
▁ማብቂያ	-11.7953
▁በልግስና	-11.7953
▁በእብራይስጥ	-11.7953
▁በየቦታው	-11.7953
▁ቴሌቪዥን	-11.7953
▁ከሳኦል	-11.7953
▁ኾነው	-11.7953
▁የተገለጹት	-11.7953
▁ፑቲን	-11.7953
▁1989	-11.7954
▁interfere	-11.7954
▁የሰለሞን	-11.7954
▁የስሜት	-11.7954
▁የተወደዳችሁ	-11.7954
▁Many	-11.7954
▁shot	-11.7954
▁average	-11.7954
▁የሚያውቀው	-11.7954
▁አድራሻ	-11.7954
▁giant	-11.7954
▁jail	-11.7954
ችሗለን	-11.7954
▁ረቡእ	-11.7954
▁የምንኖር	-11.7954
▁እንዲሰጣቸው	-11.7954
▁alter	-11.7954
▁leper	-11.7954
▁ትበላላችሁ	-11.7954
▁ዳግም	-11.7954
▁አሳይተዋል	-11.7954
▁ሄድኩ	-11.7955
▁airline	-11.7956
▁ይወድ	-11.7956
▁ማቆም	-11.7957
job	-11.7959
▁agent	-11.796
ልጃችሁ	-11.796
▁highway	-11.796
▁በመጨረሻዎቹ	-11.796
▁ስሜታቸውን	-11.7961
▁ጠባቂዎቹ	-11.7989
ከማች	-11.8009
▁cherub	-11.8013
judg	-11.8038
▁coalition	-11.8038
▁electric	-11.8038
▁enhance	-11.8038
▁manufacture	-11.8038
▁messianic	-11.8038
▁naphtali	-11.8038
▁suppress	-11.8038
▁sweep	-11.8038
▁wholehearted	-11.8038
▁ትእዛዛቱን	-11.8038
▁አብረዋቸው	-11.8038
▁ከትውልድ	-11.8038
▁ጌድዮን	-11.8038
▁blaze	-11.8038
▁ጸለየ	-11.8038
ሊቀመንበር	-11.8038
▁saving	-11.8038
▁tolerate	-11.8038
▁በውስጥ	-11.8038
▁ባይኖር	-11.8038
▁በቦታው	-11.8038
▁ከሚገኝ	-11.8039
▁ማውራት	-11.8039
▁በሺህ	-11.8039
እርጅና	-11.8039
▁ንጥረ	-11.8039
▁ሰባተኛው	-11.8039
▁ይገመታል	-11.804
▁ያሳለፈ	-11.8041
▁ዘርፎች	-11.8043
How	-11.8046
▁ውርስ	-11.8049
ምግባር	-11.8049
▁log	-11.8064
ያድግ	-11.807
▁ይኖሩታል	-11.808
▁tall	-11.808
▁govern	-11.8081
▁instrument	-11.8099
▁proverb	-11.8099
▁jon	-11.8121
clock	-11.8124
▁Nevertheless	-11.8124
▁Private	-11.8124
▁attendance	-11.8124
▁evaluation	-11.8124
▁furious	-11.8124
▁london	-11.8124
▁pentecost	-11.8124
▁possibility	-11.8124
▁psyllium	-11.8124
▁relax	-11.8124
▁separation	-11.8124
▁simeon	-11.8124
▁washington	-11.8124
▁ህብረተሰብ	-11.8124
▁መስዋእቱ	-11.8124
▁መካከለኛ	-11.8124
▁ማድረጋችሁ	-11.8124
▁በጀርመን	-11.8124
▁ተቃራኒ	-11.8124
▁ታቀርባላችሁ	-11.8124
▁ታገኛለህ	-11.8124
▁እንዲገነዘቡ	-11.8124
▁የሚያመለክተው	-11.8124
▁የፋይናንስ	-11.8124
▁ጎድጓዳ	-11.8124
▁ጠራርጎ	-11.8124
▁ፈረሰኞች	-11.8124
▁ፕሮፓጋንዳ	-11.8124
▁philippines	-11.8124
▁slew	-11.8124
▁ultimate	-11.8124
▁Simon	-11.8124
▁visible	-11.8124
▁እስረኛ	-11.8124
▁ባለትዳር	-11.8124
▁ይኖርባችሗል	-11.8124
▁consent	-11.8124
▁ምግቡ	-11.8124
▁ተጠብቆ	-11.8124
▁የክፋት	-11.8124
▁በረንዳ	-11.8124
▁ዮናስ	-11.8124
▁መነሻ	-11.8124
▁የልጁ	-11.8125
▁አድነኝ	-11.8125
▁permitted	-11.8126
Jehovah	-11.8131
▁ያገኘሁት	-11.8133
▁rider	-11.8171
▁ባልንጀራችን	-11.8204
▁stock	-11.821
▁Bureau	-11.821
▁context	-11.821
▁figurative	-11.821
▁harbor	-11.821
▁strategy	-11.821
▁በአፍሪካ	-11.821
▁በውስጣችን	-11.821
▁ተገነዘበ	-11.821
▁አእምሯቸው	-11.821
▁እንዲፈጽሙ	-11.821
▁የሚጎዳ	-11.821
▁ጸያፍ	-11.821
▁እንዳልሆኑ	-11.821
▁barren	-11.821
▁ተግባሮች	-11.821
▁በመቃብር	-11.821
▁ተነሳስተው	-11.821
▁ብላቴና	-11.821
▁የጠየቀ	-11.821
▁የማይቻል	-11.821
▁የአመጽ	-11.821
▁ነፍሱ	-11.821
▁ሰዶም	-11.8211
▁በማናቸውም	-11.8211
▁ሄዳችሁ	-11.8212
▁ኳስ	-11.8213
▁የመጣሁት	-11.8213
▁Arab	-11.8213
▁ከቆየ	-11.8214
▁hotel	-11.8214
▁worshipping	-11.8215
▁ስጠኝ	-11.8216
▁አምዶች	-11.8216
ኤርምያስ	-11.8218
▁dogs	-11.8218
▁መብታቸው	-11.8218
▁laity	-11.822
▁ምክንያቱ	-11.8223
▁የራሳቸው	-11.8243
እግዚአብሄር	-11.8281
▁Washington	-11.8297
▁surpass	-11.8297
▁detect	-11.8297
▁fifty	-11.8297
▁holiday	-11.8297
▁iniquity	-11.8297
▁institute	-11.8297
▁latter	-11.8297
▁steadfast	-11.8297
▁territories	-11.8297
▁ለልጆቹ	-11.8297
▁በምእራብ	-11.8297
▁ነበልባል	-11.8297
▁እንደምናገኝ	-11.8297
▁ወንጀለኛ	-11.8297
▁የምንችልባቸው	-11.8297
▁የጎደላቸው	-11.8297
▁ጳጳሳት	-11.8297
▁barak	-11.8297
▁debate	-11.8297
▁properties	-11.8297
▁reserved	-11.8297
▁ሰምቻለሁ	-11.8297
▁እንደሚያደርጉ	-11.8297
▁ንግስና	-11.8297
▁የምርመራ	-11.8297
▁አሳሳቢ	-11.8297
▁ጠማማ	-11.8297
▁በመፍራት	-11.8297
▁ስደተኛ	-11.8297
▁ወንበር	-11.8297
▁ፍርዱ	-11.8297
▁ረዘም	-11.8297
▁priorities	-11.8298
▁የእንስሳት	-11.8298
▁jair	-11.8298
▁ምላስ	-11.8298
▁slay	-11.8298
▁Joab	-11.8299
▁አዋጁ	-11.83
▁አሜን	-11.83
▁ሃሰት	-11.8303
▁ጻፈ	-11.8304
▁commitment	-11.8304
ርህራሄ	-11.8305
▁2005	-11.8306
▁sang	-11.8309
▁ጣሪያ	-11.8311
▁num	-11.8316
▁አገልግሎቶች	-11.8316
▁auditor	-11.833
▁ያስገኝ	-11.8384
፭	-11.8385
▁craft	-11.8385
▁ዲፕሎማ	-11.8385
▁coffee	-11.8385
▁convicted	-11.8385
▁desirable	-11.8385
▁dishonor	-11.8385
▁firstfruits	-11.8385
▁furnace	-11.8385
▁proposed	-11.8385
▁relieve	-11.8385
▁sensitive	-11.8385
▁ለፈርኦን	-11.8385
▁ማስደሰት	-11.8385
▁ባቀረበ	-11.8385
▁አቢሜሌክ	-11.8385
▁እየቀነሰ	-11.8385
▁ወደሚያስፈልጉበት	-11.8385
▁የቴሌኮሙኒኬሽን	-11.8385
▁የበታች	-11.8385
▁bashan	-11.8385
▁አትችሉም	-11.8385
▁blast	-11.8385
▁የገበያ	-11.8385
▁trace	-11.8385
▁የምናገረው	-11.8385
▁ይታያሉ	-11.8385
▁ወህኒ	-11.8385
▁ይፈልጉ	-11.8385
▁ማሰሪያ	-11.8385
▁በተጻፈው	-11.8385
▁ከመናገር	-11.8385
▁አራፋት	-11.8386
▁የተላከ	-11.8387
▁addict	-11.8387
▁absolutely	-11.8389
▁ለማመን	-11.8391
▁thirsty	-11.8391
ፈሪሳውያን	-11.8394
happy	-11.8394
▁ቢያደርግ	-11.8396
▁በዋና	-11.8408
▁warrior	-11.8452
▁philistine	-11.8452
▁እንዲመራ	-11.8459
አባታችን	-11.8464
▁entertain	-11.8471
▁Baghdad	-11.8473
▁aircraft	-11.8473
▁climate	-11.8473
▁gloom	-11.8473
▁goliath	-11.8473
▁prescribed	-11.8473
▁qualifications	-11.8473
▁residing	-11.8473
▁smell	-11.8473
▁unbeliever	-11.8473
▁አላስፈላጊ	-11.8473
▁የትርጉም	-11.8473
▁የጸሃይ	-11.8473
▁tight	-11.8473
▁ባልደረባ	-11.8473
▁ይመለሳሉ	-11.8473
▁ዲቦራ	-11.8473
▁tank	-11.8473
▁lodge	-11.8473
▁ከግምት	-11.8473
▁የሚደርሱ	-11.8473
▁robber	-11.8473
▁ነደደ	-11.8473
▁Sudan	-11.8473
ተማመኑ	-11.8474
▁አዝመራ	-11.8474
▁እዝራ	-11.8474
▁ሊኖሩ	-11.8474
▁አያደርግም	-11.8475
▁ትችል	-11.8475
▁በጸጋ	-11.8475
▁rud	-11.8475
▁blameless	-11.8476
▁ለስሙ	-11.8476
▁ያማረ	-11.8476
ከዚያም	-11.8483
ጴጥሮስ	-11.8483
please	-11.8484
▁ተስፋይቱ	-11.8489
▁ያስገባ	-11.849
just	-11.8493
▁jude	-11.8534
▁መልካ	-11.8545
▁profession	-11.855
▁span	-11.8562
▁Absalom	-11.8562
▁Organization	-11.8562
▁barnabas	-11.8562
▁climb	-11.8562
▁dispose	-11.8562
▁fragment	-11.8562
▁infection	-11.8562
▁lofty	-11.8562
▁refrain	-11.8562
▁regulate	-11.8562
▁sacrificial	-11.8562
▁widespread	-11.8562
▁ምስጢር	-11.8562
▁ተደርጓል	-11.8562
▁አለባበስ	-11.8562
▁ከነግጦሽ	-11.8562
▁ከአህዛብ	-11.8562
▁ከጸሃይ	-11.8562
▁ጋዜጦች	-11.8562
▁1992	-11.8562
▁bloodshed	-11.8562
▁excuse	-11.8562
▁forbid	-11.8562
▁racial	-11.8562
▁uproot	-11.8562
▁glean	-11.8562
▁መንደሮች	-11.8562
▁ማእዘን	-11.8562
▁የተለወሰ	-11.8562
▁አታድርግ	-11.8562
▁ireland	-11.8562
▁nile	-11.8562
▁ወኪል	-11.8562
▁ripe	-11.8563
▁ስለሆንኩ	-11.8563
▁panama	-11.8563
▁የለባችሁም	-11.8563
▁የሴቶች	-11.8563
ለዋወጥ	-11.8563
ውይይቱ	-11.8563
▁ትዳራቸው	-11.8563
▁ጽንሰ	-11.8563
▁የሚመዝን	-11.8564
▁መቃብሩ	-11.8564
▁የራሴ	-11.8564
▁tread	-11.8565
▁መደረጉ	-11.8566
▁አጽም	-11.8567
▁spit	-11.8568
▁ታያለህ	-11.8569
▁ዞን	-11.8576
▁ችሎታችንን	-11.8576
▁grantor	-11.8577
▁እንዳይደርስ	-11.8579
▁የምንሰጠው	-11.8581
▁ball	-11.8583
▁enjoyment	-11.8585
▁ባደረገ	-11.8612
▁tempt	-11.8628
▁miracle	-11.8633
▁Africa	-11.8645
▁distribution	-11.8652
▁excessive	-11.8652
▁macedonia	-11.8652
▁snatch	-11.8652
▁struggling	-11.8652
▁tendency	-11.8652
▁መወያየት	-11.8652
▁ረድቷቸዋል	-11.8652
▁በአስቸኳይ	-11.8652
▁እየቀረበ	-11.8652
▁ከመምጣቱ	-11.8652
▁ወደነበረው	-11.8652
▁የኮሚሽኑ	-11.8652
▁ፕሮጀክቶች	-11.8652
ሰበሰበው	-11.8652
▁ሹመት	-11.8652
▁እንዲጨምር	-11.8652
▁በውጊያ	-11.8652
▁flash	-11.8652
▁lock	-11.8652
▁መጽናት	-11.8652
▁ምድጃ	-11.8653
▁ለአሮን	-11.8653
▁broadcast	-11.8653
▁መመገብ	-11.8653
▁ልጃችን	-11.8653
▁አብያተ	-11.8653
▁ስንመለከት	-11.8653
▁ልብሳቸውን	-11.8653
▁ገልጠዋል	-11.8654
▁የፈለገውን	-11.8663
ሉአላዊው	-11.8664
close	-11.8665
▁colon	-11.8665
አለው።	-11.8666
ችግር	-11.8668
▁አላለም	-11.8677
▁ከፈተ	-11.8686
ትበላ	-11.8693
▁ሴቶቹ	-11.8706
▁የሚከብ	-11.8711
▁expose	-11.8724
▁Russia	-11.8736
▁extinguish	-11.8743
▁disposition	-11.8743
▁frustrate	-11.8743
▁physician	-11.8743
▁precise	-11.8743
▁ለማንበብ	-11.8743
▁ለአመታት	-11.8743
▁ሊያነሳሳን	-11.8743
▁ማጠራቀሚያ	-11.8743
▁በሚደረገው	-11.8743
▁አለመግባባቶች	-11.8743
▁አዘውትረው	-11.8743
▁እውነተኝነት	-11.8743
▁ዋሽንግተን	-11.8743
▁የሚያስጨንቁ	-11.8743
▁የሚፈጸመው	-11.8743
▁የቦርዱ	-11.8743
▁የወንጀል	-11.8743
▁ያቀርባሉ	-11.8743
▁ጠቅሷል	-11.8743
▁ፈረንሳይ	-11.8743
▁collective	-11.8743
▁ይነገራል	-11.8743
▁አላግባብ	-11.8743
▁chaste	-11.8743
▁ማሳየታችን	-11.8743
▁አውጥተው	-11.8743
▁Fire	-11.8743
▁እንዳደርግ	-11.8743
▁syrians	-11.8744
▁በቡድን	-11.8744
▁በትክክለኛው	-11.8744
▁ይፈጸማል	-11.8744
▁ወለል	-11.8745
▁3,000	-11.8746
▁ከመላው	-11.8747
▁items	-11.8748
ሰክሩ	-11.8753
▁nationality	-11.8754
▁አጥንት	-11.8755
That	-11.8756
▁በህገ	-11.8756
መፈጸማቸው	-11.8756
cast	-11.8758
▁favorable	-11.876
▁ተብሏል	-11.8771
abba	-11.8774
▁ለነበሩ	-11.8796
▁አልገባ	-11.8815
▁weapon	-11.8817
mariam	-11.883
▁naboth	-11.8835
▁statue	-11.8835
▁tuesday	-11.8835
▁zebulun	-11.8835
▁Right	-11.8835
▁chinese	-11.8835
▁hypocrisy	-11.8835
▁unbelieving	-11.8835
▁ለመመርመር	-11.8835
▁ምህረቱ	-11.8835
▁በአውሮፓ	-11.8835
▁አመሰግናለሁ	-11.8835
▁እፎይታ	-11.8835
▁የተውጣጡ	-11.8835
▁ፍላጎታችን	-11.8835
▁ቀርቷል	-11.8835
▁Word	-11.8835
▁adjustments	-11.8835
▁tiny	-11.8835
▁በንጉስ	-11.8835
▁መቆየት	-11.8835
▁ተገናኘ	-11.8835
ተጠናቀቀ	-11.8835
▁ስርኣቱ	-11.8835
▁entice	-11.8836
▁በተሳካ	-11.8836
▁maria	-11.8836
▁neutrality	-11.8837
▁ዛፉ	-11.8837
▁የምርት	-11.8837
ገኛችሁ	-11.8838
▁በኒው	-11.8839
▁የተዉት	-11.8839
▁ሱዳን	-11.8841
▁አማኞች	-11.8842
▁ተከተለ	-11.8842
አፍንጫ	-11.8844
▁hole	-11.8846
▁በምግብ	-11.8849
fire	-11.8852
under	-11.8858
▁አብራችሁ	-11.886
ወይም	-11.8864
▁የሚወጣ	-11.8892
▁discourage	-11.8909
▁የሚያስፈልገው	-11.8914
plan	-11.8923
▁ይላቸዋል	-11.8925
▁neutral	-11.8926
▁philip	-11.8927
▁1988	-11.8928
▁British	-11.8928
▁Foreign	-11.8928
▁galatians	-11.8928
▁improper	-11.8928
▁majestic	-11.8928
▁rapid	-11.8928
▁samaritan	-11.8928
▁መጠየቃችን	-11.8928
▁ማተኮር	-11.8928
▁አዘውትሮ	-11.8928
▁ኢንሳይክሎፒዲያ	-11.8928
▁እንደማይችሉ	-11.8928
▁ከፊያሜታ	-11.8928
▁የመተማመን	-11.8928
▁የምስጋና	-11.8928
▁የሰፈነበት	-11.8928
▁ይመለከታሉ	-11.8928
▁ይስሀቅ	-11.8928
▁poet	-11.8928
▁straw	-11.8928
▁ዶክተር	-11.8928
▁ማሻሻል	-11.8928
▁በአራተኛው	-11.8928
▁ከፈለገ	-11.8928
▁ለማሳደግ	-11.8928
▁በለአም	-11.8928
▁በወረዳ	-11.8928
▁የሚጠይቁ	-11.8928
▁አቅርብ	-11.8928
▁የተመረጠ	-11.8928
▁መሬቷ	-11.8928
▁ለብሰው	-11.8928
▁ምርቶች	-11.8929
▁colonel	-11.893
▁originate	-11.893
▁የሚያሳዝን	-11.893
▁አይሁን	-11.893
▁ያልፋል	-11.8931
▁የህጉ	-11.8932
▁ስለሰጠ	-11.8932
▁2015	-11.8933
phil	-11.8934
▁ከህግ	-11.8935
▁(25	-11.8935
መሰከረ	-11.8946
▁እንደተናገረ	-11.8976
▁የፈጸመ	-11.8986
▁devote	-11.9002
ጭንቀት	-11.9003
▁ማስተካከያዎች	-11.9004
▁exact	-11.9016
▁shameful	-11.9019
፫	-11.9021
▁Administration	-11.9021
▁enslave	-11.9021
▁fashion	-11.9021
▁መሳለቂያ	-11.9021
▁አለፍጽምና	-11.9021
▁አመልክተዋል	-11.9021
▁አኗኗር	-11.9021
▁እሰጣቸዋለሁ	-11.9021
▁የተባረከ	-11.9021
▁Directorate	-11.9021
▁shun	-11.9021
▁solemn	-11.9021
▁ታይቷል	-11.9021
▁ችግረኛ	-11.9021
▁ከመጀመሩ	-11.9021
▁የማስተማር	-11.9021
▁እንድትሆኑ	-11.9021
▁ጽላቶች	-11.9021
▁የበለስ	-11.9021
▁ተማርኩ	-11.9021
▁በማውጣት	-11.9021
▁ጠይቆ	-11.9021
▁ቀበሩት	-11.9022
▁ሚዛን	-11.9023
▁ለቤተሰብ	-11.9024
▁2,000	-11.9024
▁ከሃዲ	-11.9025
▁lake	-11.9027
▁የተማሩ	-11.9028
▁ማሳወቅ	-11.9028
▁አይነቶች	-11.9036
most	-11.9036
▁(26	-11.9036
▁ተመልሳ	-11.9057
▁sigh	-11.9091
▁arrange	-11.9094
lik	-11.9099
▁pasture	-11.9107
▁አይልም	-11.9112
elect	-11.9115
፰	-11.9115
▁smash	-11.9115
▁Attorney	-11.9116
▁International	-11.9116
▁anxieties	-11.9116
▁cooperative	-11.9116
▁destructive	-11.9116
▁economy	-11.9116
▁frank	-11.9116
▁graduate	-11.9116
▁jehoiada	-11.9116
▁legislation	-11.9116
▁morrow	-11.9116
▁russell	-11.9116
▁worried	-11.9116
▁ሩህሩህ	-11.9116
▁በቆሮንቶስ	-11.9116
▁አማራጮች	-11.9116
▁አትጨነቁ	-11.9116
▁አንቀላፋ	-11.9116
▁እንዲፈጽም	-11.9116
▁የመጽሀፍ	-11.9116
▁የምትፈልጉ	-11.9116
▁የምናቀርበው	-11.9116
▁የተከሰተው	-11.9116
▁የጋዜጣ	-11.9116
▁gaza	-11.9116
▁hearken	-11.9116
▁heritage	-11.9116
▁ተገኝተው	-11.9116
▁የታመሙ	-11.9116
▁ዲግሪ	-11.9116
▁ማታለያ	-11.9116
▁ሸሽቶ	-11.9116
▁ማህጸን	-11.9116
▁በክፋት	-11.9116
▁እንዲቀርብ	-11.9116
▁keen	-11.9116
▁ስለሚችል	-11.9116
▁የመስራት	-11.9116
▁Zemen	-11.9116
▁ጠባብ	-11.9117
▁ለማቆም	-11.9117
▁አድራጊነት	-11.912
▁Adam	-11.9121
▁cutting	-11.9125
▁የገቡት	-11.9131
said	-11.9138
▁basin	-11.9138
ጋበዘ	-11.9141
▁በሞተ	-11.9143
ጠላቶችህ	-11.9158
አእምሮ	-11.9159
ለን፡፡	-11.918
ሃለን	-11.9187
▁አቅራቢ	-11.9197
▁እንደገባ	-11.9201
▁Praise	-11.9211
▁bureau	-11.9211
▁collateral	-11.9211
▁decisive	-11.9211
▁emergency	-11.9211
▁idolatry	-11.9211
▁indignant	-11.9211
▁policies	-11.9211
▁pretext	-11.9211
▁መሰኪያዎች	-11.9211
▁ቂሮስ	-11.9211
▁በማስተማር	-11.9211
▁ተለይተው	-11.9211
▁አፋጣኝ	-11.9211
▁እንዳልነበረ	-11.9211
▁የሚያገለግለው	-11.9211
▁ድምጻቸውን	-11.9211
▁attractive	-11.9211
▁intervene	-11.9211
▁regain	-11.9211
▁ለመጽናት	-11.9211
▁ከመቼውም	-11.9211
▁ያለስጋት	-11.9211
▁መንፈሴ	-11.9211
▁የተተረጎመው	-11.9211
▁forehead	-11.9211
▁እንድትችሉ	-11.9211
▁ጠይቁ	-11.9211
▁ሰጥተው	-11.9211
▁ያበረታታናል	-11.9211
▁ለወንድሞቹ	-11.9211
▁ሊቃነ	-11.9211
▁ይባርክ	-11.9211
ሀፍረት	-11.9211
▁የለበሰ	-11.9211
▁ባህርያቱ	-11.9212
▁ድካም	-11.9212
▁እንዲማሩ	-11.9212
▁አስመስ	-11.9213
▁ከገጽ	-11.9213
▁amendment	-11.9213
▁ሃላፊነቱን	-11.9213
ዘገይ	-11.9216
▁ነበረብኝ	-11.9217
▁መታየት	-11.9217
▁ይኖረዋል፡፡	-11.9218
▁ephah	-11.922
▁ተከታይ	-11.9221
ግርማ	-11.9259
▁capture	-11.9288
▁Exchange	-11.9307
▁apologize	-11.9307
▁atmosphere	-11.9307
▁brochure	-11.9307
▁bullock	-11.9307
▁creep	-11.9307
▁humanitarian	-11.9307
▁nineveh	-11.9307
▁sidon	-11.9307
▁twisted	-11.9307
▁zadok	-11.9307
▁መረጋጋት	-11.9307
▁በኤፍሬም	-11.9307
▁በጭራሽ	-11.9307
▁አሳድሯል	-11.9307
▁ከተወሰኑ	-11.9307
▁ኮሚሽኑ	-11.9307
▁የገለልተኝነት	-11.9307
▁ረድቶታል	-11.9307
▁ስድስተኛ	-11.9307
▁ይነግረናል	-11.9307
▁korah	-11.9307
▁የምታደርግ	-11.9307
▁comply	-11.9307
▁liar	-11.9307
▁ቁልፉ	-11.9307
▁በበሽታ	-11.9307
▁ተነስተህ	-11.9307
▁ያዘዘውን	-11.9307
▁jesse	-11.9307
▁ጥምረት	-11.9307
▁መቆጠብ	-11.9307
▁አበቦች	-11.9307
▁አሰብኩ	-11.9307
▁የተጠመቀ	-11.9307
▁መፍቻ	-11.9307
▁ዘረጋ	-11.9307
▁lust	-11.9308
▁ሃምሌ	-11.9308
▁ያስችላቸዋል	-11.9308
▁ሁከት	-11.9308
▁ተባባሉ	-11.9308
▁ለብሶ	-11.9308
▁እንችል	-11.9308
▁specifically	-11.9308
▁wholesome	-11.9311
▁ድርድር	-11.9312
▁ይለናል	-11.9347
ትቀበሉ	-11.9347
ደረቀ	-11.9369
ኻ	-11.9404
ግሪካውያን	-11.9404
▁adequate	-11.9404
▁aloud	-11.9404
▁celebration	-11.9404
▁contradict	-11.9404
▁operating	-11.9404
▁summit	-11.9404
▁thief	-11.9404
▁thieves	-11.9404
▁transaction	-11.9404
▁ለመመልከት	-11.9404
▁በሳምንት	-11.9404
▁በተባበሩት	-11.9404
▁በአስቸጋሪ	-11.9404
▁በጥልቀት	-11.9404
▁እንዲያገለግል	-11.9404
▁እያገለገሉ	-11.9404
▁ከልጆቻቸው	-11.9404
▁ከበርካታ	-11.9404
▁ክልላዊ	-11.9404
▁ክፍፍል	-11.9404
▁ዘሁልቁ	-11.9404
▁ያላንዳች	-11.9404
▁ጓደኞቹ	-11.9404
▁faint	-11.9404
▁whosoever	-11.9404
▁የማእድን	-11.9404
ሃገሪቱ	-11.9404
▁ለመምሰል	-11.9404
▁respective	-11.9404
▁ክንፎች	-11.9404
▁ብርሃኑ	-11.9404
▁ነፋሱ	-11.9404
ጠነቀቅ	-11.9404
▁alien	-11.9404
▁chest	-11.9404
▁ያቀርብ	-11.9405
ተሻሻለ	-11.9405
▁ህዳር	-11.9405
▁የመኪና	-11.9405
▁የምወደው	-11.9405
▁እንዲታይ	-11.9406
ኢየሱስ	-11.9409
▁clashes	-11.941
▁tries	-11.941
▁በስጋዊ	-11.9413
መቅረቡ	-11.9414
እንግዳ	-11.9428
▁ጭራ	-11.9428
▁plea	-11.9485
▁America	-11.9494
ሃጢአታቸው	-11.9499
▁Europe	-11.9502
▁PART	-11.9502
▁caleb	-11.9502
▁cautious	-11.9502
▁empowered	-11.9502
▁encyclopedia	-11.9502
▁malaria	-11.9502
▁michelle	-11.9502
▁ornament	-11.9502
▁profound	-11.9502
▁slip	-11.9502
▁typical	-11.9502
▁በከነአን	-11.9502
▁ባግዳድ	-11.9502
▁ተመልክተናል	-11.9502
▁አስቀድመው	-11.9502
▁አስተያየቶች	-11.9502
▁የሚያከናውነው	-11.9502
▁ጭቅጭቅ	-11.9502
▁athlete	-11.9502
▁በሚበልጡ	-11.9502
▁ወዳጆቹ	-11.9502
▁ያስተማረ	-11.9502
▁ያደረግከው	-11.9502
▁Blessed	-11.9502
▁ለአለም	-11.9502
▁expend	-11.9502
▁ከቤተሰቡ	-11.9502
▁የመረጠው	-11.9502
▁የጋብቻ	-11.9502
▁በምርኮ	-11.9502
▁አህዮች	-11.9502
▁የመሳሪያ	-11.9502
▁ንገረው	-11.9502
▁ምሰሶ	-11.9502
▁የሶስት	-11.9502
▁nail	-11.9502
▁ፈጸመ	-11.9502
▁innermost	-11.9502
የዋሆች	-11.9502
▁አይሁድ	-11.9503
▁assets	-11.9503
▁elsewhere	-11.9503
▁ተደፋ	-11.9503
▁ይወደስ	-11.9503
▁መስፍን	-11.9504
▁nakedness	-11.9505
▁prosperity	-11.9505
ተገረዘ	-11.9505
▁meantime	-11.9505
▁ይመስልሃል፧	-11.9507
▁ከልባቸው	-11.9507
▁የሚያወጣ	-11.9509
▁ከውሃ	-11.9509
▁fold	-11.9512
▁የነካ	-11.9512
▁pile	-11.9513
▁ሰገዱ	-11.9514
ደረስን	-11.9515
ወዳጅ	-11.9516
▁የታሰሩ	-11.9516
▁eric	-11.9516
400	-11.9518
▁ጥናቱ	-11.952
ሴቲቱ	-11.9522
ስቃይ	-11.9528
▁በሁሉ	-11.9529
▁አልነበረ	-11.9544
ካህናት	-11.9587
▁ተቀባይ	-11.9596
ኮሙኒኬሽን	-11.9601
▁arrival	-11.9601
▁associating	-11.9601
▁defraud	-11.9601
▁description	-11.9601
▁disrupt	-11.9601
▁french	-11.9601
▁malachi	-11.9601
▁rebuilt	-11.9601
▁scenario	-11.9601
▁ስግብግብነት	-11.9601
▁ቆርጠው	-11.9601
▁በገሊላ	-11.9601
▁ቤርሳቤህ	-11.9601
▁እዘምራለሁ	-11.9601
▁የሚያስፈልግ	-11.9601
▁ያስደስተኛል	-11.9601
▁ይታወሳል	-11.9601
▁ጣሊያን	-11.9601
▁ጥቂቶች	-11.9601
▁ፌዴራላዊ	-11.9601
▁ninth	-11.9601
▁የሚጣልበት	-11.9601
▁ኖሯል	-11.9601
▁burst	-11.9601
▁እንዲያከብሩ	-11.9601
▁የምስራቅ	-11.9601
▁እንድታገኝ	-11.9601
▁ይቀራል	-11.9601
ቆጥረው	-11.9601
▁እንደሚኖሩ	-11.9601
▁ወንዙ	-11.9602
▁የሺህ	-11.9602
▁route	-11.9602
ትምባሆ	-11.9603
▁Whoever	-11.9603
▁unfaithfulness	-11.9604
▁ጦሩ	-11.9606
▁visitors	-11.9607
point	-11.9619
▁አድራጊዎች	-11.962
ግለሰቡ	-11.9622
አብዛኞቹ	-11.9622
የቤተ	-11.9629
አለቃ	-11.9636
name	-11.9675
▁የሚያስፈልጋቸው	-11.9682
▁convince	-11.9682
▁እንደሰጠ	-11.9682
▁sudden	-11.969
▁requirement	-11.9696
▁republic	-11.9701
ያረጋግጡ	-11.9701
ያስፈልጋችሁ	-11.9701
▁Secretary	-11.9701
▁destination	-11.9701
▁imagination	-11.9701
▁primarily	-11.9701
▁prostrate	-11.9701
▁sophia	-11.9701
▁መሸሸጊያ	-11.9701
▁ማስታወሳችን	-11.9701
▁ራእዩ	-11.9701
▁በመተማመን	-11.9701
▁በደብዳቤ	-11.9701
▁ተካፋይ	-11.9701
▁ታደርጋላችሁ	-11.9701
▁እሰጣችሗለሁ	-11.9701
▁ፈጽሟል	-11.9701
▁marital	-11.9701
▁ሳምሶን	-11.9701
▁አግኝቼ	-11.9701
▁ኣይኖች	-11.9701
▁ጸጉሩ	-11.9701
▁መጫወት	-11.9701
▁ራሶች	-11.9701
▁የተከበረ	-11.9701
▁እዚሁ	-11.9701
▁አምጥቶ	-11.9701
▁ፍቅሬ	-11.9701
▁ታሪኩ	-11.9701
▁ከክፋት	-11.9701
ጮኽ	-11.9701
▁የመሬት	-11.9702
▁opposers	-11.9703
▁እኩለ	-11.9703
▁ወልደ	-11.9703
▁በደረጃ	-11.9704
▁የአዳም	-11.9705
▁በአራቱ	-11.9705
RE	-11.9705
ጸሀይ	-11.9723
እባክህ	-11.9723
▁ለባልንጀራ	-11.9726
አንበሳ	-11.9727
ሰናበተ	-11.974
▁ታውቋል	-11.9756
▁ወደሆነ	-11.9762
▁የሶርያ	-11.978
▁jealous	-11.9796
ጻድቁ	-11.98
▁surge	-11.9801
▁Arafat	-11.9802
▁banquet	-11.9802
▁bereaved	-11.9802
▁bottle	-11.9802
▁indication	-11.9802
▁journal	-11.9802
▁snake	-11.9802
▁thrust	-11.9802
▁ማዳመጥ	-11.9802
▁ኢዮአስ	-11.9802
▁እንገነዘባለን	-11.9802
▁የዩናይትድ	-11.9802
▁ያከናውናል	-11.9802
▁concept	-11.9802
▁overflow	-11.9802
▁progressive	-11.9802
▁ስለፈለገ	-11.9802
▁በመንፈሱ	-11.9802
▁አስተዳደራዊ	-11.9802
▁አውስትራሊያ	-11.9802
▁አገልግሉ	-11.9802
▁እስቴት	-11.9802
▁afternoon	-11.9802
▁excel	-11.9802
▁senior	-11.9802
▁testament	-11.9802
▁በስምንተኛው	-11.9802
▁ንብረታቸው	-11.9802
▁ከህዝብ	-11.9802
▁ተገልጦ	-11.9802
▁የድንበር	-11.9802
▁አታውቅም	-11.9802
▁polish	-11.9802
▁ከፊታቸው	-11.9802
▁ተሳታፊ	-11.9802
▁መጥቀስ	-11.9802
▁እልባት	-11.9803
▁በማእድ	-11.9803
▁በቃላት	-11.9803
▁ይወድቃል	-11.9803
▁በአደጋ	-11.9803
▁kenya	-11.9804
Each	-11.9805
▁ሲገኝ	-11.9805
▁በአመት	-11.9806
▁በሩቅ	-11.9808
▁በእጄ	-11.981
አጋንንት	-11.9825
romans	-11.9825
▁በየትኛው	-11.983
▁አመጣለሁ	-11.9843
AL	-11.9845
አእምሯችሁ	-11.9904
▁gebre	-11.9904
▁gibeon	-11.9904
▁meditation	-11.9904
▁memories	-11.9904
▁orthodox	-11.9904
▁overthrow	-11.9904
▁participation	-11.9904
▁purify	-11.9904
▁qualify	-11.9904
▁sisera	-11.9904
▁ሃኪሞች	-11.9904
▁ሄዷል	-11.9904
▁ምእመናን	-11.9904
▁በሃላፊነት	-11.9904
▁በሰሜናዊ	-11.9904
▁በኢያሪኮ	-11.9904
▁ተያይዘው	-11.9904
▁ተጨባጭ	-11.9904
▁ንብረቶች	-11.9904
▁አገልግሏል	-11.9904
▁እንዲያተኩር	-11.9904
▁ከበፊቱ	-11.9904
▁ከአካባቢው	-11.9904
▁የቴክኖሎጂ	-11.9904
▁ያጋጠመው	-11.9904
▁ዳይሬክቶሬት	-11.9904
▁ድምጼን	-11.9904
ረጋገጡ	-11.9904
▁ጣኦቶች	-11.9904
▁በማድረጋቸው	-11.9904
▁ማግኘቱ	-11.9904
▁ቱርክ	-11.9904
▁የሆንከው	-11.9904
▁መሞከር	-11.9904
▁ሁሴን	-11.9904
▁በተገኘ	-11.9904
ያቋርጥ	-11.9904
▁መሸፈኛ	-11.9904
▁shift	-11.9904
▁ግለጽ	-11.9904
▁መቀጮ	-11.9904
▁የጥንት	-11.9904
▁የሚወስደውን	-11.9905
▁ሽፋን	-11.9905
▁stirred	-11.9905
▁አደረጋቸው	-11.9905
ስተናገድ	-11.9905
▁ለይቶ	-11.9905
▁ውድቀት	-11.9906
▁ከሚስቱ	-11.9906
መንገዴ	-11.9907
▁committing	-11.9908
▁ኤርትራውያን	-11.9909
ሃጢአት	-11.992
መጀመሪያ	-11.992
claim	-11.9928
ስርኣት	-11.9928
ዳዊት	-11.9933
ዘነበ	-11.9965
▁ከነበሩ	-11.9972
▁የፈለገ	-11.9996
Tell	-12.0006
ተሽከርካሪ	-12.0007
Please	-12.0007
▁Sabbath	-12.0007
▁adversary	-12.0007
▁blaspheme	-12.0007
▁disciplinary	-12.0007
▁infected	-12.0007
▁mirror	-12.0007
▁reconcile	-12.0007
▁swept	-12.0007
▁temperature	-12.0007
▁ሊያደርገን	-12.0007
▁ሰሜናዊ	-12.0007
▁በሚንጸባረቅበት	-12.0007
▁በትንቢት	-12.0007
▁ባልንጀሮቻቸው	-12.0007
▁እንደሚያስፈልግ	-12.0007
▁ከልባችን	-12.0007
▁ከሚቀርበው	-12.0007
▁ከኤርትራ	-12.0007
▁ወላጆቻችን	-12.0007
▁የሚታወቀው	-12.0007
▁የተካሄደው	-12.0007
▁የኮምፒውተር	-12.0007
▁ፕሬዝዳንት	-12.0007
▁spies	-12.0007
▁ቆንጆ	-12.0007
▁ታደገኝ	-12.0007
▁እኖራለሁ	-12.0007
▁የሚቃወሙ	-12.0007
▁ቆራጥ	-12.0007
▁አዛርያስ	-12.0007
▁የተጠቀሰችው	-12.0007
▁የጠቀሰው	-12.0007
▁ከደቡብ	-12.0007
▁breach	-12.0007
▁ለራሳችን	-12.0007
▁ተክሎች	-12.0007
▁ትራንስ	-12.0007
▁ቻልኩ	-12.0007
▁stating	-12.0007
▁ኢላማ	-12.0007
▁shimei	-12.0007
▁pair	-12.0007
ATION	-12.0008
▁አፈሰሰ	-12.0008
▁ለቁጣ	-12.0008
▁በመሃላ	-12.0008
▁ቅጣቱ	-12.0008
▁Levi	-12.0009
▁disown	-12.001
▁Moab	-12.001
Woe	-12.0011
▁ከብረት	-12.0012
▁haman	-12.0022
አምላካቸው	-12.0032
ያስተምረው	-12.005
ጦርነት	-12.0052
▁በተዘጋጀ	-12.0063
OR	-12.0088
ነቢዩ	-12.0104
▁Pilate	-12.0111
▁crisis	-12.0111
▁cultivating	-12.0111
▁hesitate	-12.0111
▁independence	-12.0111
▁jezreel	-12.0111
▁launch	-12.0111
▁surprising	-12.0111
▁unselfish	-12.0111
▁unusual	-12.0111
▁ሃይማኖተኛ	-12.0111
▁ለሚፈልጉ	-12.0111
▁ማበርከት	-12.0111
▁ከሚያደርጉ	-12.0111
▁ኮሎኔል	-12.0111
▁absent	-12.0111
▁የመቃብር	-12.0111
▁grade	-12.0111
▁blew	-12.0111
▁shining	-12.0111
▁እንዲቀጥሉ	-12.0111
መቻቻል	-12.0111
▁በፊታችሁ	-12.0111
▁brian	-12.0112
▁በቁጥር	-12.0112
▁በአመጽ	-12.0112
▁ያሳድራል	-12.0112
▁አይመስልም	-12.0112
▁ሲኖር	-12.0112
▁adhere	-12.0112
ጸድቅ	-12.0114
▁ለህግ	-12.0118
▁መረብ	-12.0122
▁የሰንበት	-12.0124
▁መኝታ	-12.0128
▁የገደለ	-12.013
those	-12.0138
consider	-12.0138
▁በሁለተኛ	-12.0154
▁ጨዋ	-12.02
ተረጎም	-12.0217
▁Tuesday	-12.0217
▁aboard	-12.0217
▁admonish	-12.0217
▁admonition	-12.0217
▁apostate	-12.0217
▁definitely	-12.0217
▁embryo	-12.0217
▁engaging	-12.0217
▁external	-12.0217
▁honour	-12.0217
▁humiliation	-12.0217
▁opponent	-12.0217
▁plenty	-12.0217
▁width	-12.0217
▁መንከባከብ	-12.0217
▁ቅቡአኑ	-12.0217
▁ቆሻሻ	-12.0217
▁በማዘጋጀት	-12.0217
▁በፌዴራል	-12.0217
▁አንፈልግም	-12.0217
▁ካቶሊክ	-12.0217
▁የሚመለከተው	-12.0217
▁ደሀንነት	-12.0217
▁ጥቂቶቹ	-12.0217
አብዛኛዎቹ	-12.0217
▁Syria	-12.0217
▁enrich	-12.0217
▁malicious	-12.0217
▁ቢያደርጉ	-12.0217
▁babies	-12.0217
▁depressed	-12.0217
▁መከለያ	-12.0217
▁ማህበራት	-12.0217
▁ህመሙ	-12.0217
▁የጸጥታ	-12.0217
▁film	-12.0217
▁website	-12.0217
መቻላችን	-12.0217
▁ተቀብለው	-12.0217
▁ዘርግቶ	-12.0217
▁ሳንቲም	-12.0217
▁bail	-12.0217
▁ቀዳዳ	-12.0217
▁የሚታወቅ	-12.0217
▁መክደኛ	-12.0217
▁ማፍራት	-12.0217
▁የተሾሙ	-12.0217
▁መጥተዋል	-12.0218
▁ምክሩ	-12.0218
▁likened	-12.0218
▁አለቻት	-12.0218
▁ሞአብ	-12.0223
▁ሊገባ	-12.0224
▁እይታ	-12.0242
አገልጋዮች	-12.0244
disfellowshipped	-12.0248
▁እጃቸው	-12.0269
ጥሯል	-12.0295
ጣበቅ	-12.0304
▁enforce	-12.0321
▁candidate	-12.0323
▁deploy	-12.0323
▁rival	-12.0323
ተፈረደበት	-12.0323
ያመሰግኑ	-12.0323
▁Clinton	-12.0323
▁Moscow	-12.0323
▁absorb	-12.0323
▁baghdad	-12.0323
▁drought	-12.0323
▁ephesus	-12.0323
▁immigrant	-12.0323
▁located	-12.0323
▁neighbour	-12.0323
▁scream	-12.0323
▁suspension	-12.0323
▁tragedy	-12.0323
▁ለመወያየት	-12.0323
▁ለአባቶቻቸው	-12.0323
▁ለድሆች	-12.0323
▁ሪቻርድ	-12.0323
▁ሲጀምር	-12.0323
▁በሰብአዊ	-12.0323
▁አይደለህም	-12.0323
▁የምናውቀው	-12.0323
▁የቢንያም	-12.0323
▁ያስፈልግ	-12.0323
▁ይከተሉ	-12.0323
▁ደጋግሜ	-12.0323
▁በጥቅሉ	-12.0323
▁boldly	-12.0323
▁loaf	-12.0323
▁panic	-12.0323
▁ማነጋገር	-12.0323
▁በገበያ	-12.0323
▁አድካሚ	-12.0323
▁stringed	-12.0323
▁ሰብስቦ	-12.0323
▁በጎደለው	-12.0323
▁ተመለከትኩ	-12.0323
▁እህቶቻችን	-12.0323
▁ኦርዮ	-12.0323
▁judging	-12.0323
▁በሚቀርብ	-12.0323
▁ቀሚስ	-12.0323
▁እንድታውቁ	-12.0323
▁begun	-12.0323
▁በሌለው	-12.0323
▁ከመሬት	-12.0324
▁uzziah	-12.0325
▁የኑሮ	-12.0325
▁ሰርተዋል	-12.0325
▁ጫካ	-12.0325
▁አሜሪካውያን	-12.0329
ሉኣላዊው	-12.0351
because	-12.0351
From	-12.0352
▁June	-12.0431
▁Scripture	-12.0431
▁World	-12.0431
▁assemblies	-12.0431
▁chores	-12.0431
▁cultural	-12.0431
▁emerge	-12.0431
▁futile	-12.0431
▁intelligent	-12.0431
▁issachar	-12.0431
▁judiciary	-12.0431
▁knorr	-12.0431
▁mechanism	-12.0431
▁monitor	-12.0431
▁neighborhood	-12.0431
▁nonetheless	-12.0431
▁portray	-12.0431
▁reproof	-12.0431
▁sibling	-12.0431
▁stadium	-12.0431
▁vicious	-12.0431
▁woven	-12.0431
▁ማድረጌ	-12.0431
▁በመግዛት	-12.0431
▁አግኝተናል	-12.0431
▁እንድንገነዘብ	-12.0431
▁እየተስፋፋ	-12.0431
▁የመማጸኛ	-12.0431
▁የዘንባባ	-12.0431
▁allowance	-12.0431
▁famous	-12.0431
▁አይደለችም	-12.0431
▁ከወንዙ	-12.0431
▁ካንሰር	-12.0431
▁የስብሰባ	-12.0431
▁የታሰበ	-12.0431
▁Bank	-12.0431
▁እንደምችል	-12.0431
▁መልካሙን	-12.0431
▁አጋንንቱ	-12.0431
▁መኣዛ	-12.0431
▁ፍሬያማ	-12.0431
▁cited	-12.0431
▁ዘልቆ	-12.0431
▁ከራሳቸው	-12.0431
▁የአልኮል	-12.0431
▁ለራሴ	-12.0431
▁surgery	-12.0431
▁በሄደ	-12.0432
▁ጻድቁን	-12.0433
▁ባህረ	-12.0433
▁እልፍ	-12.0434
▁punishable	-12.0434
▁token	-12.0434
ounce	-12.0435
▁የጎደለ	-12.045
▁የሚማሩ	-12.0453
water	-12.0462
▁summon	-12.0517
▁distribute	-12.052
▁impart	-12.0539
▁ዴሞክራሲ	-12.0539
▁እንዲጠቀሙ	-12.0539
▁Which	-12.0539
▁conquest	-12.0539
▁immense	-12.0539
▁jack	-12.0539
▁supreme	-12.0539
▁unaware	-12.0539
▁ለማሰልጠን	-12.0539
▁መጓደል	-12.0539
▁ሰአታት	-12.0539
▁ቁጥቋጦ	-12.0539
▁በቁሳዊ	-12.0539
▁በዙሪያዋ	-12.0539
▁እሰጠዋለሁ	-12.0539
▁ወደምትገኘው	-12.0539
▁የተፈጠሩት	-12.0539
▁የቴክኒክ	-12.0539
▁የደሃንነት	-12.0539
▁የግርጌ	-12.0539
▁ዴቪድ	-12.0539
▁ፌደራላዊ	-12.0539
▁ፍልስጥኤማውያን	-12.0539
▁stephen	-12.0539
▁wake	-12.0539
▁ይወርዳል	-12.0539
▁ማምለጥ	-12.0539
▁አብሯቸው	-12.0539
▁ጸልይ	-12.0539
▁ይቀመጣል	-12.0539
▁foremost	-12.0539
▁ስላገኘ	-12.0539
▁የሮቤል	-12.0539
▁ሊያስገኝ	-12.0539
▁ውሰዱ	-12.0539
▁ጥልቁ	-12.054
▁የእስር	-12.0541
▁እንዳይገባ	-12.0542
▁occasionally	-12.0543
▁merit	-12.0543
▁favorably	-12.0543
▁በአስር	-12.0544
▁ይገዛል	-12.0548
መቅረብ	-12.0554
▁poli	-12.0555
children	-12.057
እንዲሁም	-12.057
▁deceit	-12.0577
▁recruit	-12.0649
፬	-12.0649
▁Hebrew	-12.0649
▁attentive	-12.0649
▁attribute	-12.0649
▁collapse	-12.0649
▁cycle	-12.0649
▁exploit	-12.0649
▁futility	-12.0649
▁interrupt	-12.0649
▁pomegranate	-12.0649
▁refusing	-12.0649
▁tremendous	-12.0649
▁undertaking	-12.0649
▁ሲኾኑ	-12.0649
▁በአምስተኛው	-12.0649
▁በአንጻራዊ	-12.0649
▁ተሞልቶ	-12.0649
▁ተደፍቶ	-12.0649
▁ነግሯቸዋል	-12.0649
▁አድርጓቸዋል	-12.0649
▁እንደሚናገረው	-12.0649
▁እንዲከተሉ	-12.0649
▁ከምስራቅ	-12.0649
▁የሚያደርገን	-12.0649
▁የነርቭ	-12.0649
▁ያስፈልገዋል	-12.0649
▁ይጠቀማል	-12.0649
▁ይጠይቁ	-12.0649
[...]
