{
  "<pad>": 0,
  "<bos>": 1,
  "<eos>": 2,
  "<unk>": 3,
  "▁the": 4,
  ",": 5,
  "▁of": 6,
  "▁and": 7,
  "▁to": 8,
  ".": 9,
  "s": 10,
  "ን": 11,
  "▁\"": 12,
  "▁": 13,
  "▁,": 14,
  "ም": 15,
  "▁in": 16,
  "ና": 17,
  "▁።": 18,
  "▁.": 19,
  "▁a": 20,
  "▁that": 21,
  "።": 22,
  "▁you": 23,
  "▁for": 24,
  "ው": 25,
  "▁is": 26,
  "'": 27,
  "ት": 28,
  "▁(": 29,
  "▁የ": 30,
  "▁he": 31,
  "▁በ": 32,
  "▁ላይ": 33,
  "፣": 34,
  "▁will": 35,
  "ስ": 36,
  "▁his": 37,
  "▁be": 38,
  "▁with": 39,
  "▁not": 40,
  "▁it": 41,
  "▁ከ": 42,
  "ል": 43,
  "▁was": 44,
  "▁they": 45,
  "▁i": 46,
  "ር": 47,
  "፤": 48,
  "ለ": 49,
  "▁as": 50,
  "▁we": 51,
  "ed": 52,
  "▁jehovah": 53,
  "▁on": 54,
  "ረ": 55,
  "፥": 56,
  "▁have": 57,
  "▁፤": 58,
  "▁from": 59,
  "በ": 60,
  "▁'": 61,
  "ing": 62,
  "▁)": 63,
  "▁your": 64,
  "▁፣": 65,
  "▁are": 66,
  "▁ወደ": 67,
  "d": 68,
  "ሰ": 69,
  "ህ": 70,
  "▁ጊዜ": 71,
  "▁god": 72,
  "▁who": 73,
  "▁him": 74,
  "▁them": 75,
  "▁ነው": 76,
  "▁:": 77,
  "▁ለ": 78,
  "▁by": 79,
  "▁all": 80,
  "ቀ": 81,
  "▁their": 82,
  ":": 83,
  "▁this": 84,
  "መ": 85,
  "ከ": 86,
  "\"": 87,
  "ታ": 88,
  "▁what": 89,
  "▁ይ": 90,
  "ራ": 91,
  "በት": 92,
  "▁ጋር": 93,
  "ተ": 94,
  "▁my": 95,
  "▁፥": 96,
  "▁ሁሉ": 97,
  "▁1": 98,
  "ገ": 99,
  "▁ውስጥ": 100,
  "ደ": 101,
  "▁but": 102,
  "ብ": 103,
  "▁one": 104,
  "▁ነገር": 105,
  ";": 106,
  "t": 107,
  "ድ": 108,
  "▁me": 109,
  "▁or": 110,
  "ሳ": 111,
  "i": 112,
  "ወ": 113,
  "ጠ": 114,
  "▁እንደ": 115,
  "?": 116,
  "▁ሰዎች": 117,
  "▁were": 118,
  "▁our": 119,
  "▁ሰው": 120,
  "ፈ": 121,
  "▁do": 122,
  "ላ": 123,
  "▁እንዲህ": 124,
  "ጥ": 125,
  "▁የሚ": 126,
  "ባ": 127,
  "▁when": 128,
  "▁መ": 129,
  "ቅ": 130,
  "▁so": 131,
  "▁people": 132,
  "▁us": 133,
  "▁ያህዌ": 134,
  "ይ": 135,
  "▁at": 136,
  "ክ": 137,
  "ly": 138,
  "▁said": 139,
  "ያ": 140,
  "▁has": 141,
  "▁had": 142,
  "a": 143,
  "ግ": 144,
  "▁ግን": 145,
  "ነ": 146,
  "▁፧": 147,
  "▁አምላክ": 148,
  "▁ስለ": 149,
  "ማ": 150,
  "▁አ": 151,
  "ጋ": 152,
  "▁?": 153,
  "▁አንድ": 154,
  "▁an": 155,
  "▁can": 156,
  "▁out": 157,
  "ዳ": 158,
  "▁ተ": 159,
  "ፍ": 160,
  ")": 161,
  "▁ወይም": 162,
  "e": 163,
  "▁I": 164,
  "c": 165,
  "▁ምን": 166,
  "er": 167,
  "▁ነው።": 168,
  "ች": 169,
  "p": 170,
  "ውን": 171,
  "ኝ": 172,
  "▁ነበር": 173,
  "ዘ": 174,
  "▁how": 175,
  "▁ቅዱስ": 176,
  "▁ይህ": 177,
  "▁would": 178,
  "▁if": 179,
  "▁up": 180,
  "▁may": 181,
  ".\"": 182,
  "▁And": 183,
  "ሉ": 184,
  "▁እንዲሁም": 185,
  "▁there": 186,
  "ጣ": 187,
  "▁ያ": 188,
  "▁እንዲ": 189,
  "n": 190,
  "▁about": 191,
  "▁those": 192,
  "▁እ": 193,
  "o": 194,
  "ዋ": 195,
  "▁jesus": 196,
  "ቸው": 197,
  "▁የተ": 198,
  "▁bible": 199,
  "የ": 200,
  "ቱ": 201,
  "▁ነበር።": 202,
  "▁her": 203,
  "▁no": 204,
  "ኩ": 205,
  "▁2": 206,
  "▁did": 207,
  "ካ": 208,
  "▁ደግሞ": 209,
  "b": 210,
  "▁በዚህ": 211,
  "▁በሗላ": 212,
  "▁man": 213,
  "ሽ": 214,
  "ቆ": 215,
  "▁ይህን": 216,
  "ዝ": 217,
  "▁3": 218,
  "▁ኢየሱስ": 219,
  "▁time": 220,
  "!": 221,
  "▁which": 222,
  "▁then": 223,
  "ዎች": 224,
  "ቃ": 225,
  "▁ቤት": 226,
  "▁also": 227,
  "▁በመ": 228,
  "▁ሲ": 229,
  "▁ት": 230,
  "▁4": 231,
  "ቁ": 232,
  "▁into": 233,
  "▁should": 234,
  "ሩ": 235,
  "▁because": 236,
  "▁ሊ": 237,
  "y": 238,
  "▁5": 239,
  "ፋ": 240,
  "▁ቃል": 241,
  "m": 242,
  "▁been": 243,
  "▁shall": 244,
  "▁life": 245,
  "▁day": 246,
  "▁ቀን": 247,
  "ቡ": 248,
  "▁12": 249,
  "▁እና": 250,
  "▁እንዴት": 251,
  "▁she": 252,
  "▁ስራ": 253,
  "▁እንደሆነ": 254,
  "▁some": 255,
  "▁make": 256,
  "ነት": 257,
  "አ": 258,
  "ኑ": 259,
  "▁ማ": 260,
  "▁መጽሃፍ": 261,
  "▁6": 262,
  "ንም": 263,
  "al": 264,
  "▁king": 265,
  "ሪ": 266,
  "▁መካከል": 267,
  "▁ልጅ": 268,
  "ሮ": 269,
  "▁over": 270,
  "▁መንገድ": 271,
  "▁like": 272,
  "▁made": 273,
  "▁after": 274,
  "▁ልጆች": 275,
  "▁other": 276,
  "▁;": 277,
  "▁things": 278,
  "▁10": 279,
  "▁more": 280,
  "ዱ": 281,
  "▁before": 282,
  "ባቸው": 283,
  "▁these": 284,
  "ዛ": 285,
  "▁ነው፧": 286,
  "ሱ": 287,
  "▁ከዚያም": 288,
  "▁15": 289,
  "▁son": 290,
  "▁many": 291,
  "▁!": 292,
  "▁11": 293,
  "▁ነገሮች": 294,
  "es": 295,
  "▁7": 296,
  "፧": 297,
  "▁its": 298,
  "r": 299,
  "▁good": 300,
  "ሃ": 301,
  "▁8": 302,
  "▁እንደሚ": 303,
  "▁14": 304,
  "▁9": 305,
  "▁አይ": 306,
  "▁13": 307,
  "▁come": 308,
  "▁against": 309,
  "in": 310,
  "▁love": 311,
  "▁now": 312,
  "▁help": 313,
  "ቶ": 314,
  "▁The": 315,
  "g": 316,
  "▁even": 317,
  "u": 318,
  "ጸ": 319,
  "▁land": 320,
  "▁work": 321,
  "▁God": 322,
  "ህን": 323,
  "▁house": 324,
  "▁men": 325,
  "ጽ": 326,
  "ጉ": 327,
  "ሞ": 328,
  "ሙ": 329,
  "ንና": 330,
  "▁በማ": 331,
  "▁way": 332,
  "▁am": 333,
  "፡፡": 334,
  "▁ሆነ": 335,
  "▁ብዙ": 336,
  "▁could": 337,
  "▁see": 338,
  "▁19": 339,
  "▁ያለው": 340,
  "▁እኔ": 341,
  "▁17": 342,
  "▁Jehovah": 343,
  "▁በአ": 344,
  "▁came": 345,
  "▁ያለ": 346,
  "▁down": 347,
  "▁earth": 348,
  "ላቸው": 349,
  "▁unto": 350,
  "▁በሚ": 351,
  "▁any": 352,
  "l": 353,
  "▁ብቻ": 354,
  "▁go": 355,
  "▁know": 356,
  "▁take": 357,
  "at": 358,
  "ም።": 359,
  "▁በሙሉ": 360,
  "▁ሁኔታ": 361,
  "▁give": 362,
  "ሸ": 363,
  "re": 364,
  "▁16": 365,
  "k": 366,
  "ሻ": 367,
  "or": 368,
  "▁father": 369,
  "▁let": 370,
  "▁than": 371,
  "▁በጣም": 372,
  "—": 373,
  "▁ለመ": 374,
  "▁does": 375,
  "ጨ": 376,
  "ኖ": 377,
  "▁such": 378,
  "እ": 379,
  "ic": 380,
  "ትን": 381,
  "▁say": 382,
  "▁ድረስ": 383,
  "ሁ": 384,
  "▁የመ": 385,
  "▁በመሆኑም": 386,
  "▁why": 387,
  "▁years": 388,
  "▁ቢ": 389,
  "▁ምድር": 390,
  "▁ቦታ": 391,
  "▁የሚያ": 392,
  "▁ስ": 393,
  "▁ታ": 394,
  "▁ማድረግ": 395,
  "▁first": 396,
  "▁ከዚህ": 397,
  "ar": 398,
  "▁two": 399,
  "▁እስከ": 400,
  "▁ከመ": 401,
  "▁እነዚህ": 402,
  "▁አል": 403,
  "▁put": 404,
  "▁18": 405,
  "f": 406,
  "▁hand": 407,
  "▁የያህዌ": 408,
  "ሎ": 409,
  "▁must": 410,
  "▁20": 411,
  "ሬ": 412,
  "▁israel": 413,
  "▁children": 414,
  "ጭ": 415,
  "▁ከሆነ": 416,
  "▁ፊት": 417,
  "ri": 418,
  "▁በተ": 419,
  "ለው": 420,
  "▁name": 421,
  "▁just": 422,
  "ፉ": 423,
  "▁እሱ": 424,
  "ኛ": 425,
  "▁ዘንድ": 426,
  "▁የአ": 427,
  "ሊ": 428,
  "▁ሆኖ": 429,
  "▁world": 430,
  "▁says": 431,
  "▁[": 432,
  "on": 433,
  "▁become": 434,
  "▁እየ": 435,
  "▁ሲሆን": 436,
  "▁own": 437,
  "▁place": 438,
  "ra": 439,
  "st": 440,
  "en": 441,
  "▁እንጂ": 442,
  "▁ሌላ": 443,
  "▁ያህል": 444,
  "ለት": 445,
  "▁through": 446,
  "▁great": 447,
  "▁heart": 448,
  "ችን": 449,
  "▁ባ": 450,
  "ጡ": 451,
  "▁እንኳ": 452,
  "▁only": 453,
  "▁የአምላክ": 454,
  "▁እን": 455,
  "▁word": 456,
  "▁ህይወት": 457,
  "▁among": 458,
  "▁አት": 459,
  "ሚ": 460,
  "it": 461,
  "▁where": 462,
  "▁went": 463,
  "▁faith": 464,
  "▁አስ": 465,
  "h": 466,
  "v": 467,
  "▁ሆኖም": 468,
  "▁ምንም": 469,
  "▁ሌሎች": 470,
  "▁away": 471,
  "]": 472,
  "ers": 473,
  "▁b": 474,
  "▁others": 475,
  "▁ወቅት": 476,
  "▁sons": 477,
  "ቻ": 478,
  "▁መንግስት": 479,
  "ል።": 480,
  "ዩ": 481,
  "▁ምሳሌ": 482,
  "▁አይነት": 483,
  "le": 484,
  "▁being": 485,
  "ዊ": 486,
  "▁ከተ": 487,
  "▁በማለት": 488,
  "▁ካ": 489,
  "ah": 490,
  "ተው": 491,
  "▁መሰረት": 492,
  "▁need": 493,
  "ረው": 494,
  "▁ይሁን": 495,
  "▁ንጉስ": 496,
  "▁ዘመን": 497,
  "an": 498,
  "▁well": 499,
  "ጀ": 500,
  "▁city": 501,
  "▁spirit": 502,
  "▁kingdom": 503,
  "▁keep": 504,
  "▁እንዳ": 505,
  "ቦ": 506,
  "▁new": 507,
  "▁የተነሳ": 508,
  "▁በላይ": 509,
  "▁አንዳንድ": 510,
  "▁every": 511,
  "▁ሲል": 512,
  "ation": 513,
  "▁days": 514,
  "▁saying": 515,
  "▁death": 516,
  "ሶ": 517,
  "▁የሆነ": 518,
  "▁አመት": 519,
  "▁ከሚ": 520,
  "ዋል": 521,
  "▁another": 522,
  "▁ይልቅ": 523,
  "ሌ": 524,
  "▁right": 525,
  "▁each": 526,
  "▁ጥሩ": 527,
  "w": 528,
  "ቷ": 529,
  "ኮ": 530,
  "▁በተጨማሪም": 531,
  "▁ፍቅር": 532,
  "ቴ": 533,
  "▁አንተ": 534,
  "▁ብሎ": 535,
  "ch": 536,
  "▁በፊት": 537,
  "▁(1": 538,
  "▁ሰ": 539,
  "ዶ": 540,
  "▁ይሁንና": 541,
  "▁person": 542,
  "▁ለማ": 543,
  "▁under": 544,
  "▁ሃ": 545,
  "▁ስለዚህ": 546,
  "▁ምክንያት": 547,
  "▁c": 548,
  "▁family": 549,
  "▁found": 550,
  "▁ጳውሎስ": 551,
  "▁true": 552,
  "▁upon": 553,
  "ጫ": 554,
  "ደር": 555,
  "▁ከአ": 556,
  "il": 557,
  "▁እንዲያ": 558,
  "▁brothers": 559,
  "▁ስም": 560,
  "ቢ": 561,
  "ነው": 562,
  "is": 563,
  "▁ተስፋ": 564,
  "▁holy": 565,
  "▁He": 566,
  "▁ነው፤": 567,
  "ዮ": 568,
  "▁የሆነው": 569,
  "▁ህዝብ": 570,
  "▁david": 571,
  "▁መሆን": 572,
  "▁ማለት": 573,
  "▁በዚያ": 574,
  "▁ምክንያቱም": 575,
  "▁ደግሞም": 576,
  "▁አለም": 577,
  "▁ያለውን": 578,
  "ቤ": 579,
  "▁paul": 580,
  "▁words": 581,
  "▁ከፍ": 582,
  "ቶች": 583,
  "▁while": 584,
  "▁o": 585,
  "▁law": 586,
  "ve": 587,
  "ፊ": 588,
  "▁እያ": 589,
  "▁gave": 590,
  "▁የማ": 591,
  "▁LORD": 592,
  "▁የመጽሃፍ": 593,
  "▁ያሉ": 594,
  "ችሁ": 595,
  "▁አሁን": 596,
  "▁took": 597,
  "▁given": 598,
  "ቲ": 599,
  "ኔ": 600,
  "▁back": 601,
  "▁21": 602,
  "▁እምነት": 603,
  "▁however": 604,
  "▁24": 605,
  "ion": 606,
  "▁young": 607,
  "▁አለ": 608,
  "▁congregation": 609,
  "▁ይበልጥ": 610,
  "▁ያስ": 611,
  "ላችሁ": 612,
  "▁የምት": 613,
  "▁እሱም": 614,
  "th": 615,
  "ታቸው": 616,
  "ጅ": 617,
  "▁year": 618,
  "▁መሆኑን": 619,
  "▁ሁለት": 620,
  "ቱን": 621,
  "▁might": 622,
  "el": 623,
  "000": 624,
  "▁ጥረት": 625,
  "ኒ": 626,
  "▁bring": 627,
  "▁end": 628,
  "▁ይሆዋ": 629,
  "▁example": 630,
  "ro": 631,
  "z": 632,
  "ur": 633,
  "ዎቹ": 634,
  "ሲ": 635,
  "▁እየተ": 636,
  "▁ይችላል": 637,
  "▁22": 638,
  "▁whom": 639,
  "▁በኩል": 640,
  "▁ለምንድን": 641,
  "ሯ": 642,
  "ment": 643,
  "▁ጌታ": 644,
  "▁ሃሳብ": 645,
  "▁በያህዌ": 646,
  "▁christ": 647,
  "/": 648,
  "▁ከተማ": 649,
  "▁ቢሆን": 650,
  "ቸውን": 651,
  "ገር": 652,
  "▁ጠ": 653,
  "▁But": 654,
  "▁ል": 655,
  "ሰራ": 656,
  "ቀር": 657,
  "▁very": 658,
  "ዙ": 659,
  "▁ክርስቲያኖች": 660,
  "▁became": 661,
  "▁እናንተ": 662,
  "▁long": 663,
  "te": 664,
  "▁set": 665,
  "the": 666,
  "ችው": 667,
  "ታል": 668,
  "▁today": 669,
  "▁use": 670,
  "▁ትምህርት": 671,
  "▁brought": 672,
  "▁read": 673,
  "▁አድርጎ": 674,
  "ሜ": 675,
  "▁ones": 676,
  "▁look": 677,
  "la": 678,
  "▁get": 679,
  "▁order": 680,
  "▁ናቸው": 681,
  "▁un": 682,
  "▁ይህም": 683,
  "▁የማይ": 684,
  "▁ሊያ": 685,
  "▁23": 686,
  "▁himself": 687,
  "▁ያህዌን": 688,
  "▁ሙሉ": 689,
  "▁እጅግ": 690,
  "▁p": 691,
  "▁thou": 692,
  "▁m": 693,
  "▁without": 694,
  "▁ለሚ": 695,
  "as": 696,
  "▁called": 697,
  "▁ከፍተኛ": 698,
  "▁most": 699,
  "መጣ": 700,
  "ዬ": 701,
  "▁according": 702,
  "▁እነሱም": 703,
  "▁A": 704,
  "ራቸው": 705,
  "▁Israel": 706,
  "▁ባለ": 707,
  "▁consider": 708,
  "▁much": 709,
  "▁መንፈስ": 710,
  "▁ህግ": 711,
  "▁g": 712,
  "▁together": 713,
  "ለሁ": 714,
  "▁sent": 715,
  "▁witnesses": 716,
  "▁show": 717,
  "▁ሳ": 718,
  "▁peace": 719,
  "▁find": 720,
  "▁ጉዳይ": 721,
  "▁re": 722,
  "በትን": 723,
  "▁አመታት": 724,
  "▁ነበር፤": 725,
  "▁ም": 726,
  "▁saw": 727,
  "▁truth": 728,
  "ጻ": 729,
  "▁አገልግሎት": 730,
  "▁brother": 731,
  "▁three": 732,
  "▁began": 733,
  "▁means": 734,
  "▁ታማኝ": 735,
  "▁offering": 736,
  "▁ይኸውም": 737,
  "▁same": 738,
  "▁told": 739,
  "ness": 740,
  "▁wife": 741,
  "▁ስለሚ": 742,
  "▁ታዲያ": 743,
  "ሆ": 744,
  "▁yet": 745,
  "▁part": 746,
  "▁ዘ": 747,
  "▁f": 748,
  "▁spiritual": 749,
  "▁ይላል": 750,
  "▁ዳዊት": 751,
  "ዋል።": 752,
  "ሴ": 753,
  "▁ወ": 754,
  "▁አገር": 755,
  "▁እንዳይ": 756,
  "▁ሳይሆን": 757,
  "▁For": 758,
  "▁ለማድረግ": 759,
  "▁ሴት": 760,
  "▁eyes": 761,
  "▁thy": 762,
  "▁ወንዶች": 763,
  "▁ምክር": 764,
  "ሆን": 765,
  "▁never": 766,
  "▁sin": 767,
  "▁የሰው": 768,
  "▁አን": 769,
  "▁times": 770,
  "በር": 771,
  "ቋ": 772,
  "▁መንፈሳዊ": 773,
  "▁ye": 774,
  "ir": 775,
  "▁war": 776,
  "▁still": 777,
  "▁feel": 778,
  "▁ደ": 779,
  "▁ብ": 780,
  "ሟ": 781,
  "▁መባ": 782,
  "▁አሳ": 783,
  "▁ይሆናል": 784,
  "▁until": 785,
  "▁nations": 786,
  "▁የሆኑ": 787,
  "ሪያ": 788,
  "▁again": 789,
  "▁lord": 790,
  "ወደ": 791,
  "ጃ": 792,
  "▁serve": 793,
  "ኘ": 794,
  "ሰማ": 795,
  "▁during": 796,
  "ኤ": 797,
  "▁30": 798,
  "ገኙ": 799,
  "▁25": 800,
  "▁የሆነውን": 801,
  "▁ሲያ": 802,
  "▁heard": 803,
  "▁moses": 804,
  "▁ፈ": 805,
  "am": 806,
  "▁መልካም": 807,
  "▁ላ": 808,
  "▁ልብ": 809,
  "▁በአምላክ": 810,
  "▁ሆይ፣": 811,
  "▁ምስክሮች": 812,
  "▁አንዱ": 813,
  "ባት": 814,
  "us": 815,
  "▁done": 816,
  "▁ማን": 817,
  "▁water": 818,
  "ia": 819,
  "▁both": 820,
  "able": 821,
  "ራት": 822,
  "▁ለማግኘት": 823,
  "ቹ": 824,
  "▁live": 825,
  "▁ሃይል": 826,
  "And": 827,
  "▁want": 828,
  "▁አስፈላጊ": 829,
  "ኣ": 830,
  "▁ሳይ": 831,
  "▁ለምሳሌ": 832,
  "ሮች": 833,
  "▁eat": 834,
  "▁28": 835,
  "ol": 836,
  "ኪ": 837,
  "▁off": 838,
  "▁ሊሆን": 839,
  "▁old": 840,
  "▁ን": 841,
  "ad": 842,
  "se": 843,
  "▁እኔም": 844,
  "▁ገ": 845,
  "▁fire": 846,
  "ያስ": 847,
  "▁christian": 848,
  "▁ውሳኔ": 849,
  "ቼ": 850,
  "▁john": 851,
  "▁service": 852,
  "ሰው": 853,
  "▁power": 854,
  "▁እንደሚያ": 855,
  "ነሳ": 856,
  ",\"": 857,
  "ውም": 858,
  "▁news": 859,
  "ቸ": 860,
  "▁ስር": 861,
  "ዴ": 862,
  "▁በምድር": 863,
  "▁አመለካከት": 864,
  "▁living": 865,
  "▁though": 866,
  "▁በአንድ": 867,
  "▁learn": 868,
  "ul": 869,
  "▁የአምላክን": 870,
  "ent": 871,
  "▁የእስራኤል": 872,
  "ብን": 873,
  "▁ታላቅ": 874,
  "▁አማካኝነት": 875,
  "▁በሌላ": 876,
  "▁ይችላል።": 877,
  "▁servants": 878,
  "▁ከማ": 879,
  "im": 880,
  "▁ደስ": 881,
  "▁እኛ": 882,
  "ሄ": 883,
  "▁ለያህዌ": 884,
  "▁የሚል": 885,
  "▁ከዚያ": 886,
  "ገቡ": 887,
  "▁government": 888,
  "▁woman": 889,
  "est": 890,
  "ላት": 891,
  "7": 892,
  "▁ስሜት": 893,
  "▁«": 894,
  "ሄድ": 895,
  "ም፤": 896,
  "▁left": 897,
  "ዲ": 898,
  "▁ሃጢአት": 899,
  "▁between": 900,
  "▁ጥ": 901,
  "▁since": 902,
  "▁ደረጃ": 903,
  "▁/": 904,
  "▁ትልቅ": 905,
  "▁t": 906,
  "▁ቀ": 907,
  "▁nor": 908,
  "um": 909,
  "▁አያ": 910,
  "▁ቅዱስን": 911,
  "▁speak": 912,
  "ናቸው": 913,
  "▁ስፍራ": 914,
  "ኦ": 915,
  "▁jerusalem": 916,
  "ሉ።": 917,
  "▁አላ": 918,
  "▁head": 919,
  "ሹ": 920,
  "ሏ": 921,
  "▁ክርስቶስ": 922,
  "ity": 923,
  "▁ጥያቄ": 924,
  "▁በርካታ": 925,
  "▁christians": 926,
  "▁ሰዎችን": 927,
  "▁መከራ": 928,
  "▁parents": 929,
  "▁ክፍል": 930,
  "▁ይሆናል።": 931,
  "▁ወንድሞች": 932,
  "▁ያላቸው": 933,
  "▁mother": 934,
  "ጦ": 935,
  "▁st": 936,
  "▁የምን": 937,
  "መረ": 938,
  "ል፤": 939,
  "▁ከባድ": 940,
  "▁አዲስ": 941,
  "▁ውሃ": 942,
  "▁እንድት": 943,
  "▁እነዚህን": 944,
  "▁መልስ": 945,
  "▁home": 946,
  "▁used": 947,
  "▁እነሱ": 948,
  "ሰብ": 949,
  "▁O": 950,
  "▁doing": 951,
  "▁ረገድ": 952,
  "▁later": 953,
  "▁ማንኛውም": 954,
  "▁themselves": 955,
  "ሀ": 956,
  "▁face": 957,
  "▁mind": 958,
  "▁hope": 959,
  "▁think": 960,
  "▁human": 961,
  "▁food": 962,
  "▁አካባቢ": 963,
  "▁Then": 964,
  "▁ቢሆንም": 965,
  "▁priest": 966,
  "»": 967,
  "▁መመሪያ": 968,
  "▁fear": 969,
  "▁እርምጃ": 970,
  "▁body": 971,
  "▁ኤ": 972,
  "▁እንዲሆን": 973,
  "ነጋ": 974,
  "▁too": 975,
  "▁አይደለም": 976,
  "▁መጠን": 977,
  "ወጡ": 978,
  "ቻቸው": 979,
  "ስት": 980,
  "▁ማግኘት": 981,
  "▁ጥቅም": 982,
  "▁wicked": 983,
  "▁ሰላም": 984,
  "▁blood": 985,
  "▁እንድን": 986,
  "▁ቤተ": 987,
  "▁fact": 988,
  "▁አምላክን": 989,
  "▁de": 990,
  "▁Jesus": 991,
  "ትና": 992,
  "▁እጅ": 993,
  "▁እንደማ": 994,
  "▁dead": 995,
  "▁27": 996,
  "be": 997,
  "▁heaven": 998,
  "▁So": 999,
  "▁የነበረው": 1000,
  "▁በተመለከተ": 1001,
  "▁turn": 1002,
  "▁return": 1003,
  "▁አለው።": 1004,
  "▁around": 1005,
  "▁ግ": 1006,
  "▁መብት": 1007,
  "▁እስራኤላውያን": 1008,
  "▁last": 1009,
  "▁ምግብ": 1010,
  "▁toward": 1011,
  "ባል": 1012,
  "ገል": 1013,
  "▁ደስታ": 1014,
  "▁here": 1015,
  "▁country": 1016,
  "▁አንቀጽ": 1017,
  "eth": 1018,
  "▁ክፉ": 1019,
  "▁high": 1020,
  "if": 1021,
  "ጠብ": 1022,
  "▁full": 1023,
  "▁እንዳለ": 1024,
  "▁ከእሱ": 1025,
  "▁ወር": 1026,
  "ቸዋል": 1027,
  "▁night": 1028,
  "▁free": 1029,
  "▁ሴቶች": 1030,
  "▁ministry": 1031,
  "▁ፈቃድ": 1032,
  "▁እንድ": 1033,
  "ተኛ": 1034,
  "ለች": 1035,
  "ናል": 1036,
  "▁እርዳታ": 1037,
  "un": 1038,
  "▁ሆነው": 1039,
  "ma": 1040,
  "less": 1041,
  "ta": 1042,
  "▁child": 1043,
  "ጠራ": 1044,
  "▁እግዚአብሄር": 1045,
  "ልን": 1046,
  "▁righteous": 1047,
  "2": 1048,
  "▁መስዋእት": 1049,
  "▁ናቸው።": 1050,
  "ገነ": 1051,
  "ለህ": 1052,
  "▁እሱን": 1053,
  "ድር": 1054,
  "▁40": 1055,
  "ተር": 1056,
  "▁ጉባኤ": 1057,
  "ነግ": 1058,
  "▁የም": 1059,
  "መው": 1060,
  "▁die": 1061,
  "▁ምንድን": 1062,
  "▁present": 1063,
  "ll": 1064,
  "▁ጥበብ": 1065,
  "ne": 1066,
  "▁We": 1067,
  "▁ነጻ": 1068,
  "▁In": 1069,
  "▁ፈጽሞ": 1070,
  "▁view": 1071,
  "▁ገንዘብ": 1072,
  "▁ክርስቲያን": 1073,
  "ፈራ": 1074,
  "▁hear": 1075,
  "ሾ": 1076,
  "▁ስት": 1077,
  "▁therefore": 1078,
  "▁disciples": 1079,
  "▁አለው": 1080,
  "▁believe": 1081,
  "▁ሁሉም": 1082,
  "▁satan": 1083,
  "▁26": 1084,
  "▁tell": 1085,
  "to": 1086,
  "ልኝ": 1087,
  "ደው": 1088,
  "▁ክ": 1089,
  "▁ask": 1090,
  "▁kept": 1091,
  "▁ልዩ": 1092,
  "▁በእሱ": 1093,
  "▁አባላት": 1094,
  "▁going": 1095,
  "ን፣": 1096,
  "▁ስላ": 1097,
  "▁ደቀ": 1098,
  "▁something": 1099,
  "▁sea": 1100,
  "▁ለምን": 1101,
  "▁thee": 1102,
  "ted": 1103,
  "▁እውነት": 1104,
  "▁መቶ": 1105,
  "▁በእ": 1106,
  "▁far": 1107,
  "▁ways": 1108,
  "▁hands": 1109,
  "▁judah": 1110,
  "▁\"'": 1111,
  "▁Lord": 1112,
  "▁በሚያ": 1113,
  "5": 1114,
  "ies": 1115,
  "▁money": 1116,
  "▁ህዝቦች": 1117,
  "መር": 1118,
  "4": 1119,
  "▁ሆይ": 1120,
  "ጹ": 1121,
  "▁faithful": 1122,
  "▁care": 1123,
  "▁ዛሬ": 1124,
  "▁important": 1125,
  "▁በህይወት": 1126,
  "ኤል": 1127,
  "▁making": 1128,
  "em": 1129,
  "9": 1130,
  "ጌ": 1131,
  "▁bad": 1132,
  "ous": 1133,
  "▁known": 1134,
  "▁የእ": 1135,
  "▁ያም": 1136,
  "▁በተያያዘ": 1137,
  "▁አመ": 1138,
  "▁cities": 1139,
  "ላል": 1140,
  "▁k": 1141,
  "▁ሙሴ": 1142,
  "▁having": 1143,
  "▁መጥፎ": 1144,
  "▁ባለው": 1145,
  "▁stand": 1146,
  "▁ሞ": 1147,
  "▁በግ": 1148,
  "▁nothing": 1149,
  "▁rest": 1150,
  "▁ነ": 1151,
  "▁ለዘላለም": 1152,
  "ንግ": 1153,
  "ጠፋ": 1154,
  "▁ቅ": 1155,
  "▁ቋንቋ": 1156,
  "ወር": 1157,
  "▁number": 1158,
  "ታል።": 1159,
  "▁መዝሙር": 1160,
  "▁able": 1161,
  "ት።": 1162,
  "▁ችግር": 1163,
  "▁israelites": 1164,
  "ህም": 1165,
  "▁ሶስት": 1166,
  "▁ትርጉም": 1167,
  "▁study": 1168,
  "▁ያሉት": 1169,
  "▁በእርግጥ": 1170,
  "▁ብለው": 1171,
  "▁cannot": 1172,
  "▁cause": 1173,
  "▁የያህዌን": 1174,
  "▁ጀምሮ": 1175,
  "▁የስራ": 1176,
  "ታችን": 1177,
  "▁worship": 1178,
  "▁በሆነ": 1179,
  "▁along": 1180,
  "▁ክብር": 1181,
  "▁የሚያስ": 1182,
  "▁taken": 1183,
  "▁prayer": 1184,
  "▁C": 1185,
  "ጊ": 1186,
  "▁የነበረ": 1187,
  "ታው": 1188,
  "▁husband": 1189,
  "ሽን": 1190,
  "▁አካል": 1191,
  "▁ዘር": 1192,
  "6": 1193,
  "▁book": 1194,
  "I": 1195,
  "▁servant": 1196,
  "▁ያል": 1197,
  "▁ነበሩ": 1198,
  "▁reason": 1199,
  "ዎችን": 1200,
  "▁P": 1201,
  "▁seven": 1202,
  "▁asked": 1203,
  "ant": 1204,
  "▁ever": 1205,
  "፦": 1206,
  "▁ፍ": 1207,
  "▁always": 1208,
  "▁e": 1209,
  "ፈው": 1210,
  "▁በዛሬው": 1211,
  "▁They": 1212,
  "ስራ": 1213,
  "▁መስ": 1214,
  "▁side": 1215,
  "ደረግ": 1216,
  "▁elders": 1217,
  "▁ግንኙነት": 1218,
  "▁ወንድም": 1219,
  "▁ከያህዌ": 1220,
  "▁kind": 1221,
  "▁giving": 1222,
  "ፎ": 1223,
  "ጣቸው": 1224,
  "▁29": 1225,
  "ፈር": 1226,
  "S": 1227,
  "ገድ": 1228,
  "ዚ": 1229,
  "▁ድምጽ": 1230,
  "▁አው": 1231,
  "8": 1232,
  "▁ቀደም": 1233,
  "▁fine": 1234,
  "ful": 1235,
  "ወቅ": 1236,
  "ውያን": 1237,
  "ብኝ": 1238,
  "▁ቤቱ": 1239,
  "▁better": 1240,
  "መጡ": 1241,
  "▁ጴጥሮስ": 1242,
  "▁hard": 1243,
  "▁31": 1244,
  "▁የሰ": 1245,
  "▁really": 1246,
  "▁coming": 1247,
  "▁light": 1248,
  "▁article": 1249,
  "hi": 1250,
  "▁ሚስት": 1251,
  "▁heavens": 1252,
  "ኛል": 1253,
  "▁whether": 1254,
  "▁ፍርድ": 1255,
  "▁women": 1256,
  "▁አዋጅ": 1257,
  "▁understand": 1258,
  "1": 1259,
  "ሩት": 1260,
  "ig": 1261,
  "መል": 1262,
  "▁listen": 1263,
  "▁priests": 1264,
  "ጁ": 1265,
  "▁ቁጥር": 1266,
  "ነገ": 1267,
  "▁thus": 1268,
  "▁anyone": 1269,
  "▁close": 1270,
  "▁four": 1271,
  "▁ችሎታ": 1272,
  "▁support": 1273,
  "▁ኢ": 1274,
  "ግባ": 1275,
  "▁result": 1276,
  "▁ፍሬ": 1277,
  "▁በም": 1278,
  "▁ድርጅት": 1279,
  "ለሁ።": 1280,
  "▁voice": 1281,
  "ተን": 1282,
  "▁joy": 1283,
  "▁field": 1284,
  "▁job": 1285,
  "▁strong": 1286,
  "▁በማድረግ": 1287,
  "▁ለአምላክ": 1288,
  "▁ትኩረት": 1289,
  "ማር": 1290,
  "▁course": 1291,
  "▁continue": 1292,
  "▁died": 1293,
  "▁rather": 1294,
  "▁አገልጋዮች": 1295,
  "▁ሰይጣን": 1296,
  "▁someone": 1297,
  "▁future": 1298,
  "▁መሆኑ": 1299,
  "▁ተብሎ": 1300,
  "▁ማንም": 1301,
  "ገደ": 1302,
  "▁እኛም": 1303,
  "▁ስብሰባ": 1304,
  "▁whole": 1305,
  "▁second": 1306,
  "▁ከተሞች": 1307,
  "▁thing": 1308,
  "▁respect": 1309,
  "▁following": 1310,
  "▁wisdom": 1311,
  "ጆ": 1312,
  "ዳቸው": 1313,
  "ru": 1314,
  "▁ነገሮችን": 1315,
  "▁የምንችለው": 1316,
  "▁ማስ": 1317,
  "▁receive": 1318,
  "▁እንዲያውም": 1319,
  "▁ምንጊዜም": 1320,
  "ትም": 1321,
  "▁written": 1322,
  "▁ስርአት": 1323,
  "▁although": 1324,
  "▁organization": 1325,
  "▁members": 1326,
  "▁አለ።": 1327,
  "▁በመጽሃፍ": 1328,
  "ting": 1329,
  "▁soon": 1330,
  "▁fellow": 1331,
  "▁ለተ": 1332,
  "▁altar": 1333,
  "▁It": 1334,
  "▁near": 1335,
  "3": 1336,
  "▁አሉ": 1337,
  "▁gold": 1338,
  "▁witness": 1339,
  "▁ይቅር": 1340,
  "▁የምታ": 1341,
  "▁public": 1342,
  "▁follow": 1343,
  "▁ድ": 1344,
  "▁remain": 1345,
  "▁በር": 1346,
  "ባችሁ": 1347,
  "▁often": 1348,
  "ታችሁ": 1349,
  "▁እስኪ": 1350,
  "▁አንዲት": 1351,
  "▁marriage": 1352,
  "▁form": 1353,
  "▁ለዚህ": 1354,
  "ሰጠው": 1355,
  "▁seen": 1356,
  "▁control": 1357,
  "▁እውነተኛ": 1358,
  "ites": 1359,
  "▁ከመሆኑም": 1360,
  "A": 1361,
  "▁questions": 1362,
  "ዞ": 1363,
  "▁wrote": 1364,
  "▁little": 1365,
  "▁አሁንም": 1366,
  "▁T": 1367,
  "ኳ": 1368,
  "▁language": 1369,
  "▁እስቲ": 1370,
  "▁ኮ": 1371,
  "▁within": 1372,
  "▁ከአምላክ": 1373,
  "▁answer": 1374,
  "▁ትእዛዝ": 1375,
  "ian": 1376,
  "ሄዱ": 1377,
  "▁pass": 1378,
  "▁ስጦታ": 1379,
  "▁ሚ": 1380,
  "▁purpose": 1381,
  "▁ከእነሱ": 1382,
  "ታቸውን": 1383,
  "ልህ": 1384,
  "ሉ፤": 1385,
  "▁next": 1386,
  "▁በግልጽ": 1387,
  "▁ተሰ": 1388,
  "▁መጣ": 1389,
  "▁meeting": 1390,
  "▁32": 1391,
  "do": 1392,
  "ራችሁ": 1393,
  "ማቸው": 1394,
  "▁ልት": 1395,
  "▁ፍላጎት": 1396,
  "▁ለውጥ": 1397,
  "▁yes": 1398,
  "▁glory": 1399,
  "▁remember": 1400,
  "▁loyal": 1401,
  "▁covenant": 1402,
  "▁S": 1403,
  "▁peter": 1404,
  "▁few": 1405,
  "ሳቸው": 1406,
  "▁ልክ": 1407,
  "▁benefit": 1408,
  "▁እርስ": 1409,
  "▁መጀመሪያ": 1410,
  "ጠሩ": 1411,
  "▁ሽማግሌዎች": 1412,
  "ጂ": 1413,
  "▁acts": 1414,
  "ና።": 1415,
  "ኞች": 1416,
  "▁sword": 1417,
  "▁33": 1418,
  "▁መልእክት": 1419,
  "ሚያ": 1420,
  "▁humans": 1421,
  "▁praise": 1422,
  "▁cor": 1423,
  "▁አላማ": 1424,
  "▁ገና": 1425,
  "▁wrong": 1426,
  "ling": 1427,
  "▁አጋጣሚ": 1428,
  "▁different": 1429,
  "▁ኣመት": 1430,
  "▁ርእስ": 1431,
  "▁ኦ": 1432,
  "▁temple": 1433,
  "▁አባት": 1434,
  "▁daughter": 1435,
  "▁desire": 1436,
  "▁forever": 1437,
  "▁bread": 1438,
  "▁ባሪያ": 1439,
  "▁ተከ": 1440,
  "▁(2": 1441,
  "ጤ": 1442,
  "▁apostle": 1443,
  "ገሩ": 1444,
  "▁knowledge": 1445,
  "▁ተገ": 1446,
  "ዎ": 1447,
  "▁got": 1448,
  "ite": 1449,
  "▁Moses": 1450,
  "▁ግልጽ": 1451,
  "ab": 1452,
  "▁preaching": 1453,
  "▁ያሉትን": 1454,
  "ath": 1455,
  "ሞት": 1456,
  "በሩ": 1457,
  "▁wise": 1458,
  "▁whose": 1459,
  "▁case": 1460,
  "▁ሁኔታዎች": 1461,
  "▁yourself": 1462,
  "▁አብ": 1463,
  "ga": 1464,
  "▁አገሮች": 1465,
  "▁ሃላፊነት": 1466,
  "▁ህዝቡ": 1467,
  "▁offer": 1468,
  "▁call": 1469,
  "▁በእስራኤል": 1470,
  "▁ጥያቄዎች": 1471,
  "▁account": 1472,
  "▁ተጽእኖ": 1473,
  "▁n": 1474,
  "▁ground": 1475,
  "▁court": 1476,
  "ናል።": 1477,
  "▁lead": 1478,
  "ዜ": 1479,
  "ቄ": 1480,
  "▁አር": 1481,
  "▁ስልጣን": 1482,
  "▁drink": 1483,
  "▁ዮሃንስ": 1484,
  "▁የነበሩት": 1485,
  "▁ደም": 1486,
  "▁ሞት": 1487,
  "▁You": 1488,
  "▁con": 1489,
  "▁ቀናት": 1490,
  "ረድ": 1491,
  "▁best": 1492,
  "▁leave": 1493,
  "j": 1494,
  "▁ራሱን": 1495,
  "▁መሳሪያ": 1496,
  "የው": 1497,
  "▁ሳለ": 1498,
  "▁sacrifice": 1499,
  "▁የለም": 1500,
  "▁system": 1501,
  "▁ውጭ": 1502,
  "▁ስለሆነ": 1503,
  "▁five": 1504,
  "▁ያሳ": 1505,
  "▁flesh": 1506,
  "▁ቁ": 1507,
  "▁army": 1508,
  "▁ይሰ": 1509,
  "▁ጠቃሚ": 1510,
  "▁message": 1511,
  "▁ዙሪያ": 1512,
  "▁joseph": 1513,
  "ቶቹ": 1514,
  "he": 1515,
  "ኛው": 1516,
  "ፕ": 1517,
  "▁መኖር": 1518,
  "▁ብሏል": 1519,
  "▁እለት": 1520,
  "ኖች": 1521,
  "▁office": 1522,
  "▁ይሆን": 1523,
  "▁abraham": 1524,
  "ባለ": 1525,
  "▁37": 1526,
  "▁ጦርነት": 1527,
  "▁please": 1528,
  "▁ከዚህም": 1529,
  "ጠላ": 1530,
  "▁dis": 1531,
  "▁share": 1532,
  "▁matter": 1533,
  "▁ድርጊት": 1534,
  "▁once": 1535,
  "▁ተገቢ": 1536,
  "▁እድሜ": 1537,
  "▁በሰማይ": 1538,
  "▁righteousness": 1539,
  "▁የወ": 1540,
  "▁መስጠት": 1541,
  "ዋለሁ": 1542,
  "▁ዮሴፍ": 1543,
  "▁አንስቶ": 1544,
  "ጠቀም": 1545,
  "▁kings": 1546,
  "ችንን": 1547,
  "ቢያ": 1548,
  "ኙ": 1549,
  "▁አልተ": 1550,
  "▁sheep": 1551,
  "ው።": 1552,
  "▁ማወቅ": 1553,
  "▁possible": 1554,
  "▁ጋ": 1555,
  "▁works": 1556,
  "▁church": 1557,
  "ሰጥ": 1558,
  "▁ውድ": 1559,
  "▁እንችላለን": 1560,
  "▁አታ": 1561,
  "▁ነበሩ።": 1562,
  "▁anointed": 1563,
  "▁ሀ": 1564,
  "▁እያንዳንዱ": 1565,
  "▁ተቀ": 1566,
  "x": 1567,
  "ry": 1568,
  "ዳን": 1569,
  "ge": 1570,
  "▁received": 1571,
  "▁school": 1572,
  "▁ንጹህ": 1573,
  "▁sound": 1574,
  "▁comes": 1575,
  "▁w": 1576,
  "▁act": 1577,
  "▁health": 1578,
  "▁egypt": 1579,
  "ቿ": 1580,
  "▁felt": 1581,
  "▁እስራኤል": 1582,
  "▁pray": 1583,
  "▁th": 1584,
  "▁የሚለው": 1585,
  "▁ብር": 1586,
  "▁mouth": 1587,
  "ባቸውን": 1588,
  "▁disclosed": 1589,
  "▁34": 1590,
  "▁ኪዳን": 1591,
  "▁trust": 1592,
  "▁ይችላሉ": 1593,
  "▁H": 1594,
  "mp": 1595,
  "▁ያእቆብ": 1596,
  "▁fall": 1597,
  "▁ይመ": 1598,
  "▁month": 1599,
  "▁ከጊዜ": 1600,
  "▁አድርገው": 1601,
  "ልክ": 1602,
  "▁በል": 1603,
  "▁happy": 1604,
  "ጧ": 1605,
  "▁ጉ": 1606,
  "▁ተጠ": 1607,
  "▁commanded": 1608,
  "▁ፈቃደኛ": 1609,
  "ክል": 1610,
  "▁ብት": 1611,
  "▁አንተም": 1612,
  "▁የኢትዮጵያ": 1613,
  "▁ዋና": 1614,
  "ኝ።": 1615,
  "▁ተመ": 1616,
  "▁በየ": 1617,
  "ዋን": 1618,
  "ንድ": 1619,
  "▁50": 1620,
  "▁ወደፊት": 1621,
  "▁ይዞ": 1622,
  "rs": 1623,
  "▁አይደለም።": 1624,
  "▁3:": 1625,
  "▁question": 1626,
  "▁ወላጆች": 1627,
  "▁በዳ": 1628,
  "▁ብሄራት": 1629,
  "▁indeed": 1630,
  "ቸዋል።": 1631,
  "▁የሚገኙ": 1632,
  "▁ጥፋት": 1633,
  "▁enjoy": 1634,
  "▁እንዳለው": 1635,
  "▁ው": 1636,
  "▁G": 1637,
  "▁large": 1638,
  "▁ሲሉ": 1639,
  "▁David": 1640,
  "nce": 1641,
  "▁scriptures": 1642,
  "▁F": 1643,
  "▁አም": 1644,
  "▁gift": 1645,
  "▁tent": 1646,
  "▁enemies": 1647,
  "ha": 1648,
  "▁አብርሃም": 1649,
  "▁መጻህፍት": 1650,
  "▁learned": 1651,
  "▁የተለያዩ": 1652,
  "▁everything": 1653,
  "▁prophet": 1654,
  "ስብ": 1655,
  "▁decision": 1656,
  "ነቱ": 1657,
  "ዎቹን": 1658,
  "▁በአሁኑ": 1659,
  "ke": 1660,
  "!\"": 1661,
  "▁instead": 1662,
  "▁hold": 1663,
  "▁hath": 1664,
  "▁avoid": 1665,
  "▁nation": 1666,
  "▁age": 1667,
  "▁helped": 1668,
  "ጡት": 1669,
  "ቧ": 1670,
  "▁ራእይ": 1671,
  "▁እውቀት": 1672,
  "▁ten": 1673,
  "▁ስጋ": 1674,
  "▁ከእነዚህ": 1675,
  "▁security": 1676,
  "▁የሆኑት": 1677,
  "▁ሸ": 1678,
  "▁ማለትም": 1679,
  "▁When": 1680,
  "▁የተሻለ": 1681,
  "▁ታሪክ": 1682,
  "▁real": 1683,
  "በሉ": 1684,
  "▁lives": 1685,
  "▁experience": 1686,
  "▁friends": 1687,
  "ኗ": 1688,
  "ho": 1689,
  "▁በእርግጥም": 1690,
  "▁አደጋ": 1691,
  "man": 1692,
  "ሃል": 1693,
  "▁send": 1694,
  "▁ወጣት": 1695,
  "▁accept": 1696,
  "ለሁ፤": 1697,
  "ኬ": 1698,
  "▁አስተ": 1699,
  "ብህ": 1700,
  "▁ጉዳት": 1701,
  "▁open": 1702,
  "E": 1703,
  "▁E": 1704,
  "ty": 1705,
  "ሷ": 1706,
  "▁ንጉሱ": 1707,
  "▁ጨምሮ": 1708,
  "▁v": 1709,
  "▁መር": 1710,
  "▁አሰ": 1711,
  "ፈጸሙ": 1712,
  "ደግ": 1713,
  "▁ቢያ": 1714,
  "▁situation": 1715,
  "ከፍ": 1716,
  "ለች።": 1717,
  "▁spoke": 1718,
  "ደስ": 1719,
  "▁ትንቢት": 1720,
  "▁thought": 1721,
  "ሎች": 1722,
  "▁አላቸው": 1723,
  "▁ከእኔ": 1724,
  "▁knew": 1725,
  "age": 1726,
  "▁needed": 1727,
  "▁serving": 1728,
  "▁አሊያም": 1729,
  "▁ምግባር": 1730,
  "▁strength": 1731,
  "▁bear": 1732,
  "▁special": 1733,
  "በቃ": 1734,
  "▁favor": 1735,
  "▁anything": 1736,
  "▁ሃዋርያው": 1737,
  "▁turned": 1738,
  "all": 1739,
  "▁build": 1740,
  "▁report": 1741,
  "▁change": 1742,
  "ጥር": 1743,
  "▁personal": 1744,
  "▁carry": 1745,
  "▁foreign": 1746,
  "▁makes": 1747,
  "▁እንደሚችል": 1748,
  "ቀድ": 1749,
  "▁እርሱ": 1750,
  "▁አልፎ": 1751,
  "ቀበል": 1752,
  "ai": 1753,
  "ጠመ": 1754,
  "▁honor": 1755,
  "▁anger": 1756,
  "ባር": 1757,
  "ያህ": 1758,
  "▁problems": 1759,
  "▁የቀ": 1760,
  "▁የነበሩ": 1761,
  "▁መሬት": 1762,
  "▁ባይ": 1763,
  "▁ቤተሰብ": 1764,
  "▁አጥ": 1765,
  "▁ተግባራዊ": 1766,
  "▁century": 1767,
  "▁small": 1768,
  "▁የጦር": 1769,
  "▁taking": 1770,
  "▁ችግሮች": 1771,
  "▁ወንድ": 1772,
  "▁ካለ": 1773,
  "▁moved": 1774,
  "▁የነበረውን": 1775,
  "▁sister": 1776,
  "▁states": 1777,
  "ግብ": 1778,
  "▁attention": 1779,
  "▁ourselves": 1780,
  "▁If": 1781,
  "▁started": 1782,
  "▁evil": 1783,
  "▁shalt": 1784,
  "▁walk": 1785,
  "ሙት": 1786,
  "▁ነኝ": 1787,
  "▁relationship": 1788,
  "▁raised": 1789,
  "▁co": 1790,
  "▁speaking": 1791,
  "▁አድ": 1792,
  "▁including": 1793,
  "▁ልን": 1794,
  "ብር": 1795,
  "▁mankind": 1796,
  "▁ራስ": 1797,
  "▁የሚችል": 1798,
  "▁ሁልጊዜ": 1799,
  "▁አደረገ": 1800,
  "▁ልጁ": 1801,
  "▁ከሞት": 1802,
  "▁teaching": 1803,
  "ring": 1804,
  "▁surely": 1805,
  "▁ትክክለኛ": 1806,
  "▁wanted": 1807,
  "▁ሰአት": 1808,
  "?\"": 1809,
  "▁silver": 1810,
  "▁mean": 1811,
  "▁certain": 1812,
  "▁እኔን": 1813,
  "መለስ": 1814,
  "▁feet": 1815,
  "▁ስህተት": 1816,
  "▁ሰራዊት": 1817,
  "▁continued": 1818,
  "▁አላቸው።": 1819,
  "▁enter": 1820,
  "▁morning": 1821,
  "▁ኖሮ": 1822,
  "▁ተራራ": 1823,
  "▁እሳት": 1824,
  "▁kindness": 1825,
  "▁early": 1826,
  "▁oil": 1827,
  "▁conduct": 1828,
  "▁ተጨማሪ": 1829,
  "▁ለማስ": 1830,
  "▁እንደሆኑ": 1831,
  "ከር": 1832,
  "▁በአል": 1833,
  "▁መንገዶች": 1834,
  "▁As": 1835,
  "▁born": 1836,
  "▁judgment": 1837,
  "▁መልሶ": 1838,
  "▁በዚያም": 1839,
  "▁እንዲሁ": 1840,
  "ጮ": 1841,
  "▁teach": 1842,
  "▁neither": 1843,
  "▁clear": 1844,
  "tion": 1845,
  "▁35": 1846,
  "▁አለቃ": 1847,
  "▁r": 1848,
  "▁sense": 1849,
  "▁try": 1850,
  "▁በሚገባ": 1851,
  "▁መረጃ": 1852,
  "▁luke": 1853,
  "▁ክንድ": 1854,
  "q": 1855,
  "▁ጥቂት": 1856,
  "▁slave": 1857,
  "▁authority": 1858,
  "▁talk": 1859,
  "▁ቦታዎች": 1860,
  "▁matthew": 1861,
  "▁ስለነበር": 1862,
  "▁This": 1863,
  "▁saul": 1864,
  "▁region": 1865,
  "▁sure": 1866,
  "▁ባል": 1867,
  "ine": 1868,
  "▁clean": 1869,
  "▁ethiopian": 1870,
  "▁በስራ": 1871,
  "ፈጸም": 1872,
  "▁named": 1873,
  "ፒ": 1874,
  "▁ሰባት": 1875,
  "▁በእኔ": 1876,
  "▁በመሆኑ": 1877,
  "▁don": 1878,
  "me": 1879,
  "▁በዚያን": 1880,
  "▁በኢየሩሳሌም": 1881,
  "▁fruit": 1882,
  "▁ዋጋ": 1883,
  "▁ዜና": 1884,
  "▁ጥቃት": 1885,
  "▁የወይን": 1886,
  "▁ma": 1887,
  "▁move": 1888,
  "▁especially": 1889,
  "▁ከእናንተ": 1890,
  "▁point": 1891,
  "▁መዛሙርቱ": 1892,
  "▁4:": 1893,
  "ጣት": 1894,
  "▁above": 1895,
  "▁የበላይ": 1896,
  "▁Re": 1897,
  "▁perhaps": 1898,
  "▁car": 1899,
  "ድን": 1900,
  "▁ራሳቸውን": 1901,
  "ward": 1902,
  "▁Christ": 1903,
  "ጩ": 1904,
  "▁አንዳንዶች": 1905,
  "▁የኢየሱስ": 1906,
  "▁burnt": 1907,
  "▁pay": 1908,
  "▁እንግዲህ": 1909,
  "▁ልብስ": 1910,
  "▁third": 1911,
  "pa": 1912,
  "▁l": 1913,
  "▁ለሌሎች": 1914,
  "▁comfort": 1915,
  "▁deep": 1916,
  "▁inheritance": 1917,
  "▁sins": 1918,
  "▁ማሳየት": 1919,
  "ረክ": 1920,
  "▁stay": 1921,
  "▁ያን": 1922,
  "▁እርግጥ": 1923,
  "▁self": 1924,
  "ors": 1925,
  "men": 1926,
  "▁እያለ": 1927,
  "▁ማየት": 1928,
  "▁wine": 1929,
  "▁ብርሃን": 1930,
  "▁ቀላል": 1931,
  "▁በአለም": 1932,
  "▁ሉቃስ": 1933,
  "ያው": 1934,
  "▁እንደገና": 1935,
  "▁ምስክር": 1936,
  "▁ሌላው": 1937,
  "▁ሌሎችን": 1938,
  "ቴን": 1939,
  "▁loving": 1940,
  "▁አባ": 1941,
  "▁information": 1942,
  "▁ብዙዎች": 1943,
  "▁lot": 1944,
  "led": 1945,
  "▁counsel": 1946,
  "▁2:": 1947,
  "▁friend": 1948,
  "ቦች": 1949,
  "▁united": 1950,
  "O": 1951,
  "▁1:": 1952,
  "▁material": 1953,
  "▁Article": 1954,
  "▁command": 1955,
  "▁appointed": 1956,
  "▁አራት": 1957,
  "▁ተመሳሳይ": 1958,
  "oth": 1959,
  "▁እንደነበር": 1960,
  "ና፤": 1961,
  "▁ወጣቶች": 1962,
  "▁ጠንካራ": 1963,
  "▁yourselves": 1964,
  "▁poor": 1965,
  "▁provide": 1966,
  "አል": 1967,
  "▁past": 1968,
  "ሺ": 1969,
  "ish": 1970,
  "▁answered": 1971,
  "▁ጉዳዮች": 1972,
  "▁myself": 1973,
  "▁መዝ": 1974,
  "▁እነሱን": 1975,
  "▁ቅዱሳን": 1976,
  "▁difficult": 1977,
  "▁ዝግጅት": 1978,
  "and": 1979,
  "ደርስ": 1980,
  "▁returned": 1981,
  "▁meet": 1982,
  "▁false": 1983,
  "ፉት": 1984,
  "▁already": 1985,
  "የት": 1986,
  "▁ኢያሱ": 1987,
  "ርግ": 1988,
  "ሪዎች": 1989,
  "▁ከአንተ": 1990,
  "▁ወዲያውኑ": 1991,
  "▁wilderness": 1992,
  "▁በሗላም": 1993,
  "ክስ": 1994,
  "▁ይበ": 1995,
  "▁angel": 1996,
  "ary": 1997,
  "▁በስተ": 1998,
  "▁camp": 1999,
  "▁minister": 2000,
  "▁የሚኖሩ": 2001,
  "▁ህዝቡን": 2002,
  "▁d": 2003,
  "▁በመንፈስ": 2004,
  "ተካ": 2005,
  "▁force": 2006,
  "ርስ": 2007,
  "▁mr": 2008,
  "▁በደ": 2009,
  "▁jacob": 2010,
  "▁cut": 2011,
  "▁certainly": 2012,
  "▁justice": 2013,
  "▁killed": 2014,
  "▁watch": 2015,
  "▁ኢየሩሳሌም": 2016,
  "ቆጣ": 2017,
  "▁ጸሎት": 2018,
  "The": 2019,
  "▁chief": 2020,
  "▁meetings": 2021,
  "▁እንድታ": 2022,
  "▁working": 2023,
  "ሳት": 2024,
  "▁መሪ": 2025,
  "▁ፊ": 2026,
  "▁100": 2027,
  "▁መሰረታዊ": 2028,
  "▁ይፈ": 2029,
  "▁እናንተም": 2030,
  "▁greater": 2031,
  "▁የሚገኘው": 2032,
  "▁held": 2033,
  "▁በእነዚህ": 2034,
  "▁ምላሽ": 2035,
  "▁ራሱ": 2036,
  "▁5:": 2037,
  "▁በምት": 2038,
  "ቀጠ": 2039,
  "▁male": 2040,
  "ይን": 2041,
  "▁የሚችለው": 2042,
  "ዊው": 2043,
  "▁solomon": 2044,
  "▁loved": 2045,
  "▁prison": 2046,
  "▁master": 2047,
  "ውንም": 2048,
  "ጥሩ": 2049,
  "▁አፍ": 2050,
  "▁ወዲህ": 2051,
  "▁የሚጠ": 2052,
  "▁psalm": 2053,
  "▁jews": 2054,
  "▁መታ": 2055,
  "▁36": 2056,
  "▁ብዬ": 2057,
  "▁sun": 2058,
  "ቤት": 2059,
  "ሰሙ": 2060,
  "▁longer": 2061,
  "▁gives": 2062,
  "▁babylon": 2063,
  "▁armies": 2064,
  "▁save": 2065,
  "ገዛ": 2066,
  "▁ትክክል": 2067,
  "▁tree": 2068,
  "▁ያደረገው": 2069,
  "▁በመሆን": 2070,
  "ዘር": 2071,
  "▁spoken": 2072,
  "▁ኢዮብ": 2073,
  "▁Proclamation": 2074,
  "ቃቸው": 2075,
  "▁stone": 2076,
  "▁issue": 2077,
  "ከል": 2078,
  "▁military": 2079,
  "እኔ": 2080,
  "▁grain": 2081,
  "▁አምስት": 2082,
  "▁ከሌሎች": 2083,
  "▁seek": 2084,
  "▁judge": 2085,
  "▁based": 2086,
  "▁ይገባል": 2087,
  "▁officials": 2088,
  "▁mercy": 2089,
  "▁የባ": 2090,
  "▁መን": 2091,
  "▁promise": 2092,
  "▁needs": 2093,
  "▁ያደርጋል": 2094,
  "▁ተወ": 2095,
  "▁led": 2096,
  "▁በሰ": 2097,
  "ሁት": 2098,
  "▁አባል": 2099,
  "lu": 2100,
  "▁አጋ": 2101,
  "ዬን": 2102,
  "▁places": 2103,
  "▁sub": 2104,
  "▁በሌሎች": 2105,
  "▁በቅርቡ": 2106,
  "you": 2107,
  "▁ምልክት": 2108,
  "▁እቃ": 2109,
  "ዘን": 2110,
  "▁ha": 2111,
  "ቀመጥ": 2112,
  "▁front": 2113,
  "▁ነህ": 2114,
  "ተኞች": 2115,
  "▁አንድነት": 2116,
  "▁ዮሃ": 2117,
  "▁promised": 2118,
  "▁provided": 2119,
  "▁በራሱ": 2120,
  "▁understanding": 2121,
  "▁guard": 2122,
  "▁ለማወቅ": 2123,
  "▁matt": 2124,
  "▁draw": 2125,
  "▁አምልኮ": 2126,
  "▁ያላቸውን": 2127,
  "ውና": 2128,
  "▁በሆነው": 2129,
  "ረት": 2130,
  "▁ኣ": 2131,
  "▁ተመልከት": 2132,
  "▁likely": 2133,
  "▁ምርጫ": 2134,
  "▁sign": 2135,
  "▁protect": 2136,
  "no": 2137,
  "▁ፍጹም": 2138,
  "▁የሚያሳይ": 2139,
  "▁stop": 2140,
  "▁መሰዊያ": 2141,
  "▁የዚህ": 2142,
  "▁ከሁሉ": 2143,
  "▁allow": 2144,
  "▁ውጤት": 2145,
  "▁ባህርያት": 2146,
  "▁six": 2147,
  "▁alone": 2148,
  "▁birth": 2149,
  "▁heavenly": 2150,
  "አቸው": 2151,
  "▁ደብዳቤ": 2152,
  "▁grow": 2153,
  "▁behind": 2154,
  "▁everyone": 2155,
  "▁thinking": 2156,
  "ታዊ": 2157,
  "▁j": 2158,
  "▁መሪዎች": 2159,
  "▁forefathers": 2160,
  "▁ሰራ": 2161,
  "ገና": 2162,
  "▁ትንሽ": 2163,
  "ቀጥ": 2164,
  "▁መሰ": 2165,
  "han": 2166,
  "▁interest": 2167,
  "▁activities": 2168,
  "ችሁን": 2169,
  "▁የሚቆጠሩ": 2170,
  "▁ancient": 2171,
  "▁resurrection": 2172,
  "ure": 2173,
  "ድረ": 2174,
  "መላ": 2175,
  "▁መንግስታት": 2176,
  "ረጉ": 2177,
  "ነሱ": 2178,
  "▁speech": 2179,
  "▁በብዙ": 2180,
  "▁ቃላት": 2181,
  "▁possession": 2182,
  "▁የበለጠ": 2183,
  "▁angels": 2184,
  "▁rule": 2185,
  "▁የይሁዳ": 2186,
  "▁unclean": 2187,
  "▁ድጋፍ": 2188,
  "▁evidence": 2189,
  "we": 2190,
  "▁ቤቶች": 2191,
  "▁ስሜ": 2192,
  "▁families": 2193,
  "▁ዛፍ": 2194,
  "▁forth": 2195,
  "▁ልጆቹ": 2196,
  "▁battle": 2197,
  "▁adam": 2198,
  "▁ይገ": 2199,
  "ነታቸው": 2200,
  "▁hearts": 2201,
  "▁destroy": 2202,
  "▁አጠገብ": 2203,
  "▁ነገስታት": 2204,
  "▁አንዳንዶቹ": 2205,
  "▁ባህር": 2206,
  "▁soul": 2207,
  "▁suffering": 2208,
  "▁በጉባኤ": 2209,
  "ps": 2210,
  "▁ማስተዋል": 2211,
  "▁ኢሳይያስ": 2212,
  "▁ሰጠ": 2213,
  "ለሱ": 2214,
  "▁al": 2215,
  "▁south": 2216,
  "▁tribe": 2217,
  "▁መግለጫ": 2218,
  "▁statement": 2219,
  "red": 2220,
  "▁የመንግስት": 2221,
  "▁ነው፡፡": 2222,
  "▁students": 2223,
  "ደራ": 2224,
  "▁እንደምት": 2225,
  "▁የሚለውን": 2226,
  "ሩን": 2227,
  "▁6:": 2228,
  "▁ሙሴን": 2229,
  "▁ሆኑ": 2230,
  "ሮቹ": 2231,
  "▁fight": 2232,
  "▁business": 2233,
  "▁የመጀመሪያው": 2234,
  "▁ለእሱ": 2235,
  "▁አቶ": 2236,
  "▁ወጣ": 2237,
  "▁ላለ": 2238,
  "▁decisions": 2239,
  "▁created": 2240,
  "▁necessary": 2241,
  "ች።": 2242,
  "▁truly": 2243,
  "ial": 2244,
  "ሞች": 2245,
  "▁አስደሳች": 2246,
  "▁prophets": 2247,
  "▁isaiah": 2248,
  "▁thousand": 2249,
  "▁ድል": 2250,
  "ver": 2251,
  "▁ሞገስ": 2252,
  "▁ለመሆን": 2253,
  "▁ቆሮ": 2254,
  "▁whatever": 2255,
  "▁group": 2256,
  "▁የምድር": 2257,
  "▁አይሁዳውያን": 2258,
  "▁ያዘ": 2259,
  "▁U": 2260,
  "▁ቡድን": 2261,
  "▁K": 2262,
  "▁በረከት": 2263,
  "▁regarding": 2264,
  "▁ማር": 2265,
  "▁test": 2266,
  "▁በወቅቱ": 2267,
  "▁አመራር": 2268,
  "▁clearly": 2269,
  "▁visit": 2270,
  "▁11)": 2271,
  "▁ark": 2272,
  "ውል": 2273,
  "▁መቅደሱ": 2274,
  "▁የሚያስችል": 2275,
  "ኛል።": 2276,
  "▁political": 2277,
  "ፈሩ": 2278,
  "▁ወገን": 2279,
  "▁ሲባል": 2280,
  "▁songs": 2281,
  "▁ሃብት": 2282,
  "▁tim": 2283,
  "▁በእነሱ": 2284,
  "▁religious": 2285,
  "▁ነገድ": 2286,
  "▁dwell": 2287,
  "▁u": 2288,
  "▁የአለም": 2289,
  "▁waters": 2290,
  "ን፧": 2291,
  "▁የምና": 2292,
  "▁እዚህ": 2293,
  "▁months": 2294,
  "▁ለመስጠት": 2295,
  "▁አክብሮት": 2296,
  "▁concerning": 2297,
  "ዟ": 2298,
  "▁የለም።": 2299,
  "ዌ": 2300,
  "▁10)": 2301,
  "ጠጣ": 2302,
  "▁baptized": 2303,
  "▁በሽታ": 2304,
  "ት፤": 2305,
  "▁ሽ": 2306,
  "▁mentioned": 2307,
  "sha": 2308,
  "▁ጊዜም": 2309,
  "▁በደል": 2310,
  "መዝ": 2311,
  "▁alive": 2312,
  "▁religion": 2313,
  "▁8)": 2314,
  "har": 2315,
  "▁declares": 2316,
  "▁ማንኛውንም": 2317,
  "▁former": 2318,
  "▁አብዛኞቹ": 2319,
  "▁ድንኳኑ": 2320,
  "▁መመሪያዎች": 2321,
  "▁daughters": 2322,
  "▁perfect": 2323,
  "▁ኢትዮጵያ": 2324,
  "▁B": 2325,
  "▁የተለየ": 2326,
  "▁ካለው": 2327,
  "▁everlasting": 2328,
  "▁stood": 2329,
  "▁38": 2330,
  "▁request": 2331,
  "▁አስደናቂ": 2332,
  "▁north": 2333,
  "ቪ": 2334,
  "▁4)": 2335,
  "▁throughout": 2336,
  "▁Now": 2337,
  "▁የለውም": 2338,
  "▁200": 2339,
  "▁ሮም": 2340,
  "▁married": 2341,
  "▁passed": 2342,
  "▁rejoice": 2343,
  "▁evening": 2344,
  "▁direction": 2345,
  "▁sisters": 2346,
  "▁pre": 2347,
  "for": 2348,
  "▁standing": 2349,
  "▁lived": 2350,
  "▁area": 2351,
  "▁ተቀባይነት": 2352,
  "▁በታች": 2353,
  "▁በመንፈሳዊ": 2354,
  "▁የተናገረው": 2355,
  "▁በእሳት": 2356,
  "መለከት": 2357,
  "▁14)": 2358,
  "▁በዚህም": 2359,
  "ice": 2360,
  "▁ማቴ": 2361,
  "ide": 2362,
  "▁ለእናንተ": 2363,
  "▁taught": 2364,
  "በል": 2365,
  "▁እነሆ": 2366,
  "ሉን": 2367,
  "one": 2368,
  "go": 2369,
  "ግራ": 2370,
  "▁ra": 2371,
  "▁ማስረጃ": 2372,
  "▁ሁሉንም": 2373,
  "▁ታስ": 2374,
  "ኖረው": 2375,
  "▁individuals": 2376,
  "▁Egypt": 2377,
  "ያን": 2378,
  "▁ማቴዎስ": 2379,
  "▁problem": 2380,
  "▁privilege": 2381,
  "▁ጽሁፍ": 2382,
  "▁pro": 2383,
  "ቸው።": 2384,
  "ፈጠረ": 2385,
  "▁ለም": 2386,
  "▁history": 2387,
  "▁sacrifices": 2388,
  "▁12)": 2389,
  "▁ቅር": 2390,
  "▁እንቅስቃሴ": 2391,
  "ሂ": 2392,
  "▁ባህርይ": 2393,
  "▁አቅጣጫ": 2394,
  "▁ወዳ": 2395,
  "▁ሄደ": 2396,
  "▁ጣ": 2397,
  "▁ነዋሪዎች": 2398,
  "▁reward": 2399,
  "▁aaron": 2400,
  "▁cover": 2401,
  "▁እንችላለን።": 2402,
  "▁በሰው": 2403,
  "▁ሰውየው": 2404,
  "▁አሉ።": 2405,
  "▁effort": 2406,
  "ጐ": 2407,
  "▁ይሁዳ": 2408,
  "▁fully": 2409,
  "▁salvation": 2410,
  "▁እድገት": 2411,
  "▁ገደማ": 2412,
  "▁matters": 2413,
  "▁general": 2414,
  "▁ሞተ": 2415,
  "▁ሰራተኞች": 2416,
  "▁gathered": 2417,
  "▁እህት": 2418,
  "ፍር": 2419,
  "▁due": 2420,
  "▁ለእኔ": 2421,
  "ዉ": 2422,
  "▁built": 2423,
  "▁feelings": 2424,
  "▁mark": 2425,
  "▁ምህረት": 2426,
  "▁river": 2427,
  "▁lost": 2428,
  "▁press": 2429,
  "▁ሳሙኤል": 2430,
  "▁ኪ": 2431,
  "ያዩ": 2432,
  "አምላክ": 2433,
  "▁ወታደሮች": 2434,
  "▁doubt": 2435,
  "ron": 2436,
  "▁አለበት": 2437,
  "▁ethiopia": 2438,
  "▁የሚያደርግ": 2439,
  "▁using": 2440,
  "▁በጎች": 2441,
  "▁approach": 2442,
  "▁ሰማይ": 2443,
  "▁national": 2444,
  "▁subject": 2445,
  "▁offerings": 2446,
  "▁entire": 2447,
  "▁አንጻር": 2448,
  "eg": 2449,
  "▁—": 2450,
  "ጢ": 2451,
  "▁outside": 2452,
  "▁አበባ": 2453,
  "▁ካህናት": 2454,
  "▁የሚሆን": 2455,
  "▁9)": 2456,
  "▁similar": 2457,
  "ዶች": 2458,
  "ሻል": 2459,
  "▁45": 2460,
  "▁የማያ": 2461,
  "▁fell": 2462,
  "▁gate": 2463,
  "▁ጠጅ": 2464,
  "▁mighty": 2465,
  "▁ባሉት": 2466,
  "▁ሺህ": 2467,
  "▁imitate": 2468,
  "▁ያለን": 2469,
  "▁ያልተ": 2470,
  "ኑን": 2471,
  "▁search": 2472,
  "▁በተለይ": 2473,
  "▁ተናግሯል": 2474,
  "▁በተጨማሪ": 2475,
  "▁ከአንድ": 2476,
  "▁training": 2477,
  "▁com": 2478,
  "ፍራ": 2479,
  "▁ብዙም": 2480,
  "▁spread": 2481,
  "▁se": 2482,
  "▁choose": 2483,
  "ዋል፤": 2484,
  "ፏ": 2485,
  "▁attitude": 2486,
  "▁ያሰ": 2487,
  "▁determined": 2488,
  "▁decided": 2489,
  "▁13)": 2490,
  "ally": 2491,
  "▁ወይስ": 2492,
  "ጠበቅ": 2493,
  "ie": 2494,
  "▁ብለን": 2495,
  "fe": 2496,
  "▁timothy": 2497,
  "▁በመጀመሪያው": 2498,
  "ay": 2499,
  "▁pain": 2500,
  "▁አረ": 2501,
  "▁ንብረት": 2502,
  "▁daniel": 2503,
  "▁አቋም": 2504,
  "ልኩ": 2505,
  "▁ደስተኛ": 2506,
  "▁ግራ": 2507,
  "▁opposition": 2508,
  "▁አገ": 2509,
  "▁established": 2510,
  "▁maintain": 2511,
  "መሩ": 2512,
  "▁half": 2513,
  "▁less": 2514,
  "▁wall": 2515,
  "▁ባለስልጣናት": 2516,
  "▁መረዳት": 2517,
  "▁አዎ": 2518,
  "ze": 2519,
  "ላቸውን": 2520,
  "▁በደስታ": 2521,
  "▁Ethiopia": 2522,
  "▁እንዲሆኑ": 2523,
  "▁ዳ": 2524,
  "▁offered": 2525,
  "ጥል": 2526,
  "▁የኢ": 2527,
  "▁የደ": 2528,
  "let": 2529,
  "▁state": 2530,
  "▁ምስራች": 2531,
  "▁15)": 2532,
  "▁mountain": 2533,
  "▁ለእኛ": 2534,
  "▁ክልል": 2535,
  "▁በርስ": 2536,
  "▁መጠ": 2537,
  "▁አስቸጋሪ": 2538,
  "▁በአንተ": 2539,
  "▁principles": 2540,
  "▁አንተን": 2541,
  "▁የት": 2542,
  "▁ኢየሱስን": 2543,
  "ችሗል": 2544,
  "▁17)": 2545,
  "▁ለመርዳት": 2546,
  "ስማማ": 2547,
  "▁ሊያስ": 2548,
  "▁ስሙ": 2549,
  "ጠነ": 2550,
  "▁ጽድቅ": 2551,
  "▁አለመ": 2552,
  "▁ዳግመኛ": 2553,
  "▁ጸጋ": 2554,
  "▁ስነ": 2555,
  "▁መልክ": 2556,
  "▁መናገር": 2557,
  "▁cubits": 2558,
  "▁gain": 2559,
  "You": 2560,
  "ቱም": 2561,
  "▁east": 2562,
  "▁ገባ": 2563,
  "▁rise": 2564,
  "▁ሁላችንም": 2565,
  "▁reading": 2566,
  "▁አልነበረም": 2567,
  "▁ክፍሎች": 2568,
  "▁በመላው": 2569,
  "▁forward": 2570,
  "ማል": 2571,
  "▁filled": 2572,
  "▁observe": 2573,
  "▁blessing": 2574,
  "▁ሌሊት": 2575,
  "▁proverbs": 2576,
  "ቅም": 2577,
  "▁ጎዳና": 2578,
  "▁throne": 2579,
  "▁la": 2580,
  "▁showed": 2581,
  "▁whoever": 2582,
  "ወጥ": 2583,
  "▁የተባለው": 2584,
  "▁explained": 2585,
  "▁ሰር": 2586,
  "▁didn": 2587,
  "ቸውም": 2588,
  "▁ስርኣት": 2589,
  "▁የትዳር": 2590,
  "▁focus": 2591,
  "▁ስራዎች": 2592,
  "▁appropriate": 2593,
  "▁በጎ": 2594,
  "▁በምን": 2595,
  "▁ሰለሞን": 2596,
  "ያችን": 2597,
  "▁ስታ": 2598,
  "▁በኢየሱስ": 2599,
  "ash": 2600,
  "▁በቅ": 2601,
  "▁countries": 2602,
  "▁አስተዋጽኦ": 2603,
  "ነፍ": 2604,
  "▁የቤተ": 2605,
  "▁produce": 2606,
  "▁ግሩም": 2607,
  "ወስድ": 2608,
  "▁ago": 2609,
  "ቶቻቸው": 2610,
  "▁በቂ": 2611,
  "▁line": 2612,
  "▁blessed": 2613,
  "መለከቱ": 2614,
  "▁strengthen": 2615,
  "▁መስራት": 2616,
  "▁አ።ም": 2617,
  "▁gone": 2618,
  "▁afraid": 2619,
  "▁international": 2620,
  "▁ያልሆነ": 2621,
  "▁week": 2622,
  "▁illustration": 2623,
  "▁ጥልቅ": 2624,
  "▁value": 2625,
  "ship": 2626,
  "▁ይችላሉ።": 2627,
  "ታችንን": 2628,
  "▁የእምነት": 2629,
  "▁ህያው": 2630,
  "ever": 2631,
  "▁wants": 2632,
  "ናችሁ": 2633,
  "▁ሴ": 2634,
  "▁except": 2635,
  "▁ርስት": 2636,
  "▁start": 2637,
  "▁ዳንኤል": 2638,
  "ቆይ": 2639,
  "▁kill": 2640,
  "ጣሉ": 2641,
  "▁7)": 2642,
  "ቀል": 2643,
  "ng": 2644,
  "▁apostles": 2645,
  "▁offspring": 2646,
  "▁አቀፍ": 2647,
  "▁garments": 2648,
  "▁ጀመር": 2649,
  "▁considered": 2650,
  "▁ተግባር": 2651,
  "▁ከእኛ": 2652,
  "▁distress": 2653,
  "▁ስብሰባዎች": 2654,
  "▁በመስጠት": 2655,
  "▁ፍትህ": 2656,
  "▁ጢሞቴዎስ": 2657,
  "▁tongue": 2658,
  "▁ያህል፣": 2659,
  "▁በመጀመሪያ": 2660,
  "▁deal": 2661,
  "▁የአሜሪካ": 2662,
  "ism": 2663,
  "▁common": 2664,
  "▁assembly": 2665,
  "▁lie": 2666,
  "▁corinthians": 2667,
  "▁local": 2668,
  "▁አባቴ": 2669,
  "▁immediately": 2670,
  "▁ነጻነት": 2671,
  "▁measure": 2672,
  "▁አለቆች": 2673,
  "▁አወ": 2674,
  "ፈቀደ": 2675,
  "ይህ": 2676,
  "▁ልታ": 2677,
  "▁tabernacle": 2678,
  "▁እንዳልሆነ": 2679,
  "ለን።": 2680,
  "▁እንመልከት": 2681,
  "ቆሙ": 2682,
  "▁sexual": 2683,
  "▁prov": 2684,
  "ብል": 2685,
  "▁ለሰው": 2686,
  "fa": 2687,
  "ከፋ": 2688,
  "▁ነን": 2689,
  "▁president": 2690,
  "▁ለማገልገል": 2691,
  "▁ዘይት": 2692,
  "▁ወገኖች": 2693,
  "▁ጥናት": 2694,
  "▁building": 2695,
  "▁የሚችሉት": 2696,
  "▁የሚሰጠው": 2697,
  "▁border": 2698,
  "▁fail": 2699,
  "▁ብለህ": 2700,
  "nd": 2701,
  "▁አብረው": 2702,
  "▁attack": 2703,
  "▁ጦር": 2704,
  "▁mountains": 2705,
  "▁road": 2706,
  "ጆች": 2707,
  "▁prepared": 2708,
  "ረገ": 2709,
  "▁wind": 2710,
  "▁complete": 2711,
  "▁period": 2712,
  "ran": 2713,
  "▁cast": 2714,
  "▁ጥርጥር": 2715,
  "▁አማ": 2716,
  "▁ምድርን": 2717,
  "▁በይሁዳ": 2718,
  "ቫ": 2719,
  "▁inhabitants": 2720,
  "▁70": 2721,
  "▁struck": 2722,
  "▁looking": 2723,
  "▁(1)": 2724,
  "▁መላእክት": 2725,
  "az": 2726,
  "▁laws": 2727,
  "▁5)": 2728,
  "ያህዌ": 2729,
  "▁preach": 2730,
  "▁effect": 2731,
  "▁qualities": 2732,
  "▁position": 2733,
  "▁lay": 2734,
  "nt": 2735,
  "▁ho": 2736,
  "▁break": 2737,
  "▁የክርስቶስ": 2738,
  "▁leaders": 2739,
  "▁ram": 2740,
  "▁የንግድ": 2741,
  "▁sight": 2742,
  "▁የሰጠ": 2743,
  "▁opened": 2744,
  "ረን": 2745,
  "▁መሆናቸውን": 2746,
  "▁process": 2747,
  "ቹን": 2748,
  "▁አምላክህ": 2749,
  "▁16)": 2750,
  "ሃለሁ": 2751,
  "ቷን": 2752,
  "▁አማልክት": 2753,
  "▁ትንሳኤ": 2754,
  "▁precious": 2755,
  "▁ግዴታ": 2756,
  "▁ቁጣ": 2757,
  "ልቅ": 2758,
  "▁መቼ": 2759,
  "▁አንብብ": 2760,
  "▁አገልጋይ": 2761,
  "▁ኤርምያስ": 2762,
  "▁እህቶች": 2763,
  "ue": 2764,
  "ኢ": 2765,
  "▁ስል": 2766,
  "▁met": 2767,
  "▁Ethiopian": 2768,
  "▁prepare": 2769,
  "▁ex": 2770,
  "ያዝ": 2771,
  "ሞቱ": 2772,
  "ኸው": 2773,
  "▁የሌለው": 2774,
  "▁te": 2775,
  "▁quickly": 2776,
  "ኡ": 2777,
  "▁ከእንግዲህ": 2778,
  "▁ቆሮንቶስ": 2779,
  "▁vision": 2780,
  "▁reach": 2781,
  "▁boy": 2782,
  "ነጻ": 2783,
  "▁የህይወት": 2784,
  "▁መልአክ": 2785,
  "▁rich": 2786,
  "▁else": 2787,
  "▁table": 2788,
  "▁Mr": 2789,
  "ገው": 2790,
  "▁ንኡስ": 2791,
  "▁ይዘው": 2792,
  "▁en": 2793,
  "▁44": 2794,
  "▁60": 2795,
  "▁thoughts": 2796,
  "▁ብሄር": 2797,
  "ence": 2798,
  "▁ኢየሱስም": 2799,
  "▁error": 2800,
  "▁መቅደስ": 2801,
  "▁የሚያደርገው": 2802,
  "▁genesis": 2803,
  "▁በእናንተ": 2804,
  "00": 2805,
  "our": 2806,
  "▁ሳኦል": 2807,
  "▁seed": 2808,
  "ኸ": 2809,
  "▁ድንጋይ": 2810,
  "▁ናት": 2811,
  "▁የህዝብ": 2812,
  "▁የላቀ": 2813,
  "▁በኢትዮጵያ": 2814,
  "▁4.": 2815,
  "▁ሰራተኛ": 2816,
  "▁እንዳል": 2817,
  "ፋት": 2818,
  "▁obey": 2819,
  "ፔ": 2820,
  "▁destruction": 2821,
  "▁noah": 2822,
  "▁ትችላለህ": 2823,
  "▁followers": 2824,
  "▁stated": 2825,
  "ዥ": 2826,
  "▁joshua": 2827,
  "▁animals": 2828,
  "▁rain": 2829,
  "▁ናቸው፤": 2830,
  "▁official": 2831,
  "ደም": 2832,
  "her": 2833,
  "▁legal": 2834,
  "▁served": 2835,
  "ህና": 2836,
  "▁ካል": 2837,
  "▁willing": 2838,
  "▁enough": 2839,
  "▁hate": 2840,
  "▁አዳ": 2841,
  "▁el": 2842,
  "▁ላከ": 2843,
  "▁reflect": 2844,
  "▁3)": 2845,
  "▁ስለሆነም": 2846,
  "▁examine": 2847,
  "▁ጎን": 2848,
  "▁Do": 2849,
  "▁door": 2850,
  "▁tried": 2851,
  "▁To": 2852,
  "▁ለማየት": 2853,
  "▁per": 2854,
  "▁despite": 2855,
  "▁የታወቀ": 2856,
  "▁ምስራቹን": 2857,
  "▁ወርቅ": 2858,
  "▁ከነ": 2859,
  "▁midst": 2860,
  "▁ድርሻ": 2861,
  "▁caused": 2862,
  "▁ፍጻሜ": 2863,
  "▁41": 2864,
  "ሳችሁ": 2865,
  "▁wait": 2866,
  "▁በሚገኘው": 2867,
  "▁license": 2868,
  "▁serious": 2869,
  "▁council": 2870,
  "▁ስምምነት": 2871,
  "see": 2872,
  "አት": 2873,
  "ኝ፤": 2874,
  "▁forgive": 2875,
  "▁ሙ": 2876,
  "ናውያን": 2877,
  "ሃል።": 2878,
  "ይቱ": 2879,
  "▁ሰዎቹ": 2880,
  "ሮን": 2881,
  "▁ዘገባ": 2882,
  "▁imagine": 2883,
  "▁devil": 2884,
  "▁rights": 2885,
  "▁ገጽ": 2886,
  "▁police": 2887,
  "▁translation": 2888,
  "▁ዝምድና": 2889,
  "▁chosen": 2890,
  "ኳቸው": 2891,
  "▁ዳርቻ": 2892,
  "▁shows": 2893,
  "▁enemy": 2894,
  "▁jeremiah": 2895,
  "▁further": 2896,
  "▁wives": 2897,
  "▁ኣለም": 2898,
  "▁wide": 2899,
  "▁circumstances": 2900,
  "ርቅ": 2901,
  "▁dwelling": 2902,
  "▁beyond": 2903,
  "▁development": 2904,
  "▁9.": 2905,
  "▁42": 2906,
  "▁carried": 2907,
  "▁forces": 2908,
  "▁ይመጣል": 2909,
  "▁prove": 2910,
  "▁crowd": 2911,
  "▁ገብ": 2912,
  "▁6)": 2913,
  "ዳት": 2914,
  "▁Jerusalem": 2915,
  "▁undeserved": 2916,
  "▁ሊቀ": 2917,
  "▁pharaoh": 2918,
  "▁አስቀድሞ": 2919,
  "▁እነዚያ": 2920,
  "▁በእግዚአብሄር": 2921,
  "▁meaning": 2922,
  "▁sovereign": 2923,
  "▁opportunity": 2924,
  "▁beginning": 2925,
  "▁ahead": 2926,
  "▁ፈተና": 2927,
  "▁happened": 2928,
  "▁believed": 2929,
  "▁member": 2930,
  "▁youth": 2931,
  "ብሩ": 2932,
  "▁mount": 2933,
  "▁የመጀመሪያ": 2934,
  "▁መጨረሻ": 2935,
  "▁ድርጅቶች": 2936,
  "▁ne": 2937,
  "▁ኣይነት": 2938,
  "▁አዳም": 2939,
  "▁claim": 2940,
  "R": 2941,
  "▁hour": 2942,
  "▁8.": 2943,
  "▁ለአንተ": 2944,
  "▁role": 2945,
  "▁No": 2946,
  "▁መጠበቅ": 2947,
  "▁ይችላል፧": 2948,
  "▁practice": 2949,
  "▁happen": 2950,
  "▁various": 2951,
  "▁houses": 2952,
  "▁እሷም": 2953,
  "▁የዘላለም": 2954,
  "ቻቸውን": 2955,
  "▁ያደ": 2956,
  "ገብ": 2957,
  "▁ማሳ": 2958,
  "▁እንስሳ": 2959,
  "ካቸው": 2960,
  "▁ጭንቀት": 2961,
  "▁ransom": 2962,
  "ራን": 2963,
  "▁አስር": 2964,
  "▁ተነስቶ": 2965,
  "▁revelation": 2966,
  "▁አለኝ": 2967,
  "▁flock": 2968,
  "▁ስልጠና": 2969,
  "▁ጓደኛ": 2970,
  "▁ኖህ": 2971,
  "▁ይኖራል": 2972,
  "ኝም": 2973,
  "▁መለስ": 2974,
  "▁ልጁን": 2975,
  "▁endure": 2976,
  "ቻችሁ": 2977,
  "▁followed": 2978,
  "▁record": 2979,
  "▁Let": 2980,
  "▁አይችልም": 2981,
  "▁39": 2982,
  "▁workers": 2983,
  "ዎችና": 2984,
  "▁destroyed": 2985,
  "▁Be": 2986,
  "▁ጻድቅ": 2987,
  "▁መጠቀም": 2988,
  "▁seeking": 2989,
  "▁የሰጠው": 2990,
  "▁involved": 2991,
  "▁discuss": 2992,
  "C": 2993,
  "▁ሆይ፥": 2994,
  "▁writing": 2995,
  "▁የሚገኘውን": 2996,
  "▁ጀ": 2997,
  "▁simply": 2998,
  "▁አስተሳሰብ": 2999,
  "▁ይኖርብናል": 3000,
  "ok": 3001,
  "▁girl": 3002,
  "▁household": 3003,
  "ነቱን": 3004,
  "▁ሰማያት": 3005,
  "▁sleep": 3006,
  "▁several": 3007,
  "▁ruin": 3008,
  "▁ለእነሱ": 3009,
  "▁አውራ": 3010,
  "▁powerful": 3011,
  "▁blessings": 3012,
  "▁completely": 3013,
  "▁promises": 3014,
  "▁ፕ": 3015,
  "▁ያወጣ": 3016,
  "▁apply": 3017,
  "▁ህሊና": 3018,
  "▁አድርግ": 3019,
  "▁ግንብ": 3020,
  "▁behalf": 3021,
  "▁የሰራዊት": 3022,
  "▁እንስሳት": 3023,
  "▁valley": 3024,
  "▁የሚኖር": 3025,
  "T": 3026,
  "▁encourage": 3027,
  "ምሩ": 3028,
  "▁advice": 3029,
  "▁ለመኖር": 3030,
  "ቻችን": 3031,
  "▁አድርጉ": 3032,
  "▁physical": 3033,
  "▁disease": 3034,
  "▁expect": 3035,
  "▁commandments": 3036,
  "▁discipline": 3037,
  "▁freedom": 3038,
  "▁practical": 3039,
  "▁መዛሙርት": 3040,
  "▁የሚያሳ": 3041,
  "▁እንደሚሆን": 3042,
  "▁የማስ": 3043,
  "▁bless": 3044,
  "▁write": 3045,
  "▁creator": 3046,
  "▁ማገልገል": 3047,
  "▁የጾታ": 3048,
  "▁samuel": 3049,
  "▁hall": 3050,
  "▁ቤ": 3051,
  "ቀን": 3052,
  "ችሗለሁ": 3053,
  "▁የተሰራ": 3054,
  "▁related": 3055,
  "ቀረቡ": 3056,
  "▁ሰይፍ": 3057,
  "ለህ።": 3058,
  "▁knowing": 3059,
  "▁የተባለ": 3060,
  "▁እንዲህም": 3061,
  "▁principle": 3062,
  "▁dream": 3063,
  "▁አድርጌ": 3064,
  "▁regard": 3065,
  "▁ሰዎችም": 3066,
  "▁ስቃይ": 3067,
  "▁በቤተ": 3068,
  "▁shepherd": 3069,
  "▁education": 3070,
  "▁response": 3071,
  "▁daily": 3072,
  "▁assigned": 3073,
  "▁ተናግሯል።": 3074,
  "▁ያደረገ": 3075,
  "▁agreement": 3076,
  "▁stones": 3077,
  "▁የሆኑትን": 3078,
  "▁ርኩስ": 3079,
  "▁አይን": 3080,
  "king": 3081,
  "▁exist": 3082,
  "▁pressure": 3083,
  "▁ይናገራል": 3084,
  "ላችሁ።": 3085,
  "▁gods": 3086,
  "ten": 3087,
  "▁10.": 3088,
  "▁ይላል፥": 3089,
  "▁sick": 3090,
  "▁እሷ": 3091,
  "▁letter": 3092,
  "▁ዲ": 3093,
  "ub": 3094,
  "▁exercise": 3095,
  "▁humble": 3096,
  "▁tribulation": 3097,
  "▁የገባ": 3098,
  "▁የጠ": 3099,
  "▁የስነ": 3100,
  "▁እዚያ": 3101,
  "▁perish": 3102,
  "▁የእሱን": 3103,
  "ጄ": 3104,
  "▁ብላለች": 3105,
  "▁እብ": 3106,
  "▁የአንድ": 3107,
  "▁je": 3108,
  "▁መኖሪያ": 3109,
  "▁አንድም": 3110,
  "ዮች": 3111,
  "▁ይላል።": 3112,
  "ነታችን": 3113,
  "▁natural": 3114,
  "▁changed": 3115,
  "▁page": 3116,
  "▁ዳር": 3117,
  "▁የመጨረሻ": 3118,
  "▁reported": 3119,
  "▁soldiers": 3120,
  "▁ኛው": 3121,
  "▁በቀላሉ": 3122,
  "▁ጥበቃ": 3123,
  "▁እርሱም": 3124,
  "▁ገዢ": 3125,
  "▁የሚገኝ": 3126,
  "▁3.": 3127,
  "ለት።": 3128,
  "▁5.": 3129,
  "▁gen": 3130,
  "▁sacred": 3131,
  "▁darkness": 3132,
  "▁ስላል": 3133,
  "ይሆዋ": 3134,
  "▁laid": 3135,
  "▁prayers": 3136,
  "▁prophecy": 3137,
  "▁inside": 3138,
  "▁M": 3139,
  "▁accordance": 3140,
  "▁ጋዜጣ": 3141,
  "▁wild": 3142,
  "▁bethel": 3143,
  "▁gather": 3144,
  "▁mine": 3145,
  "▁7.": 3146,
  "▁በሞት": 3147,
  "▁sit": 3148,
  "▁looked": 3149,
  "▁ምስራቅ": 3150,
  "▁ከንቱ": 3151,
  "ማቴ": 3152,
  "▁ተፈ": 3153,
  "▁ይቻላል": 3154,
  "▁ቀስ": 3155,
  "▁W": 3156,
  "▁finally": 3157,
  "▁ready": 3158,
  "▁የሚሆኑ": 3159,
  "▁ነገ": 3160,
  "▁ሂደት": 3161,
  "ለኝ": 3162,
  "▁ሃላፊ": 3163,
  "▁secret": 3164,
  "▁ግብ": 3165,
  "▁seeing": 3166,
  "▁ተሸ": 3167,
  "▁ይሆናል፤": 3168,
  "▁ቀጥሎ": 3169,
  "▁እንዳት": 3170,
  "▁ቢሮ": 3171,
  "▁neighbor": 3172,
  "▁ይሰጣል": 3173,
  "▁ይሰማ": 3174,
  "▁የነበሩትን": 3175,
  "▁ራሳችንን": 3176,
  "▁ባልና": 3177,
  "▁እርግጠኛ": 3178,
  "▁2.": 3179,
  "▁ጌ": 3180,
  "▁suffer": 3181,
  "ታል፤": 3182,
  "▁fast": 3183,
  "▁ከልብ": 3184,
  "▁መላው": 3185,
  "▁የተጠ": 3186,
  "▁በግብጽ": 3187,
  "▁cry": 3188,
  "▁mar": 3189,
  "▁rev": 3190,
  "▁establish": 3191,
  "▁What": 3192,
  "▁ስለማ": 3193,
  "▁ወስዶ": 3194,
  "▁ነፋስ": 3195,
  "▁peoples": 3196,
  "▁eye": 3197,
  "▁least": 3198,
  "▁notice": 3199,
  "▁በእኛ": 3200,
  "▁ወጥ": 3201,
  "way": 3202,
  "▁hast": 3203,
  "▁ስድስት": 3204,
  "ው፤": 3205,
  "▁single": 3206,
  "▁responsibility": 3207,
  "hu": 3208,
  "ow": 3209,
  "▁ረ": 3210,
  "▁ራ": 3211,
  "▁ሚሊዮን": 3212,
  "▁pioneer": 3213,
  "▁walking": 3214,
  "▁Ma": 3215,
  "▁reached": 3216,
  "▁እግዚአብሄርም": 3217,
  "▁ብሎም": 3218,
  "▁ሲናገር": 3219,
  "▁12.": 3220,
  "ማን": 3221,
  "▁manner": 3222,
  "▁መጥተው": 3223,
  "ሞን": 3224,
  "▁expressed": 3225,
  "▁ኮሚቴ": 3226,
  "▁creation": 3227,
  "▁spiritually": 3228,
  "▁ነበር፧": 3229,
  "▁ጥቅስ": 3230,
  "▁wood": 3231,
  "▁apart": 3232,
  "▁መጥ": 3233,
  "ድና": 3234,
  "▁ጊዜያት": 3235,
  "▁confidence": 3236,
  "▁explain": 3237,
  "▁ባለስልጣን": 3238,
  "▁accepted": 3239,
  "▁ሁለቱ": 3240,
  "▁ደንብ": 3241,
  "▁በመጨረሻም": 3242,
  "▁buy": 3243,
  "land": 3244,
  "▁ዘመ": 3245,
  "ities": 3246,
  "▁princes": 3247,
  "▁ሃይማኖት": 3248,
  "ካፈል": 3249,
  "▁leader": 3250,
  "▁ብሏል፥": 3251,
  "▁courage": 3252,
  "▁አድናቆት": 3253,
  "▁levites": 3254,
  "▁የእሱ": 3255,
  "▁6.": 3256,
  "▁conscience": 3257,
  "▁ከግብጽ": 3258,
  "▁pet": 3259,
  "ቤቱ": 3260,
  "▁ብለዋል": 3261,
  "▁proper": 3262,
  "▁inspired": 3263,
  "▁ተፈታታኝ": 3264,
  "▁ትውልድ": 3265,
  "▁መጥቶ": 3266,
  "▁አንብብ።": 3267,
  "▁ወራት": 3268,
  "▁ለህዝቡ": 3269,
  "▁የሚሰማ": 3270,
  "▁paradise": 3271,
  "▁efforts": 3272,
  "▁ተዋ": 3273,
  "up": 3274,
  "▁ያላ": 3275,
  "▁46": 3276,
  "ኖቹ": 3277,
  "ልናል": 3278,
  "▁ገነት": 3279,
  "▁ባሉ": 3280,
  "▁ሂ": 3281,
  "▁ያደርጋል።": 3282,
  "▁generation": 3283,
  "▁አየ": 3284,
  "▁seem": 3285,
  "▁አቅኚ": 3286,
  "▁grave": 3287,
  "com": 3288,
  "this": 3289,
  "▁ካህናቱ": 3290,
  "▁commission": 3291,
  "▁እስካሁን": 3292,
  "▁allowed": 3293,
  "▁ዘፍጥረት": 3294,
  "▁short": 3295,
  "ጠይቅ": 3296,
  "ጨረ": 3297,
  "▁ps": 3298,
  "▁ሁ": 3299,
  "▁ንግግር": 3300,
  "▁አስመልክቶ": 3301,
  "▁level": 3302,
  "▁ሆ": 3303,
  "▁ሜ": 3304,
  "▁answers": 3305,
  "▁express": 3306,
  "ከተል": 3307,
  "▁mate": 3308,
  "▁ሁለቱም": 3309,
  "ጠባ": 3310,
  "▁union": 3311,
  "▁trees": 3312,
  "ተፈጸመ": 3313,
  "▁blind": 3314,
  "▁20)": 3315,
  "በታል": 3316,
  "▁wonderful": 3317,
  "▁There": 3318,
  "▁sake": 3319,
  "P": 3320,
  "ex": 3321,
  "▁occasion": 3322,
  "N": 3323,
  "▁roman": 3324,
  "አንድ": 3325,
  "▁Saul": 3326,
  "matt": 3327,
  "▁appeal": 3328,
  "▁presence": 3329,
  "▁ከእርሱ": 3330,
  "▁events": 3331,
  "▁ህጉ": 3332,
  "▁trying": 3333,
  "▁fat": 3334,
  "▁respond": 3335,
  "▁ጆሮ": 3336,
  "▁program": 3337,
  "▁struggle": 3338,
  "▁ልማድ": 3339,
  "▁መርዳት": 3340,
  "▁ወታደራዊ": 3341,
  "▁experienced": 3342,
  "ረግ": 3343,
  "▁That": 3344,
  "▁raise": 3345,
  "▁አይቀርም": 3346,
  "▁sing": 3347,
  "▁committed": 3348,
  "ቶችን": 3349,
  "▁bow": 3350,
  "ፈሉ": 3351,
  "▁18)": 3352,
  "ዋጋ": 3353,
  "▁ሁለተኛው": 3354,
  "▁ምንኛ": 3355,
  "▁harm": 3356,
  "▁big": 3357,
  "▁earlier": 3358,
  "▁widow": 3359,
  "ቃል": 3360,
  "▁examples": 3361,
  "▁በስተቀር": 3362,
  "ዶቹ": 3363,
  "▁14.": 3364,
  "▁ሱ": 3365,
  "▁none": 3366,
  "▁አሳልፎ": 3367,
  "▁flee": 3368,
  "▁moreover": 3369,
  "አንተ": 3370,
  "▁lo": 3371,
  "▁warning": 3372,
  "M": 3373,
  "▁vow": 3374,
  "▁በይሆዋ": 3375,
  "▁ከእስራኤል": 3376,
  "▁የመጣ": 3377,
  "▁Ye": 3378,
  "ያዙ": 3379,
  "▁በቀር": 3380,
  "▁ልጄ": 3381,
  "▁instance": 3382,
  "▁prevent": 3383,
  "▁አድርጓል": 3384,
  "▁መሄድ": 3385,
  "▁እውነትን": 3386,
  "▁happiness": 3387,
  "▁ፍጥረታት": 3388,
  "▁ጭምር": 3389,
  "▁ship": 3390,
  "▁success": 3391,
  "line": 3392,
  "▁ተነሳ": 3393,
  "ታመን": 3394,
  "▁regular": 3395,
  "▁step": 3396,
  "▁በውሃ": 3397,
  "ተኛው": 3398,
  "▁entered": 3399,
  "▁bringing": 3400,
  "▁የብር": 3401,
  "▁Father": 3402,
  "▁friendship": 3403,
  "▁ተማሪዎች": 3404,
  "▁town": 3405,
  "▁effective": 3406,
  "▁ሳይቆይ": 3407,
  "▁ይችላል፡፡": 3408,
  "▁13.": 3409,
  "ያችሁ": 3410,
  "▁አብዛኛውን": 3411,
  "▁Aaron": 3412,
  "▁itself": 3413,
  "▁ለሰዎች": 3414,
  "▁skin": 3415,
  "▁አፈ": 3416,
  "▁fish": 3417,
  "▁room": 3418,
  "▁ይሆን፧": 3419,
  "▁ዝንባሌ": 3420,
  "▁ability": 3421,
  "▁አምላካችን": 3422,
  "▁ለሚያ": 3423,
  "▁bull": 3424,
  "▁ልጃችሁ": 3425,
  "▁assignment": 3426,
  "▁መደ": 3427,
  "ዳር": 3428,
  "▁ሌ": 3429,
  "▁knows": 3430,
  "▁በሆኑ": 3431,
  "▁አሮን": 3432,
  "▁thousands": 3433,
  "▁ስቴትስ": 3434,
  "▁ድንኳን": 3435,
  "▁white": 3436,
  "▁መግቢያ": 3437,
  "▁believers": 3438,
  "ህንም": 3439,
  "▁humility": 3440,
  "▁ህጋዊ": 3441,
  "▁ሆኜ": 3442,
  "▁አባቱ": 3443,
  "▁lion": 3444,
  "▁trouble": 3445,
  "▁ማሰብ": 3446,
  "▁ሜትር": 3447,
  "▁fill": 3448,
  "19": 3449,
  "እናንተ": 3450,
  "▁43": 3451,
  "▁changes": 3452,
  "▁ተናገረ": 3453,
  "▁Me": 3454,
  "▁ካህኑ": 3455,
  "▁ዝ": 3456,
  "▁እጁን": 3457,
  "▁run": 3458,
  "▁ዝም": 3459,
  "▁ቋንቋዎች": 3460,
  "▁james": 3461,
  "▁hu": 3462,
  "▁sabbath": 3463,
  "▁በመጠቀም": 3464,
  "▁R": 3465,
  "▁ቅጣት": 3466,
  "▁የሚችሉ": 3467,
  "▁territory": 3468,
  "▁ለአንድ": 3469,
  "▁ዶ": 3470,
  "▁እናት": 3471,
  "▁ተራ": 3472,
  "▁include": 3473,
  "በትና": 3474,
  "▁ግብዣ": 3475,
  "▁note": 3476,
  "▁እህል": 3477,
  "▁ሃዘን": 3478,
  "ረዳቸው": 3479,
  "▁17.": 3480,
  "But": 3481,
  "▁የተወሰነ": 3482,
  "ያዊ": 3483,
  "▁committee": 3484,
  "▁desires": 3485,
  "ቃችሁ": 3486,
  "▁lack": 3487,
  "▁11.": 3488,
  "▁beautiful": 3489,
  "▁ከሰማይ": 3490,
  "ሁ።": 3491,
  "▁path": 3492,
  "▁እንመልከት።": 3493,
  "▁ምክንያታዊ": 3494,
  "▁ማታ": 3495,
  "▁ልጆቻችሁ": 3496,
  "▁presented": 3497,
  "ችሁት": 3498,
  "▁hence": 3499,
  "▁ይገባል።": 3500,
  "ized": 3501,
  "▁ብሏል።": 3502,
  "▁ግዛት": 3503,
  "▁proclamation": 3504,
  "▁violence": 3505,
  "▁እንጨት": 3506,
  "▁የሚኖረው": 3507,
  "መታ": 3508,
  "▁congregations": 3509,
  "▁ቀኝ": 3510,
  "▁ቃሉን": 3511,
  "▁ያለንን": 3512,
  "ዳችሁ": 3513,
  "she": 3514,
  "▁ወንዝ": 3515,
  "▁እቅድ": 3516,
  "▁couple": 3517,
  "▁sort": 3518,
  "▁display": 3519,
  "▁text": 3520,
  "▁እንደምን": 3521,
  "▁affect": 3522,
  "▁እባክህ": 3523,
  "▁እቃዎች": 3524,
  "▁million": 3525,
  "ገላ": 3526,
  "▁አስጸያፊ": 3527,
  "▁ሰፊ": 3528,
  "▁ባለፈው": 3529,
  "▁develop": 3530,
  "so": 3531,
  "ዣ": 3532,
  "▁ወደዚያ": 3533,
  "▁firstborn": 3534,
  "▁ጉዞ": 3535,
  "▁(3": 3536,
  "▁areas": 3537,
  "▁seems": 3538,
  "▁የግል": 3539,
  "▁ስራውን": 3540,
  "▁የሚገባ": 3541,
  "▁16.": 3542,
  "ርዳ": 3543,
  "▁rescue": 3544,
  "▁action": 3545,
  "▁ደግ": 3546,
  "▁መልኩ": 3547,
  "▁represent": 3548,
  "▁actions": 3549,
  "▁ናችሁ": 3550,
  "▁ነፍስ": 3551,
  "▁standards": 3552,
  "▁የጉባኤ": 3553,
  "ብላ": 3554,
  "▁branch": 3555,
  "▁ምንጭ": 3556,
  "▁አስብ": 3557,
  "ቆዩ": 3558,
  "▁ትምህርቶች": 3559,
  "▁available": 3560,
  "▁heads": 3561,
  "old": 3562,
  "ስለ": 3563,
  "▁proved": 3564,
  "▁newspaper": 3565,
  "▁air": 3566,
  "▁ወጥቶ": 3567,
  "▁በገዛ": 3568,
  "],": 3569,
  "▁ብቃት": 3570,
  "ሮም": 3571,
  "▁greek": 3572,
  "▁በመካከላቸው": 3573,
  "▁እንዲያደርጉ": 3574,
  "▁የቤተሰብ": 3575,
  "▁fathers": 3576,
  "ነስ": 3577,
  "▁ሽማግሌ": 3578,
  "▁rock": 3579,
  "▁አድርገን": 3580,
  "▁L": 3581,
  "▁possess": 3582,
  "▁plant": 3583,
  "▁troops": 3584,
  "▁delight": 3585,
  "▁በህግ": 3586,
  "▁wonder": 3587,
  "▁goal": 3588,
  "▁takes": 3589,
  "▁የለውም።": 3590,
  "▁reasons": 3591,
  "▁At": 3592,
  "▁አስተዳደር": 3593,
  "ተደረገ": 3594,
  "▁saved": 3595,
  "▁influence": 3596,
  "▁15.": 3597,
  "እን": 3598,
  "▁12:": 3599,
  "▁ይህች": 3600,
  "▁ዘሮች": 3601,
  "▁19)": 3602,
  "▁tr": 3603,
  "▁ኩ": 3604,
  "▁wish": 3605,
  "▁broken": 3606,
  "▁ወዳጅነት": 3607,
  "▁unity": 3608,
  "▁belong": 3609,
  "▁የሚሰጥ": 3610,
  "▁descendants": 3611,
  "▁source": 3612,
  "0": 3613,
  "▁አንቺ": 3614,
  "▁ልቡ": 3615,
  "▁የኤርትራ": 3616,
  "▁wealth": 3617,
  "▁የገዛ": 3618,
  "▁par": 3619,
  "▁helping": 3620,
  "▁addition": 3621,
  "▁Se": 3622,
  "▁የፖለቲካ": 3623,
  "▁begin": 3624,
  "ረቡ": 3625,
  "▁ከብ": 3626,
  "▁eve": 3627,
  "▁አመጽ": 3628,
  "▁ተን": 3629,
  "ወለድ": 3630,
  "ቀሩ": 3631,
  "▁ነኝ።": 3632,
  "▁ለእስራኤል": 3633,
  "▁የሃጢአት": 3634,
  "▁firm": 3635,
  "ጳ": 3636,
  "▁board": 3637,
  "▁pursue": 3638,
  "▁ብዛት": 3639,
  "▁ኤልያስ": 3640,
  "gen": 3641,
  "▁በክርስቶስ": 3642,
  "▁የሌላቸው": 3643,
  "▁copper": 3644,
  "▁በምድረ": 3645,
  "▁አሉት።": 3646,
  "▁2)": 3647,
  "▁bo": 3648,
  "▁ያህዌም": 3649,
  "▁main": 3650,
  "▁23)": 3651,
  "▁በታማኝነት": 3652,
  "▁ማቅረብ": 3653,
  "▁21)": 3654,
  "▁በነበረበት": 3655,
  "▁su": 3656,
  "ቅር": 3657,
  "▁ተሞክሮ": 3658,
  "▁አደ": 3659,
  "▁journey": 3660,
  "▁በተደጋጋሚ": 3661,
  "▁individual": 3662,
  "▁ማርያም": 3663,
  "ሳችን": 3664,
  "▁እኛን": 3665,
  "▁መለሰ": 3666,
  "▁bodies": 3667,
  "▁becoming": 3668,
  "▁የወርቅ": 3669,
  "▁ብላ": 3670,
  "▁Co": 3671,
  "▁ይሆናሉ": 3672,
  "▁ነቢዩ": 3673,
  "▁አእምሮ": 3674,
  "▁showing": 3675,
  "ye": 3676,
  "▁አንድን": 3677,
  "▁ጢሞ": 3678,
  "▁sometimes": 3679,
  "▁የሚያደርጉት": 3680,
  "▁ደግነት": 3681,
  "▁sa": 3682,
  "▁getting": 3683,
  "▁'\"": 3684,
  "▁issued": 3685,
  "▁perform": 3686,
  "▁1914": 3687,
  "▁easy": 3688,
  "▁ቤተሰቦች": 3689,
  "▁ረጅም": 3690,
  "▁hundred": 3691,
  "ኖረ": 3692,
  "▁pointed": 3693,
  "der": 3694,
  "▁ዲያብሎስ": 3695,
  "▁በደንብ": 3696,
  "▁skill": 3697,
  "ሆናችሁ": 3698,
  "ላቸው።": 3699,
  "ት፣": 3700,
  "He": 3701,
  "▁ታማኝነት": 3702,
  "▁hearing": 3703,
  "▁late": 3704,
  "▁hurt": 3705,
  "▁ወጪ": 3706,
  "▁ባለቤት": 3707,
  "▁ቀይ": 3708,
  "▁arrived": 3709,
  "▁amount": 3710,
  "▁computer": 3711,
  "▁ነቢያት": 3712,
  "▁የውጭ": 3713,
  "▁የተመሰረተ": 3714,
  "▁ሄ": 3715,
  "▁ለብዙ": 3716,
  "▁አልነበረም።": 3717,
  "ጻፍ": 3718,
  "ም፡፡": 3719,
  "▁sat": 3720,
  "▁increase": 3721,
  "▁ይቅርታ": 3722,
  "ል፡፡": 3723,
  "ሉም": 3724,
  "▁እውነተኛው": 3725,
  "▁ለመጠበቅ": 3726,
  "▁ተጋ": 3727,
  "▁እንዳሉ": 3728,
  "▁ባቢሎን": 3729,
  "▁either": 3730,
  "▁ቅቡአን": 3731,
  "▁appreciate": 3732,
  "▁በእምነት": 3733,
  "▁መንጋ": 3734,
  "▁shown": 3735,
  "▁helps": 3736,
  "▁እንዳላቸው": 3737,
  "▁የገንዘብ": 3738,
  "ood": 3739,
  "▁slaves": 3740,
  "B": 3741,
  "▁ተጠያቂ": 3742,
  "▁የሚገልጽ": 3743,
  "ጠበቁ": 3744,
  "▁አለበት፡፡": 3745,
  "fully": 3746,
  "አብ": 3747,
  "▁activity": 3748,
  "▁ተደርጎ": 3749,
  "▁በተለያዩ": 3750,
  "▁ሰሜን": 3751,
  "ፈልገው": 3752,
  "▁romans": 3753,
  "▁eritrean": 3754,
  "▁putting": 3755,
  "▁አይነቱ": 3756,
  "▁እርሻ": 3757,
  "▁Jacob": 3758,
  "▁የሚባል": 3759,
  "▁አሜሪካ": 3760,
  "▁ጽ": 3761,
  "▁እንደነበረ": 3762,
  "▁ይገባ": 3763,
  "▁ህጎች": 3764,
  "▁ክፍያ": 3765,
  "▁ሌሎቹ": 3766,
  "ምሳሌ": 3767,
  "ያም": 3768,
  "▁ብታ": 3769,
  "▁አካ": 3770,
  "▁የይሆዋ": 3771,
  "▁appeared": 3772,
  "▁ሗላ": 3773,
  "▁በሁሉም": 3774,
  "▁18.": 3775,
  "▁በየእለቱ": 3776,
  "▁pure": 3777,
  "▁issues": 3778,
  "ራቸውን": 3779,
  "my": 3780,
  "For": 3781,
  "▁11:": 3782,
  "ably": 3783,
  "▁አስራ": 3784,
  "▁moral": 3785,
  "ya": 3786,
  "ton": 3787,
  "ካል": 3788,
  "ሰባ": 3789,
  "▁ምናልባትም": 3790,
  "▁promote": 3791,
  "▁steps": 3792,
  "▁እንግዲያው": 3793,
  "▁አጠ": 3794,
  "▁ካሉ": 3795,
  "▁ዘዴ": 3796,
  "▁meal": 3797,
  "▁strike": 3798,
  "▁ተቃውሞ": 3799,
  "▁rose": 3800,
  "ወት": 3801,
  "ም፧": 3802,
  "▁የሚያደርጉ": 3803,
  "▁administration": 3804,
  "▁entrance": 3805,
  "▁deeds": 3806,
  "▁የተወ": 3807,
  "▁አልፈ": 3808,
  "▁አሸ": 3809,
  "ይል": 3810,
  "▁Judah": 3811,
  "▁grew": 3812,
  "▁የያዘ": 3813,
  "▁ቅን": 3814,
  "▁play": 3815,
  "▁የጌታ": 3816,
  "▁አድርገህ": 3817,
  "▁ነበረ": 3818,
  "መልስ": 3819,
  "▁ማለ": 3820,
  "▁ክስ": 3821,
  "ቶቼ": 3822,
  "▁eight": 3823,
  "ible": 3824,
  "▁appreciation": 3825,
  "▁በላ": 3826,
  "▁መፍትሄ": 3827,
  "▁ከስራ": 3828,
  "▁የጤና": 3829,
  "▁የሚያሳዩ": 3830,
  "ላክ": 3831,
  "▁final": 3832,
  "▁treat": 3833,
  "▁በታላቅ": 3834,
  "▁የሚኖሩት": 3835,
  "▁ማስጠንቀቂያ": 3836,
  "▁memorial": 3837,
  "▁እንዲኖር": 3838,
  "▁shame": 3839,
  "▁አድርጋችሁ": 3840,
  "▁thine": 3841,
  "▁ግብጽ": 3842,
  "▁remained": 3843,
  "▁languages": 3844,
  "▁sources": 3845,
  "▁ሳምንት": 3846,
  "▁ቻይ": 3847,
  "▁research": 3848,
  "ያቸውን": 3849,
  "▁store": 3850,
  "▁የራስ": 3851,
  "▁መፈጸም": 3852,
  "ሸሽ": 3853,
  "▁mary": 3854,
  "▁jo": 3855,
  "▁መመልከት": 3856,
  "▁አገዛዝ": 3857,
  "▁aware": 3858,
  "▁ለመስራት": 3859,
  "▁ያደረ": 3860,
  "ወሰን": 3861,
  "▁መከተል": 3862,
  "ግድ": 3863,
  "▁የሚቃጠል": 3864,
  "▁ሃያል": 3865,
  "▁የውሃ": 3866,
  "▁plan": 3867,
  "▁ሳን": 3868,
  "▁ገብቶ": 3869,
  "▁An": 3870,
  "▁danger": 3871,
  "▁agree": 3872,
  "ላይ": 3873,
  "▁ስርአቶች": 3874,
  "▁older": 3875,
  "▁አና": 3876,
  "▁የባህር": 3877,
  "▁realize": 3878,
  "▁55": 3879,
  "▁expected": 3880,
  "▁ራስህን": 3881,
  "▁condition": 3882,
  "▁added": 3883,
  "▁On": 3884,
  "ታዘዙ": 3885,
  "▁ሄዋን": 3886,
  "▁ገልጿል።": 3887,
  "▁garden": 3888,
  "▁object": 3889,
  "▁pleasure": 3890,
  "eph": 3891,
  "▁elder": 3892,
  "▁ከምድር": 3893,
  "▁10:": 3894,
  "▁ግለሰብ": 3895,
  "▁ሸለቆ": 3896,
  "መሳ": 3897,
  "▁addis": 3898,
  "▁lands": 3899,
  "▁eventually": 3900,
  "▁festival": 3901,
  "▁ወንጀል": 3902,
  "▁ታቦት": 3903,
  "▁remove": 3904,
  "ከናወን": 3905,
  "▁party": 3906,
  "▁col": 3907,
  "▁ያደረጉት": 3908,
  "▁መስፈርቶች": 3909,
  "▁ዝርዝር": 3910,
  "▁actually": 3911,
  "▁መሳሪያዎች": 3912,
  "▁greatly": 3913,
  "▁ጀመረ": 3914,
  ".'\"": 3915,
  "▁መያዝ": 3916,
  "cha": 3917,
  "▁አፍሪካ": 3918,
  "▁ጴጥ": 3919,
  "ping": 3920,
  "▁aid": 3921,
  "ሎቹ": 3922,
  "▁portion": 3923,
  "▁lose": 3924,
  "▁ጠላት": 3925,
  "▁አብሮ": 3926,
  "በቁ": 3927,
  "▁elijah": 3928,
  "▁key": 3929,
  "▁የሚገባው": 3930,
  "▁አገኘ": 3931,
  "▁የእግዚአብሄር": 3932,
  "▁correct": 3933,
  "▁awake": 3934,
  "▁medical": 3935,
  "▁መውሰድ": 3936,
  "▁አፍቃሪ": 3937,
  "▁ህገ": 3938,
  "▁የቀረበ": 3939,
  "▁ሳራ": 3940,
  "▁defense": 3941,
  "▁encouragement": 3942,
  "▁የተሰሩ": 3943,
  "▁የዳዊት": 3944,
  "▁የተዘጋጀ": 3945,
  "▁worker": 3946,
  "▁ጠራ": 3947,
  "ቤል": 3948,
  "▁provisions": 3949,
  "▁በእድሜ": 3950,
  "▁የሚከተለውን": 3951,
  "▁ሁለተኛ": 3952,
  "ልጅ": 3953,
  "▁greatest": 3954,
  "▁ሜዳ": 3955,
  "▁progress": 3956,
  "▁ማረጋገጫ": 3957,
  "▁በሁለቱ": 3958,
  "▁date": 3959,
  "▁charge": 3960,
  "▁በተመሳሳይም": 3961,
  "በትም": 3962,
  "▁በድ": 3963,
  "▁contain": 3964,
  "▁አምላካችሁ": 3965,
  "ቶቹን": 3966,
  "▁hair": 3967,
  "ነውን": 3968,
  "▁ኬ": 3969,
  "▁N": 3970,
  "ew": 3971,
  "▁Federal": 3972,
  "▁የእስራኤልን": 3973,
  "▁interests": 3974,
  "▁አባታችን": 3975,
  "ቺ": 3976,
  "▁ማድረጋችን": 3977,
  "▁ብሄራዊ": 3978,
  "▁ፈርኦን": 3979,
  "▁dust": 3980,
  "▁choice": 3981,
  "▁ears": 3982,
  "▁organ": 3983,
  "▁ብርቱ": 3984,
  "▁financial": 3985,
  "▁መጠየቅ": 3986,
  "▁exile": 3987,
  "▁የሰራ": 3988,
  "▁ወይን": 3989,
  "መካ": 3990,
  "የም": 3991,
  "▁መሃል": 3992,
  "▁Indeed": 3993,
  "▁የእኔ": 3994,
  "▁declare": 3995,
  "▁judges": 3996,
  "ጉባኤ": 3997,
  "▁ባሪያዎች": 3998,
  "ቀኝ": 3999,
  "▁ገል": 4000,
  "▁Ba": 4001,
  "▁beloved": 4002,
  "▁ዘመናት": 4003,
  "▁moment": 4004,
  "▁refuge": 4005,
  "▁signs": 4006,
  "▁አካባቢዎች": 4007,
  "▁አለው፥": 4008,
  "▁ይኖርብናል።": 4009,
  "▁jordan": 4010,
  "▁positive": 4011,
  "▁አዲሱ": 4012,
  "▁በመሄድ": 4013,
  "▁warm": 4014,
  "▁forget": 4015,
  "▁እንደሌለ": 4016,
  "son": 4017,
  "▁ነገረ": 4018,
  "▁picture": 4019,
  "▁22)": 4020,
  "▁released": 4021,
  "▁አመጣ": 4022,
  "▁improve": 4023,
  "▁መኪና": 4024,
  "አንቀጽ": 4025,
  "▁ወዳጅ": 4026,
  "▁hebrew": 4027,
  "▁image": 4028,
  "▁design": 4029,
  "▁በአጠቃላይ": 4030,
  "▁compassion": 4031,
  "▁48": 4032,
  "▁pit": 4033,
  "▁ችላ": 4034,
  "ሼ": 4035,
  "ጸባ": 4036,
  "▁ከላይ": 4037,
  "▁ጠብ": 4038,
  "▁መቋቋም": 4039,
  "▁ሲደርስ": 4040,
  "▁የሚሆነው": 4041,
  "▁higher": 4042,
  "▁leading": 4043,
  "▁fulfill": 4044,
  "▁faced": 4045,
  "▁የህግ": 4046,
  "ረዝ": 4047,
  "▁Any": 4048,
  "ረጃ": 4049,
  "D": 4050,
  "▁art": 4051,
  "▁የወጣ": 4052,
  "▁ሙያ": 4053,
  "▁ብዙውን": 4054,
  "time": 4055,
  "tes": 4056,
  "▁ይኖር": 4057,
  "▁አውቃለሁ": 4058,
  "ነገር": 4059,
  "▁personality": 4060,
  "!'": 4061,
  "▁animal": 4062,
  "▁ሃይለኛ": 4063,
  "▁ይናገራል።": 4064,
  "▁likewise": 4065,
  "▁type": 4066,
  "▁ማህበር": 4067,
  "ጥፋት": 4068,
  "▁ፈጣሪ": 4069,
  "▁እነርሱ": 4070,
  "▁ጉዳዩን": 4071,
  "ዲያ": 4072,
  "▁በትክክል": 4073,
  "ቋቋመ": 4074,
  "▁በሚገኝ": 4075,
  "▁ማንበብ": 4076,
  "ሰሩት": 4077,
  "ሞቹ": 4078,
  "▁ጉዳዩ": 4079,
  "▁regularly": 4080,
  "▁relations": 4081,
  "▁appear": 4082,
  "ችሗል።": 4083,
  "▁አለን": 4084,
  "▁punishment": 4085,
  "▁ካሉት": 4086,
  "▁ነገሩ": 4087,
  "▁measures": 4088,
  "▁ልባቸው": 4089,
  "▁ትዳር": 4090,
  "በታል።": 4091,
  "▁አንዱን": 4092,
  "ሩም": 4093,
  "▁district": 4094,
  "▁ተግሳጽ": 4095,
  "▁trade": 4096,
  "▁De": 4097,
  "▁ከሰው": 4098,
  "▁groups": 4099,
  "▁ሉአላዊው": 4100,
  "ተላለፍ": 4101,
  "▁እያንዳንዳቸው": 4102,
  "▁ር": 4103,
  "▁ጽሁፎች": 4104,
  "lin": 4105,
  "▁በትእግስት": 4106,
  "▁concerned": 4107,
  "▁የትኛው": 4108,
  "▁asking": 4109,
  "▁በሰይፍ": 4110,
  "▁እንዳለበት": 4111,
  "▁የትኞቹ": 4112,
  "▁gifts": 4113,
  "▁worshippers": 4114,
  "▁Authority": 4115,
  "▁economic": 4116,
  "▁honest": 4117,
  "ቸዋለህ": 4118,
  "▁wickedness": 4119,
  "▁recently": 4120,
  "▁ስራው": 4121,
  "ize": 4122,
  "bu": 4123,
  "▁ጥቅሶች": 4124,
  "▁ዘወትር": 4125,
  "▁ሰቅል": 4126,
  "ለማ": 4127,
  "▁ዝናብ": 4128,
  "ዝን": 4129,
  "▁መሪነት": 4130,
  "▁All": 4131,
  "▁ያልሆኑ": 4132,
  "▁በት": 4133,
  "▁በጥንት": 4134,
  "▁ደመና": 4135,
  "▁challenges": 4136,
  "▁ቀጥ": 4137,
  "▁drive": 4138,
  "▁qu": 4139,
  "▁ከቤተ": 4140,
  "▁eating": 4141,
  "ሴት": 4142,
  "ኖራቸው": 4143,
  "▁ጸሃፊ": 4144,
  "ማቴዎስ": 4145,
  "▁አገልጋዮቹ": 4146,
  "▁garment": 4147,
  "▁concern": 4148,
  "▁collect": 4149,
  "▁attempt": 4150,
  "▁ወደሗላ": 4151,
  "▁ሶ": 4152,
  "▁unless": 4153,
  "rom": 4154,
  "▁foot": 4155,
  "▁revealed": 4156,
  "▁ጨለማ": 4157,
  "▁ወንድሞቹ": 4158,
  "ወሰዱ": 4159,
  "▁7:": 4160,
  "▁seventh": 4161,
  "▁ቀረ": 4162,
  "▁departed": 4163,
  "▁ሙሴም": 4164,
  "▁bed": 4165,
  "▁challenge": 4166,
  "▁calamity": 4167,
  "▁simple": 4168,
  "▁ውጤታማ": 4169,
  "▁ሃይሎች": 4170,
  "▁ንስሃ": 4171,
  "▁ወደዚህ": 4172,
  "▁ልመና": 4173,
  "▁ይሆናል፡፡": 4174,
  "▁እዳ": 4175,
  "▁ዳዊትን": 4176,
  "▁lies": 4177,
  "ግን": 4178,
  "▁ይኸው": 4179,
  "▁My": 4180,
  "▁harvest": 4181,
  "▁ፕሮግራም": 4182,
  "▁ህይወታችን": 4183,
  "ዎቻቸው": 4184,
  "▁invited": 4185,
  "▁ሪ": 4186,
  "▁patience": 4187,
  "▁ትህትና": 4188,
  "▁benefits": 4189,
  "▁ሆን": 4190,
  "▁sell": 4191,
  "▁eli": 4192,
  "▁thanks": 4193,
  "▁ፋ": 4194,
  "▁covered": 4195,
  "▁list": 4196,
  "▁ጨርሶ": 4197,
  "▁እንድንችል": 4198,
  "▁ለፊት": 4199,
  "▁train": 4200,
  "▁feeling": 4201,
  "ሗቸው": 4202,
  "out": 4203,
  "▁le": 4204,
  "▁behold": 4205,
  "▁ተነስተው": 4206,
  "▁philistines": 4207,
  "▁registered": 4208,
  "▁ጥሪ": 4209,
  "▁በእርሱ": 4210,
  "▁ብን": 4211,
  "▁modern": 4212,
  "▁የምትችለው": 4213,
  "▁ምሽት": 4214,
  "▁pieces": 4215,
  "▁sides": 4216,
  "ative": 4217,
  "▁worked": 4218,
  "▁learning": 4219,
  "ለች፤": 4220,
  "▁One": 4221,
  "▁ወሬ": 4222,
  "▁spouse": 4223,
  "▁ሰማ": 4224,
  "▁brings": 4225,
  "▁ይላሉ": 4226,
  "▁መስሪያ": 4227,
  "▁የቅ": 4228,
  "▁አግባብ": 4229,
  "▁እንዳስ": 4230,
  "▁በጉ": 4231,
  "▁ግለሰቡ": 4232,
  "▁Abraham": 4233,
  "▁divine": 4234,
  "▁ማበረታቻ": 4235,
  "▁Ar": 4236,
  "▁የለበትም": 4237,
  "▁ran": 4238,
  "▁ሂድ": 4239,
  "▁የተሰጠ": 4240,
  "▁calling": 4241,
  "▁ያሳያል": 4242,
  "▁cross": 4243,
  "▁approval": 4244,
  "▁በሚል": 4245,
  "▁bond": 4246,
  "ቶቻችን": 4247,
  "what": 4248,
  "▁መላ": 4249,
  "ችበት": 4250,
  "▁የዚህን": 4251,
  "▁ሚስቱ": 4252,
  "▁በመንግስት": 4253,
  "▁የጎደለው": 4254,
  "አይ": 4255,
  "▁company": 4256,
  "▁ፍርሃት": 4257,
  "▁assist": 4258,
  "▁በነጻ": 4259,
  "▁team": 4260,
  "▁cup": 4261,
  "▁throw": 4262,
  "ለህ፧": 4263,
  "▁basis": 4264,
  "▁ቅድሚያ": 4265,
  "▁የአየር": 4266,
  "▁ቀርቶ": 4267,
  "▁arrangement": 4268,
  "▁millions": 4269,
  "▁ዋ": 4270,
  "▁ምድረ": 4271,
  "▁ኪሎ": 4272,
  "ረቅ": 4273,
  "▁እናቴ": 4274,
  "▁ጥላቻ": 4275,
  "▁social": 4276,
  "▁አካላት": 4277,
  "▁escape": 4278,
  "▁carefully": 4279,
  "lie": 4280,
  "▁ልጆችን": 4281,
  "▁top": 4282,
  "by": 4283,
  "▁earthly": 4284,
  "▁ድርጊቶች": 4285,
  "▁ዳቦ": 4286,
  "ጨው": 4287,
  "▁reasonable": 4288,
  "ተቀመጠ": 4289,
  "▁ሰብ": 4290,
  "▁በማንኛውም": 4291,
  "▁እኔና": 4292,
  "▁vi": 4293,
  "▁feed": 4294,
  "▁thereof": 4295,
  "▁Son": 4296,
  "▁ብል": 4297,
  "▁custom": 4298,
  "▁smoke": 4299,
  "▁በፍጥነት": 4300,
  "▁ለይሆዋ": 4301,
  "▁እስር": 4302,
  "▁forgiveness": 4303,
  "▁አሉት": 4304,
  "▁keeping": 4305,
  "▁ሲመጣ": 4306,
  "▁የሆነችው": 4307,
  "▁removed": 4308,
  "▁middle": 4309,
  "▁ነቢይ": 4310,
  "▁ብርታት": 4311,
  "ላቸዋል": 4312,
  "▁ልዩነት": 4313,
  "▁described": 4314,
  "▁ጀመር።": 4315,
  "ፎች": 4316,
  "▁attend": 4317,
  "▁የተሰጠው": 4318,
  "▁ዳዊትም": 4319,
  "ኑም": 4320,
  "▁ደን": 4321,
  "▁flood": 4322,
  "▁scriptural": 4323,
  "▁የህክምና": 4324,
  "▁በፊቱ": 4325,
  "▁affection": 4326,
  "▁ነው፣": 4327,
  "▁granted": 4328,
  "▁guidance": 4329,
  "▁በፍጹም": 4330,
  "▁convention": 4331,
  "▁dr": 4332,
  "▁cost": 4333,
  "▁ከመጽሃፍ": 4334,
  "▁ግቢ": 4335,
  "▁General": 4336,
  "▁anxiety": 4337,
  "▁quality": 4338,
  "▁aside": 4339,
  "▁የሚቀርብ": 4340,
  "▁ጠየቀ": 4341,
  "▁እረኛ": 4342,
  "▁cloud": 4343,
  "▁ግንባር": 4344,
  "▁ወንድሞችና": 4345,
  "▁ያህዌ፣": 4346,
  "▁address": 4347,
  "▁ደህንነት": 4348,
  "▁ነበሩ፤": 4349,
  "▁አይሆንም": 4350,
  "▁ያለበት": 4351,
  "▁ህመም": 4352,
  "▁ልቤ": 4353,
  "▁female": 4354,
  "▁price": 4355,
  "▁jewish": 4356,
  "▁ሁኔታው": 4357,
  "▁bank": 4358,
  "▁በምድሪቱ": 4359,
  "ka": 4360,
  "▁የሰማ": 4361,
  "፡": 4362,
  "▁ቀና": 4363,
  "▁pride": 4364,
  "▁ቅርንጫፍ": 4365,
  "▁curse": 4366,
  "▁በገባ": 4367,
  "▁ፕሬዚዳንት": 4368,
  "▁አየር": 4369,
  "▁በኢ": 4370,
  "▁ከቤት": 4371,
  "▁Who": 4372,
  "▁occur": 4373,
  "▁hezekiah": 4374,
  "▁disaster": 4375,
  "▁ተርፎም": 4376,
  "▁ግምት": 4377,
  "rd": 4378,
  "▁አያስ": 4379,
  "ወል": 4380,
  "▁እናገኛለን": 4381,
  "▁isaac": 4382,
  "▁moab": 4383,
  "▁Paul": 4384,
  "▁እንዲችሉ": 4385,
  "ጣጣ": 4386,
  "▁articles": 4387,
  "▁flow": 4388,
  "▁bar": 4389,
  "▁ሄደ።": 4390,
  "▁non": 4391,
  "▁እንደሆንኩ": 4392,
  "▁ገልጿል": 4393,
  "▁ሚስ": 4394,
  "▁hours": 4395,
  "▁ለመፈጸም": 4396,
  "▁አለበት።": 4397,
  "▁courtyard": 4398,
  "▁replied": 4399,
  "ከናወኑ": 4400,
  "▁ውጊያ": 4401,
  "▁vital": 4402,
  "▁እንደሚችሉ": 4403,
  "ጠይቀው": 4404,
  "▁ሄዶ": 4405,
  "▁የማድረግ": 4406,
  "እንደ": 4407,
  "▁የእህል": 4408,
  "▁idea": 4409,
  "▁ክር": 4410,
  "▁እግዚአብሄርን": 4411,
  "▁ይሆዋን": 4412,
  "ላችሁ፤": 4413,
  "▁ጉባኤዎች": 4414,
  "መደብ": 4415,
  "▁grand": 4416,
  "▁ምክንያቶች": 4417,
  "▁post": 4418,
  "▁ደቡብ": 4419,
  "▁sinned": 4420,
  "▁ያውቃል": 4421,
  "▁den": 4422,
  "▁ለመረዳት": 4423,
  "▁ያለፈ": 4424,
  "▁ክፋት": 4425,
  "ቋቋም": 4426,
  "▁recorded": 4427,
  "▁ልጆቻቸው": 4428,
  "prov": 4429,
  "▁መዋጮ": 4430,
  "▁በሚገኙ": 4431,
  "▁guide": 4432,
  "▁ኢን": 4433,
  "now": 4434,
  "▁eritrea": 4435,
  "▁ከሆነው": 4436,
  "▁ሁለቱን": 4437,
  "▁የተወሰኑ": 4438,
  "▁relatives": 4439,
  "ple": 4440,
  "ያቀርቡ": 4441,
  "▁dry": 4442,
  "▁wash": 4443,
  "▁chapter": 4444,
  "▁conflict": 4445,
  "▁vineyard": 4446,
  "▁property": 4447,
  "ጪ": 4448,
  "ወርድ": 4449,
  "▁create": 4450,
  "▁ያለባቸው": 4451,
  "▁አደረጉ": 4452,
  "▁አዘጋጅ": 4453,
  "john": 4454,
  "▁declared": 4455,
  "▁ኤርትራ": 4456,
  "ham": 4457,
  "▁tribes": 4458,
  "▁በረከቶች": 4459,
  "▁ጥበበኛ": 4460,
  "▁risk": 4461,
  "▁በሉ": 4462,
  "ገዱ": 4463,
  "▁rom": 4464,
  "▁du": 4465,
  "ታዘዝ": 4466,
  "▁conditions": 4467,
  "▁parts": 4468,
  "▁ባለሙያዎች": 4469,
  "▁guilt": 4470,
  "▁closer": 4471,
  "▁creatures": 4472,
  "▁realized": 4473,
  "▁Board": 4474,
  "▁tax": 4475,
  "▁ወሰደ": 4476,
  "▁accomplish": 4477,
  "የን": 4478,
  "▁pillars": 4479,
  "▁13:": 4480,
  "▁ሰላማዊ": 4481,
  "▁ቁጥጥር": 4482,
  "▁በህዝብ": 4483,
  "▁recognize": 4484,
  "▁የመጣው": 4485,
  "▁anti": 4486,
  "▁እግር": 4487,
  "▁ህዝቡም": 4488,
  "▁ዘገባዎች": 4489,
  "▁famine": 4490,
  "▁አዳዲስ": 4491,
  "▁የሚረዱ": 4492,
  "▁አድር": 4493,
  "▁limit": 4494,
  "▁deliver": 4495,
  "▁reign": 4496,
  "▁ሃሳቦች": 4497,
  "▁የአንተ": 4498,
  "▁65": 4499,
  "ላችሗል": 4500,
  "▁መማር": 4501,
  "▁harmony": 4502,
  "▁sanctuary": 4503,
  "▁university": 4504,
  "▁ቋሚ": 4505,
  "▁አስታ": 4506,
  "▁ዝቅ": 4507,
  "▁መስክ": 4508,
  "▁foretold": 4509,
  "▁insight": 4510,
  "▁አይኖርም": 4511,
  "day": 4512,
  "▁patient": 4513,
  "▁clothing": 4514,
  "ሰበሰቡ": 4515,
  "▁corruption": 4516,
  "▁stopped": 4517,
  "▁1990": 4518,
  "▁explains": 4519,
  "▁እንደሚገባ": 4520,
  "▁ትሰ": 4521,
  "▁yesterday": 4522,
  "▁win": 4523,
  "▁direct": 4524,
  "▁በፍቅር": 4525,
  "▁ኤሊ": 4526,
  "▁dear": 4527,
  "▁በሰዎች": 4528,
  "▁ዎቹ": 4529,
  "▁class": 4530,
  "▁bitter": 4531,
  "▁sarah": 4532,
  "▁mental": 4533,
  "እምነ": 4534,
  "▁burn": 4535,
  "▁fulfilled": 4536,
  "▁የተባለች": 4537,
  "▁reject": 4538,
  "ability": 4539,
  "▁deeply": 4540,
  "▁ለመቀበል": 4541,
  "▁መንግስቱ": 4542,
  "ወልድ": 4543,
  "▁How": 4544,
  "▁ስጋት": 4545,
  "▁riches": 4546,
  "▁After": 4547,
  "▁contribution": 4548,
  "▁ዛፎች": 4549,
  "▁wave": 4550,
  "ኸኝ": 4551,
  "▁አባባል": 4552,
  "▁teachings": 4553,
  "▁የካ": 4554,
  "▁በአገልግሎት": 4555,
  "ናል፤": 4556,
  "▁Where": 4557,
  "▁ወሰን": 4558,
  "▁የዩ።ኤስ": 4559,
  "▁prayed": 4560,
  "▁private": 4561,
  "▁ምርምር": 4562,
  "▁ዘላቂ": 4563,
  "▁sovereignty": 4564,
  "▁ለእግዚአብሄር": 4565,
  "▁ጥላ": 4566,
  "▁ሳት": 4567,
  "act": 4568,
  "work": 4569,
  "▁በሰላም": 4570,
  "▁plague": 4571,
  "▁stress": 4572,
  "▁በህይወታችን": 4573,
  "▁በሙሴ": 4574,
  "▁convinced": 4575,
  "▁pour": 4576,
  "▁ይረዳናል": 4577,
  "▁አንዳች": 4578,
  "▁required": 4579,
  "▁ይህንን": 4580,
  "▁ካሳ": 4581,
  "▁እናንተን": 4582,
  "▁ተባ": 4583,
  "▁division": 4584,
  "▁threat": 4585,
  "▁ለማቅረብ": 4586,
  "▁መግዛት": 4587,
  "▁በድጋሚ": 4588,
  "▁oath": 4589,
  "▁ባላቸው": 4590,
  "▁ተማ": 4591,
  "▁practices": 4592,
  "of": 4593,
  "▁won": 4594,
  "▁results": 4595,
  "ጠሉ": 4596,
  "▁fled": 4597,
  "▁የሚደርስ": 4598,
  "▁original": 4599,
  "▁successful": 4600,
  "▁በጸሎት": 4601,
  "▁ስትል": 4602,
  "▁goes": 4603,
  "▁መስማት": 4604,
  "ልከው": 4605,
  "▁adult": 4606,
  "▁succeed": 4607,
  "▁ጉድጓድ": 4608,
  "▁አደገኛ": 4609,
  "▁ምስሎች": 4610,
  "▁አሰራር": 4611,
  "▁የበግ": 4612,
  "▁ቅጥር": 4613,
  "▁ሚና": 4614,
  "▁ልጆቻቸውን": 4615,
  "ez": 4616,
  "ከበሩ": 4617,
  "▁names": 4618,
  "አምላካችን": 4619,
  "▁donkey": 4620,
  "▁በራሳቸው": 4621,
  "▁ሚስተር": 4622,
  "▁ይኖርበታል": 4623,
  "▁american": 4624,
  "▁ንቁ": 4625,
  "▁walked": 4626,
  "gar": 4627,
  "▁በመቶ": 4628,
  "▁የሰላም": 4629,
  "▁commit": 4630,
  "▁የኢየሱስን": 4631,
  "▁ምስጋና": 4632,
  "▁almost": 4633,
  "▁እነርሱም": 4634,
  "▁spend": 4635,
  "▁ቁርጥ": 4636,
  "▁መቀበል": 4637,
  "▁ታላቁ": 4638,
  "ሉቃስ": 4639,
  "▁burning": 4640,
  "▁acknowledge": 4641,
  "▁በጥንቃቄ": 4642,
  "▁አስተያየት": 4643,
  "▁እጣ": 4644,
  "▁ደስተኞች": 4645,
  "▁አየሁ": 4646,
  "▁ባለቤቴ": 4647,
  "▁tower": 4648,
  "ረዳት": 4649,
  "ሮቻቸው": 4650,
  "▁otherwise": 4651,
  "▁ለመጀመሪያ": 4652,
  "▁አንዳቸው": 4653,
  "▁አለባቸው": 4654,
  "▁ይሁን።": 4655,
  "▁cultivate": 4656,
  "▁election": 4657,
  "▁እርግጠኞች": 4658,
  "▁ይሄዳል": 4659,
  "▁ይኖራሉ": 4660,
  "▁ቆሞ": 4661,
  "▁ምርት": 4662,
  "▁ከተማዋ": 4663,
  "▁association": 4664,
  "ገንዘብ": 4665,
  "ቋቸው": 4666,
  "▁studying": 4667,
  "▁ካር": 4668,
  "▁gates": 4669,
  "▁accurate": 4670,
  "▁demonstrate": 4671,
  "▁root": 4672,
  "▁ለማሳየት": 4673,
  "▁የፍርድ": 4674,
  "▁goals": 4675,
  "▁ተብለው": 4676,
  "▁proclaim": 4677,
  "ቸው፤": 4678,
  "▁እያሉ": 4679,
  "▁caught": 4680,
  "▁ካልሆነ": 4681,
  "▁ድፍረት": 4682,
  "▁በመሰዊያው": 4683,
  "▁peaceful": 4684,
  "▁ባለሙያ": 4685,
  "▁የአገልግሎት": 4686,
  "▁refused": 4687,
  "▁From": 4688,
  "▁የራሱን": 4689,
  "▁ንጉሱም": 4690,
  "▁horses": 4691,
  "▁baptism": 4692,
  "▁ephraim": 4693,
  "▁defend": 4694,
  "▁ብልግና": 4695,
  "▁damage": 4696,
  "▁ውሎ": 4697,
  "▁የሚገኙት": 4698,
  "▁teenager": 4699,
  "izing": 4700,
  "▁ሁኑ": 4701,
  "▁parent": 4702,
  "▁በመጣ": 4703,
  "▁commandment": 4704,
  "▁ቢኖር": 4705,
  "20": 4706,
  "▁St": 4707,
  "▁imperfect": 4708,
  "▁greet": 4709,
  "▁satisfied": 4710,
  "▁ጸሃይ": 4711,
  "▁የአባ": 4712,
  "▁አምላኬ": 4713,
  "ብት": 4714,
  "▁lying": 4715,
  "▁ዛሬም": 4716,
  "▁እንደምታ": 4717,
  "▁mention": 4718,
  "▁የመንግስቱ": 4719,
  "▁conversation": 4720,
  "▁illustrate": 4721,
  "▁ማዳበር": 4722,
  "▁stake": 4723,
  "▁employment": 4724,
  "▁ይዟል": 4725,
  "ድል": 4726,
  "▁loss": 4727,
  "▁His": 4728,
  "በተ": 4729,
  "ገለጸ": 4730,
  "▁የለ": 4731,
  "▁አቅም": 4732,
  "▁rejected": 4733,
  "▁project": 4734,
  "▁ምእራፍ": 4735,
  "▁ዝግጁ": 4736,
  "▁እናውቃለን": 4737,
  "▁ሰኣት": 4738,
  "▁በእውነት": 4739,
  "▁አደርጋለሁ": 4740,
  "▁becomes": 4741,
  "▁song": 4742,
  "▁ከህዝቡ": 4743,
  "ቍ": 4744,
  "▁ሪፖርት": 4745,
  "▁ተራሮች": 4746,
  "▁loyalty": 4747,
  "▁24)": 4748,
  "▁ስማ": 4749,
  "▁ጠቅላይ": 4750,
  "▁1)": 4751,
  "ላላ": 4752,
  "▁dec": 4753,
  "▁ያደርግ": 4754,
  "▁ምኞት": 4755,
  "▁አቀረበ": 4756,
  "▁center": 4757,
  "▁ትችላላችሁ": 4758,
  "▁secure": 4759,
  "▁travel": 4760,
  "▁low": 4761,
  "▁አጣ": 4762,
  "▁በዚያው": 4763,
  "▁magazine": 4764,
  "▁violent": 4765,
  "▁sitting": 4766,
  "▁protection": 4767,
  "▁indicate": 4768,
  "▁loves": 4769,
  "▁term": 4770,
  "▁color": 4771,
  "▁situations": 4772,
  "▁She": 4773,
  "▁worldwide": 4774,
  "▁ምርመራ": 4775,
  "▁እረፍት": 4776,
  "ቃሉ": 4777,
  "ki": 4778,
  "▁acted": 4779,
  "▁poured": 4780,
  "▁Joseph": 4781,
  "▁capital": 4782,
  "▁ውይይት": 4783,
  "▁እኩል": 4784,
  "▁fulfillment": 4785,
  "ነቴ": 4786,
  "▁25)": 4787,
  "▁መክ": 4788,
  "▁ወዮ": 4789,
  "▁chose": 4790,
  "▁crime": 4791,
  "▁nevertheless": 4792,
  "▁patriarch": 4793,
  "▁wrath": 4794,
  "▁Thou": 4795,
  "▁እውቅና": 4796,
  "▁ምድሪቱን": 4797,
  "▁enable": 4798,
  "▁ውሃው": 4799,
  "▁Z": 4800,
  "▁ጥር": 4801,
  "▁በወጣ": 4802,
  "▁አይደለም፤": 4803,
  "▁confident": 4804,
  "▁gilead": 4805,
  "▁nature": 4806,
  "▁ቂጣ": 4807,
  "▁zion": 4808,
  "▁add": 4809,
  "ተዉ": 4810,
  "▁release": 4811,
  "▁ስላለ": 4812,
  "▁ውሳኔዎች": 4813,
  "ታለሁ": 4814,
  "▁buried": 4815,
  "▁genuine": 4816,
  "▁spent": 4817,
  "▁village": 4818,
  "▁ሰብአዊ": 4819,
  "▁የተጠቀሰው": 4820,
  "▁የመንግስቱን": 4821,
  "▁doesn": 4822,
  "▁straight": 4823,
  "▁content": 4824,
  "▁ልባችን": 4825,
  "▁red": 4826,
  "▁አድሮ": 4827,
  "መስል": 4828,
  "▁foundation": 4829,
  "▁የንጉሱ": 4830,
  "▁ማጥናት": 4831,
  "▁በከፍተኛ": 4832,
  "▁debt": 4833,
  "▁ቢያንስ": 4834,
  "▁ትሁት": 4835,
  "▁አለ፧": 4836,
  "▁assyria": 4837,
  "▁permanent": 4838,
  "▁የተናገረውን": 4839,
  "▁elisha": 4840,
  "▁ብዙዎቹ": 4841,
  "▁ምናልባት": 4842,
  "▁ከደ": 4843,
  "▁provides": 4844,
  "▁ለሁሉም": 4845,
  "▁የሰጠውን": 4846,
  "▁benjamin": 4847,
  "▁duties": 4848,
  "▁labor": 4849,
  "▁በግለሰብ": 4850,
  "▁አንደኛው": 4851,
  "▁አደረገ።": 4852,
  "▁እንዲሰማ": 4853,
  "▁ህዝቤ": 4854,
  "▁waiting": 4855,
  "ወለዱ": 4856,
  "▁ምድሪቱ": 4857,
  "kin": 4858,
  "▁generations": 4859,
  "▁bones": 4860,
  "▁ኢሳ": 4861,
  "▁ሚኒስቴር": 4862,
  "▁በአንድነት": 4863,
  "are": 4864,
  "▁ናቸው፧": 4865,
  "ፍል": 4866,
  "iel": 4867,
  "ታችሁን": 4868,
  "ማውያን": 4869,
  "▁demand": 4870,
  "▁በቀጥታ": 4871,
  "▁passover": 4872,
  "▁መዝሙሮች": 4873,
  "▁seemed": 4874,
  "▁Mi": 4875,
  "▁ear": 4876,
  "▁እንቅፋት": 4877,
  "▁እርምጃዎች": 4878,
  "▁fun": 4879,
  "▁ስለነበረ": 4880,
  "▁ካላ": 4881,
  "▁ጽዋ": 4882,
  "▁inter": 4883,
  "▁መጡ": 4884,
  "▁ገልጸዋል።": 4885,
  "▁እንደዚህ": 4886,
  "▁ትእዛዛት": 4887,
  "▁በፊትህ": 4888,
  "▁የአካል": 4889,
  "▁birds": 4890,
  "▁ሆና": 4891,
  "▁meat": 4892,
  "▁injustice": 4893,
  "▁obedient": 4894,
  "▁lesson": 4895,
  "▁ኑ": 4896,
  "▁ያደርጋሉ": 4897,
  "▁ያየ": 4898,
  "▁ይሆናሉ።": 4899,
  "▁ክብ": 4900,
  "▁ሰጣቸው": 4901,
  "አባቴ": 4902,
  "▁regulations": 4903,
  "▁lamb": 4904,
  "▁በተለይም": 4905,
  "▁ሆነን": 4906,
  "acts": 4907,
  "▁responsible": 4908,
  "▁በጠ": 4909,
  "▁sow": 4910,
  "▁professional": 4911,
  "▁ruler": 4912,
  "▁ሾ": 4913,
  "(": 4914,
  "▁ሚኒስትር": 4915,
  "▁አስተማማኝ": 4916,
  "▁However": 4917,
  "▁safety": 4918,
  "▁አወጣ": 4919,
  "▁trials": 4920,
  "▁ደዌ": 4921,
  "▁books": 4922,
  "▁africa": 4923,
  "▁provision": 4924,
  "▁ያነሳ": 4925,
  "መዝሙር": 4926,
  "▁prejudice": 4927,
  "▁procedure": 4928,
  "▁ተልእኮ": 4929,
  "▁በመቀጠል": 4930,
  "▁wound": 4931,
  "▁sold": 4932,
  "▁ሊያደርግ": 4933,
  "▁thank": 4934,
  "▁ምንጮች": 4935,
  "▁parties": 4936,
  "ጌታዬ": 4937,
  "▁ዴ": 4938,
  "▁west": 4939,
  "መንግስቱ": 4940,
  "▁ቶ": 4941,
  "▁ጌታዬ": 4942,
  "▁አነስተኛ": 4943,
  "▁race": 4944,
  "▁ያጠፋ": 4945,
  "▁በህዝቡ": 4946,
  "▁talking": 4947,
  "▁carrying": 4948,
  "▁consequences": 4949,
  "▁በመጨረሻ": 4950,
  "ough": 4951,
  "▁እንጀራ": 4952,
  "▁weak": 4953,
  "አሁን": 4954,
  "▁habit": 4955,
  "▁ሀሳብ": 4956,
  "ታማኝ": 4957,
  "▁መቃብር": 4958,
  "some": 4959,
  "▁አይገባም": 4960,
  "▁accused": 4961,
  "▁እንዳለባቸው": 4962,
  "▁መጽሄት": 4963,
  "▁ምስል": 4964,
  "▁secretary": 4965,
  "▁march": 4966,
  "▁ለመሆኑ": 4967,
  "▁advance": 4968,
  "▁weeks": 4969,
  "▁ባላ": 4970,
  "አባ": 4971,
  "▁exchange": 4972,
  "▁መገኘት": 4973,
  "▁ግለሰቦች": 4974,
  "▁media": 4975,
  "▁interested": 4976,
  "▁season": 4977,
  "▁መጨረሻው": 4978,
  "▁remaining": 4979,
  "▁እንቅስቃሴዎች": 4980,
  "▁አዘ": 4981,
  "▁ነጭ": 4982,
  "▁terror": 4983,
  "▁ህክምና": 4984,
  "▁ፈቃደኞች": 4985,
  "This": 4986,
  "ፈቱ": 4987,
  "▁15:": 4988,
  "▁formed": 4989,
  "▁መሸ": 4990,
  "▁ህዝቅያስ": 4991,
  "▁joined": 4992,
  "▁ላለው": 4993,
  "▁mu": 4994,
  "ኛል፤": 4995,
  "▁calls": 4996,
  "▁sam": 4997,
  "ana": 4998,
  "▁seat": 4999,
  "30": 5000,
  "▁በማሰብ": 5001,
  "▁regret": 5002,
  "▁ያስፈልገናል": 5003,
  "▁calm": 5004,
  "▁cell": 5005,
  "▁organized": 5006,
  "▁ጅ": 5007,
  "▁በቀስ": 5008,
  "▁services": 5009,
  "500": 5010,
  "▁ለመሄድ": 5011,
  "የቅ": 5012,
  "ኵ": 5013,
  "▁በደቡብ": 5014,
  "▁Sh": 5015,
  "▁ተሳ": 5016,
  "ጣችሁ": 5017,
  "▁የማን": 5018,
  "መጠ": 5019,
  "▁leg": 5020,
  "▁remains": 5021,
  "▁beast": 5022,
  "▁trial": 5023,
  "ኚ": 5024,
  "▁centuries": 5025,
  "▁literature": 5026,
  "▁የእነዚህ": 5027,
  "▁አይችልም።": 5028,
  "when": 5029,
  "▁የባእድ": 5030,
  "▁ሰፈሩ": 5031,
  "▁Therefore": 5032,
  "▁conducted": 5033,
  "ገለጠ": 5034,
  "▁belongs": 5035,
  "use": 5036,
  "▁contract": 5037,
  "▁understood": 5038,
  "▁የሚፈልጉ": 5039,
  "▁loud": 5040,
  "▁በዚሁ": 5041,
  "▁አካሄድ": 5042,
  "▁ወፎች": 5043,
  "▁አዎ፣": 5044,
  "▁ተነስ": 5045,
  "▁ቤቱን": 5046,
  "ላቸዋል።": 5047,
  "▁የቤት": 5048,
  "▁ሆነ።": 5049,
  "▁ይኖርባቸዋል": 5050,
  "▁የሚወዱ": 5051,
  "▁8:": 5052,
  "ዎቻችን": 5053,
  "▁rod": 5054,
  "▁ያላት": 5055,
  "▁cases": 5056,
  "▁የሃይማኖት": 5057,
  "▁ድር": 5058,
  "▁iron": 5059,
  "▁civil": 5060,
  "▁negative": 5061,
  "▁እናደርጋለን": 5062,
  "▁እንደሚቻለው": 5063,
  "▁ዋስትና": 5064,
  "▁ትላልቅ": 5065,
  "▁መብቶች": 5066,
  "▁ደረሰ": 5067,
  "▁የሚሆኑት": 5068,
  "▁የስጋ": 5069,
  "▁shout": 5070,
  "▁tears": 5071,
  "▁በሬ": 5072,
  "▁24:": 5073,
  "▁የከተማ": 5074,
  "▁desert": 5075,
  "▁የተያያዙ": 5076,
  "▁ያስገኛል": 5077,
  "▁accounts": 5078,
  "▁decide": 5079,
  "▁listening": 5080,
  "▁fallen": 5081,
  "▁አድርጓል።": 5082,
  "▁በነበረው": 5083,
  "▁major": 5084,
  "▁ይጨምራል": 5085,
  "▁ባህል": 5086,
  "▁leadership": 5087,
  "▁arm": 5088,
  "gan": 5089,
  "ጠጡ": 5090,
  "▁ጽፏል": 5091,
  "▁እንዲያገኙ": 5092,
  "ዛሬ": 5093,
  "▁contrast": 5094,
  "▁divorce": 5095,
  "▁prospect": 5096,
  "▁spring": 5097,
  "▁የሃሰት": 5098,
  "▁paid": 5099,
  "▁miles": 5100,
  "ስልጣን": 5101,
  "▁በሰማያት": 5102,
  "50": 5103,
  "▁እነሆ፣": 5104,
  "▁finished": 5105,
  "▁ነው፥": 5106,
  "▁ርህራሄ": 5107,
  "▁ብሩ": 5108,
  "▁ጄ": 5109,
  "▁ታላላቅ": 5110,
  "▁አንችልም": 5111,
  "▁lasting": 5112,
  "▁ሲሄድ": 5113,
  "▁ህይወቱን": 5114,
  "▁አይቀርም።": 5115,
  "responsibilities": 5116,
  "▁spake": 5117,
  "▁stumble": 5118,
  "▁ብላለች፥": 5119,
  "▁regional": 5120,
  "▁አምላክ፣": 5121,
  "▁የሌላ": 5122,
  "▁ስለማይ": 5123,
  "▁ተከታዮቹ": 5124,
  "▁culture": 5125,
  "▁innocent": 5126,
  "▁የተለያየ": 5127,
  "▁በመገናኛ": 5128,
  "▁arise": 5129,
  "▁ነበረ።": 5130,
  "▁እንዳለብን": 5131,
  "how": 5132,
  "ነቃ": 5133,
  "▁የሚገቡ": 5134,
  "▁manifest": 5135,
  "▁በሃይል": 5136,
  "▁ተቀምጦ": 5137,
  "▁ruth": 5138,
  "▁ተቋም": 5139,
  "▁47": 5140,
  "ፊዎች": 5141,
  "article": 5142,
  "▁በአይነ": 5143,
  "▁የተሰማ": 5144,
  "▁rep": 5145,
  "▁አይደሉም": 5146,
  "▁brethren": 5147,
  "▁criminal": 5148,
  "▁ታውቃላችሁ": 5149,
  "▁ድንጋዮች": 5150,
  "▁ይሰጠናል": 5151,
  "▁ትችላለህ።": 5152,
  "ህዝቡ": 5153,
  "ኮል": 5154,
  "እሱ": 5155,
  "▁27)": 5156,
  "▁መቆጣጠር": 5157,
  "▁እንድናደርግ": 5158,
  "▁task": 5159,
  "▁በደረሰ": 5160,
  "▁ያሳያል።": 5161,
  "▁heb": 5162,
  "▁encouraged": 5163,
  "▁አግ": 5164,
  "▁በከተማ": 5165,
  "▁አነሳ": 5166,
  "▁placed": 5167,
  "▁አለማ": 5168,
  "▁14:": 5169,
  "▁submit": 5170,
  "▁አይነ": 5171,
  "▁ባህሩ": 5172,
  "▁ፋንታ": 5173,
  "▁island": 5174,
  "ራውያን": 5175,
  "▁የጽድቅ": 5176,
  "▁የተገኘ": 5177,
  "▁ሄደው": 5178,
  "▁causes": 5179,
  "▁ስደት": 5180,
  "▁organizations": 5181,
  "ያደርግ": 5182,
  "▁linen": 5183,
  "\"?": 5184,
  "▁discern": 5185,
  "▁Ministry": 5186,
  "▁appearance": 5187,
  "▁black": 5188,
  "▁integrity": 5189,
  "▁atonement": 5190,
  "▁northern": 5191,
  "▁ከእነርሱ": 5192,
  "▁ከአዲስ": 5193,
  "▁መረጃዎች": 5194,
  "▁Israelites": 5195,
  "▁associate": 5196,
  "ሪክ": 5197,
  "▁D": 5198,
  "ምነው": 5199,
  "ቃለ": 5200,
  "▁Minister": 5201,
  "▁ማድረጉ": 5202,
  "▁worse": 5203,
  "▁ጠርቶ": 5204,
  "▁market": 5205,
  "▁ምርጥ": 5206,
  "ቤተሰባችን": 5207,
  "▁ጠዋት": 5208,
  "▁Na": 5209,
  "U": 5210,
  "▁upright": 5211,
  "▁gun": 5212,
  "▁tenth": 5213,
  "▁ያመጣ": 5214,
  "▁ባሏ": 5215,
  "ጮች": 5216,
  "▁1998": 5217,
  "▁በፈቃደኝነት": 5218,
  "▁ይልቁንም": 5219,
  "▁ዮናታን": 5220,
  "▁detestable": 5221,
  "▁temptation": 5222,
  "▁ያለብን": 5223,
  "▁ሃሴት": 5224,
  "▁sad": 5225,
  "▁28)": 5226,
  "▁ከሆኑት": 5227,
  "▁ራሴ": 5228,
  "ሰጣችሁ": 5229,
  "▁reports": 5230,
  "▁የሚያሰ": 5231,
  "▁ሁሉ፣": 5232,
  "▁percent": 5233,
  "▁ግንዛቤ": 5234,
  "▁ወሳኝ": 5235,
  "▁ተሰምቶ": 5236,
  "▁additional": 5237,
  "▁አቢ": 5238,
  "▁younger": 5239,
  "▁2001": 5240,
  "▁ወዲያው": 5241,
  "▁17:": 5242,
  "luke": 5243,
  "▁ኮሪያ": 5244,
  "▁resurrected": 5245,
  "▁ዘላለማዊ": 5246,
  "▁ሌዋውያኑ": 5247,
  "▁ቆመ": 5248,
  "▁psalms": 5249,
  "እውነት": 5250,
  "▁በኮ": 5251,
  "▁idols": 5252,
  "▁lips": 5253,
  "▁ሃይማኖታዊ": 5254,
  "▁resist": 5255,
  "▁existence": 5256,
  "▁የእውነተኛው": 5257,
  "▁ጻድቃን": 5258,
  "▁እንከን": 5259,
  "ራሉ።": 5260,
  "▁ነበረች": 5261,
  "▁separate": 5262,
  "▁ይናገራሉ": 5263,
  "▁afterward": 5264,
  "▁failed": 5265,
  "▁ተዘ": 5266,
  "▁burned": 5267,
  "▁meditate": 5268,
  "▁በግዞት": 5269,
  "▁ከሁለት": 5270,
  "▁immorality": 5271,
  "▁ገቢ": 5272,
  "like": 5273,
  "▁እንድንሆን": 5274,
  "▁ይጠራ": 5275,
  "▁ጉባኤው": 5276,
  "▁sincere": 5277,
  "ጕ": 5278,
  "▁consult": 5279,
  "▁manasseh": 5280,
  "▁ለማስወገድ": 5281,
  "▁ወንድሞቻችን": 5282,
  "▁marry": 5283,
  "▁ለማጥፋት": 5284,
  "▁አቅራቢያ": 5285,
  "▁depart": 5286,
  "▁reveal": 5287,
  "▁engage": 5288,
  "▁preached": 5289,
  "▁praying": 5290,
  "▁በምሳሌ": 5291,
  "▁ራሴን": 5292,
  "▁seal": 5293,
  "▁breath": 5294,
  "▁campaign": 5295,
  "▁communication": 5296,
  "▁የሚሰራ": 5297,
  "▁የሚባለው": 5298,
  "▁አብረን": 5299,
  "▁ገላ": 5300,
  "ነፋ": 5301,
  "▁ከልክ": 5302,
  "▁pioneers": 5303,
  "▁ill": 5304,
  "isa": 5305,
  "▁ነጥቦች": 5306,
  "▁ተናገር": 5307,
  "▁ይሰማኛል": 5308,
  "vo": 5309,
  "▁station": 5310,
  "▁hebrews": 5311,
  "ቆጠሩ": 5312,
  "ያደርገው": 5313,
  "▁tells": 5314,
  "▁በውስጡ": 5315,
  "▁plain": 5316,
  "ነበብ": 5317,
  "▁treasure": 5318,
  "▁አንተስ": 5319,
  "ኮች": 5320,
  "▁goats": 5321,
  "H": 5322,
  "▁የሚረዳ": 5323,
  "▁community": 5324,
  "▁ርእሶች": 5325,
  "▁እንመለከታለን": 5326,
  "▁strive": 5327,
  "▁ታውቃለህ": 5328,
  "▁መርከብ": 5329,
  "▁ገደብ": 5330,
  "▁ተመለሱ": 5331,
  "▁obtain": 5332,
  "▁ዘፍ": 5333,
  "▁warned": 5334,
  "▁join": 5335,
  "ሃል፤": 5336,
  "▁enjoyed": 5337,
  "▁teachers": 5338,
  "L": 5339,
  "▁handed": 5340,
  "▁ተመልካች": 5341,
  "▁cattle": 5342,
  "▁distance": 5343,
  "▁story": 5344,
  "▁ተከታዮች": 5345,
  "▁ፖሊስ": 5346,
  "▁ነበራቸው": 5347,
  "▁dispute": 5348,
  "▁suddenly": 5349,
  "▁ፈር": 5350,
  "▁These": 5351,
  "▁እንደሆነና": 5352,
  "▁weapons": 5353,
  "▁ጀመረ።": 5354,
  "hol": 5355,
  "▁በጌታ": 5356,
  "▁እንግዳ": 5357,
  "▁ይረዳናል።": 5358,
  "▁incense": 5359,
  "▁virgin": 5360,
  "▁ያውቃሉ": 5361,
  "▁በሮች": 5362,
  "መለሰ": 5363,
  "▁central": 5364,
  "▁studies": 5365,
  "▁መጽሀፍ": 5366,
  "▁ማህበረሰብ": 5367,
  "▁ሊሆኑ": 5368,
  "▁ድንቅ": 5369,
  "▁ያገኘ": 5370,
  "▁ban": 5371,
  "▁faithfulness": 5372,
  "▁በቃል": 5373,
  "በዙ": 5374,
  "▁ግድ": 5375,
  "▁plans": 5376,
  "▁ተቀመጠ": 5377,
  "▁similarly": 5378,
  "▁Addis": 5379,
  "▁በተወሰነ": 5380,
  "▁በእጅጉ": 5381,
  "▁discussion": 5382,
  "▁divided": 5383,
  "him": 5384,
  "▁ባስ": 5385,
  "▁corrupt": 5386,
  "▁moving": 5387,
  "▁ኤልሳእ": 5388,
  "▁ተመልሶ": 5389,
  "▁ግጭት": 5390,
  "▁መግባት": 5391,
  "▁ሰጥቶ": 5392,
  "▁Go": 5393,
  "▁quite": 5394,
  "▁expression": 5395,
  "▁እንዲኖራቸው": 5396,
  "▁የቀድሞ": 5397,
  "▁ራሳችሁን": 5398,
  "▁ቲ": 5399,
  "▁abandoned": 5400,
  "▁ብላችሁ": 5401,
  "▁fighting": 5402,
  "▁ባለበት": 5403,
  "▁እንደሚከተለው": 5404,
  "▁የቅርብ": 5405,
  "▁round": 5406,
  "▁ውጪ": 5407,
  "▁በርሳቸው": 5408,
  "▁suffered": 5409,
  "▁touch": 5410,
  "▁ወዳለው": 5411,
  "▁ያሳየው": 5412,
  "▁ኡ": 5413,
  "▁app": 5414,
  "ነትና": 5415,
  "▁jonathan": 5416,
  "▁leaving": 5417,
  "▁እርካታ": 5418,
  "▁ጩኸት": 5419,
  "▁ጸንቶ": 5420,
  "▁ሰራዊቱ": 5421,
  "▁እንደገለጸው": 5422,
  "▁shepherds": 5423,
  "▁included": 5424,
  "▁ሃዋርያት": 5425,
  "▁ቶሎ": 5426,
  "▁መጋ": 5427,
  "▁ahab": 5428,
  "▁worth": 5429,
  "▁ከብዙ": 5430,
  "▁አደረ": 5431,
  "▁የሳይንስ": 5432,
  "▁stick": 5433,
  "▁ነገሰ": 5434,
  "▁ነውና።": 5435,
  "▁የጉባኤው": 5436,
  "▁ስላለው": 5437,
  "▁እስራኤላውያንን": 5438,
  "▁እብራውያን": 5439,
  "▁ውብ": 5440,
  "▁hide": 5441,
  "▁ቀድሞ": 5442,
  "If": 5443,
  "▁dark": 5444,
  "▁ትናንት": 5445,
  "▁authorities": 5446,
  "▁እንዳለን": 5447,
  "▁refuse": 5448,
  "ያት": 5449,
  "▁ዋነኛ": 5450,
  "▁produced": 5451,
  "▁29)": 5452,
  "▁teaches": 5453,
  "▁ይችላል፤": 5454,
  "ሌት": 5455,
  "▁boast": 5456,
  "▁በውጭ": 5457,
  "▁ወለደ": 5458,
  "▁300": 5459,
  "▁ከሁሉም": 5460,
  "ውሉ": 5461,
  "▁በአካባቢው": 5462,
  "▁እንዳላ": 5463,
  "▁acquire": 5464,
  "▁አመስጋኝ": 5465,
  "▁እየጨመረ": 5466,
  "▁በተግባር": 5467,
  "▁በሁለት": 5468,
  "▁inner": 5469,
  "▁da": 5470,
  "ብሄራት": 5471,
  "▁governing": 5472,
  "▁personally": 5473,
  "▁recent": 5474,
  "▁publications": 5475,
  "▁depend": 5476,
  "▁burden": 5477,
  "▁gospel": 5478,
  "▁grateful": 5479,
  "▁science": 5480,
  "▁ከጥቂት": 5481,
  "▁glad": 5482,
  "▁ያደርጉ": 5483,
  "▁መቀጠል": 5484,
  "▁slow": 5485,
  "▁የሚያስተ": 5486,
  "▁ባለፉት": 5487,
  "▁governor": 5488,
  "▁fourth": 5489,
  "▁የሚረዳን": 5490,
  "▁ይመስላል": 5491,
  "▁በተመሳሳይ": 5492,
  "▁(4": 5493,
  "ተዳደር": 5494,
  "ቶቻችሁ": 5495,
  "▁ላሉት": 5496,
  "▁በትር": 5497,
  "ንቀሳቀስ": 5498,
  "▁silent": 5499,
  "▁በሚቀጥለው": 5500,
  "▁እንዲኖረን": 5501,
  "▁መብላት": 5502,
  "▁ንድፍ": 5503,
  "▁Di": 5504,
  "▁በሚስማማ": 5505,
  "▁stayed": 5506,
  "▁መድሃኒት": 5507,
  "▁የሞቱ": 5508,
  "▁phil": 5509,
  "▁ጥንታዊ": 5510,
  "▁bound": 5511,
  "▁ኒው": 5512,
  "▁ጤናማ": 5513,
  "መልኩ": 5514,
  "▁setting": 5515,
  "▁advantage": 5516,
  "▁watchtower": 5517,
  "▁ለረጅም": 5518,
  "▁ኣላማ": 5519,
  "▁blow": 5520,
  "▁የምግብ": 5521,
  "▁በምታ": 5522,
  "▁ሄዱ": 5523,
  "ሃት": 5524,
  "▁ጋሻ": 5525,
  "▁nearly": 5526,
  "▁touched": 5527,
  "ከብር": 5528,
  "▁ስሙን": 5529,
  "▁devour": 5530,
  "▁obligation": 5531,
  "▁ውጥረት": 5532,
  "▁እውነታ": 5533,
  "ጠባበቅ": 5534,
  "▁ጫፍ": 5535,
  "▁19.": 5536,
  "▁አፈር": 5537,
  "▁paragraph": 5538,
  "▁እናቱ": 5539,
  "▁አይችሉም": 5540,
  "▁pleased": 5541,
  "▁በማሳ": 5542,
  "▁ሰጠው": 5543,
  "▁Mo": 5544,
  "▁መዳን": 5545,
  "▁አንበሳ": 5546,
  "▁traveling": 5547,
  "▁ታዛዥ": 5548,
  "▁across": 5549,
  "▁catholic": 5550,
  "▁desolate": 5551,
  "▁ኣመታት": 5552,
  "መለካከ": 5553,
  "▁ሊኖር": 5554,
  "▁አጽና": 5555,
  "▁ማከናወን": 5556,
  "ዘጋጅ": 5557,
  "ound": 5558,
  "ju": 5559,
  "▁remind": 5560,
  "▁ልጅ፣": 5561,
  "▁clergy": 5562,
  "▁እንደዚሁ": 5563,
  "ቋረጥ": 5564,
  "▁safe": 5565,
  "▁employer": 5566,
  "▁ንግድ": 5567,
  "▁guilty": 5568,
  "▁51": 5569,
  "▁ከተማዋን": 5570,
  "▁ደር": 5571,
  "▁ጀመሩ": 5572,
  "▁strengthened": 5573,
  "▁ካህኑም": 5574,
  "▁equal": 5575,
  "▁ሲሆኑ": 5576,
  "▁wings": 5577,
  "▁ስምንት": 5578,
  "▁አይታ": 5579,
  "▁godly": 5580,
  "▁ራስን": 5581,
  "▁gal": 5582,
  "▁eph": 5583,
  "▁እጽ": 5584,
  "▁Peter": 5585,
  "▁identify": 5586,
  "▁ምልክቶች": 5587,
  "▁House": 5588,
  "▁እስራት": 5589,
  "▁ገበያ": 5590,
  "▁አላስ": 5591,
  "F": 5592,
  "▁ሁኔታዎችን": 5593,
  "▁ለእስራኤላውያን": 5594,
  "▁completed": 5595,
  "▁ለሌላ": 5596,
  "▁49": 5597,
  "▁ጠላቶች": 5598,
  "uff": 5599,
  "▁ብለዋል።": 5600,
  "▁ቁሳዊ": 5601,
  "እርሷ": 5602,
  "▁treated": 5603,
  "▁ግል": 5604,
  "▁እስካ": 5605,
  "▁worthy": 5606,
  "▁ወይ": 5607,
  "▁reside": 5608,
  "▁የምናደርገው": 5609,
  "▁ልባዊ": 5610,
  "▁ከሰዎች": 5611,
  "▁publishers": 5612,
  "▁American": 5613,
  "▁grant": 5614,
  "ዘፍ": 5615,
  "▁ማቅ": 5616,
  "▁ራሳቸው": 5617,
  "▁አካሉ": 5618,
  "ፐ": 5619,
  "▁english": 5620,
  "▁livestock": 5621,
  "▁እንቅልፍ": 5622,
  "▁ምትክ": 5623,
  "▁ነገዶች": 5624,
  "ቷቸው": 5625,
  "▁includes": 5626,
  "▁80": 5627,
  "▁suggest": 5628,
  "jehovah": 5629,
  "▁(3)": 5630,
  "▁particular": 5631,
  "▁ፍልስጤማውያን": 5632,
  "ያእቆብ": 5633,
  "▁የሰማይ": 5634,
  "▁የሚከተሉት": 5635,
  "▁ነበረው": 5636,
  "▁facing": 5637,
  "▁Jews": 5638,
  "▁angry": 5639,
  "ከፋፈል": 5640,
  "▁ለመናገር": 5641,
  "▁እንዲኖሩ": 5642,
  "▁weight": 5643,
  "▁ዩ": 5644,
  "▁ከነበሩት": 5645,
  "ስድስት": 5646,
  "ሰማያት": 5647,
  "▁ባየ": 5648,
  "▁እነሆ፥": 5649,
  "▁የምንለው": 5650,
  "▁ያው": 5651,
  "▁Commission": 5652,
  "▁rejoicing": 5653,
  "▁ቡድኖች": 5654,
  "▁90": 5655,
  "ክህነት": 5656,
  "▁Te": 5657,
  "▁በከተማዋ": 5658,
  "▁ሚስቶች": 5659,
  "ዘሩ": 5660,
  "says": 5661,
  "▁broke": 5662,
  "▁careful": 5663,
  "▁(13": 5664,
  "▁እንቁ": 5665,
  "▁testimony": 5666,
  "▁በአብዛኛው": 5667,
  "▁music": 5668,
  "▁በስጋ": 5669,
  "▁አለብን": 5670,
  "▁faces": 5671,
  "▁እስራኤልን": 5672,
  "ዮሃንስ": 5673,
  "▁lifted": 5674,
  "▁ጆ": 5675,
  "ዪ": 5676,
  "▁energy": 5677,
  "▁receiving": 5678,
  "▁በባህር": 5679,
  "▁ሞክር": 5680,
  "▁የያእቆብ": 5681,
  "▁ክፉዎች": 5682,
  "▁ለመቋቋም": 5683,
  "▁የቀሩት": 5684,
  "▁ሊባል": 5685,
  "▁ሁኔታውን": 5686,
  "ወስደው": 5687,
  "▁Ad": 5688,
  "▁የሃዋርያት": 5689,
  "ች፤": 5690,
  "▁abundant": 5691,
  "▁eternal": 5692,
  "▁sanctify": 5693,
  "▁ማስታወቂያ": 5694,
  "▁pastures": 5695,
  "▁surrounding": 5696,
  "▁abandon": 5697,
  "▁(2)": 5698,
  "▁ተዋጊዎች": 5699,
  "▁ያላችሁ": 5700,
  "▁በአንዳንድ": 5701,
  "▁firmly": 5702,
  "▁ሙታን": 5703,
  "▁canaan": 5704,
  "▁ምእራብ": 5705,
  "▁የነበራቸው": 5706,
  "▁ዮርዳኖስ": 5707,
  "▁በፊቴ": 5708,
  "ታየው": 5709,
  "▁የተገኘው": 5710,
  "▁constantly": 5711,
  "▁ሆንኩ": 5712,
  "▁hid": 5713,
  "▁emotional": 5714,
  "ሗ": 5715,
  "ተኞቹ": 5716,
  "▁ወረቀት": 5717,
  "▁ፍጽምና": 5718,
  "▁ችለዋል": 5719,
  "▁game": 5720,
  "▁ትግል": 5721,
  "▁zealous": 5722,
  "▁የደረሰ": 5723,
  "ract": 5724,
  "▁በቤት": 5725,
  "▁የሚመጣው": 5726,
  "▁ክርስቶስን": 5727,
  "▁inform": 5728,
  "▁ህዝ": 5729,
  "▁ያቀረበው": 5730,
  "▁Joshua": 5731,
  "▁በትኩረት": 5732,
  "▁በየአመቱ": 5733,
  "▁የሰይጣን": 5734,
  "▁contact": 5735,
  "▁ሶስቱ": 5736,
  "▁ሌላውን": 5737,
  "▁የሚያስፈልገውን": 5738,
  "ላችሁን": 5739,
  "▁የኢየሩሳሌም": 5740,
  "▁teacher": 5741,
  "▁እዚያው": 5742,
  "▁offend": 5743,
  "ልኝ።": 5744,
  "▁በመካከላችሁ": 5745,
  "They": 5746,
  "▁ሰጪ": 5747,
  "▁ልጆቹን": 5748,
  "▁tender": 5749,
  "▁በአዲስ": 5750,
  "▁የእግዚአብሄርን": 5751,
  "▁ዘርፍ": 5752,
  "▁የቀረው": 5753,
  "▁ግርማ": 5754,
  "own": 5755,
  "▁2013": 5756,
  "▁ለህዝብ": 5757,
  "▁ድርጅቱ": 5758,
  "▁ምርኮ": 5759,
  "▁አስተዋ": 5760,
  "▁captured": 5761,
  "▁ሊረዳን": 5762,
  "▁May": 5763,
  "▁ሩት": 5764,
  "▁1993": 5765,
  "▁importance": 5766,
  "▁length": 5767,
  "▁medicine": 5768,
  "▁ለመድረስ": 5769,
  "▁ያጣ": 5770,
  "▁ተነ": 5771,
  "▁joyful": 5772,
  "ያስፈልገን": 5773,
  "▁ያበረታ": 5774,
  "▁circuit": 5775,
  "▁doctor": 5776,
  "▁እረኞች": 5777,
  "▁stars": 5778,
  "▁writer": 5779,
  "▁ሁን": 5780,
  "▁demons": 5781,
  "ስላሴ": 5782,
  "▁consume": 5783,
  "▁rules": 5784,
  "▁reminded": 5785,
  "▁አይተ": 5786,
  "▁abroad": 5787,
  "▁አሳቢነት": 5788,
  "▁lamp": 5789,
  "▁ተናግረዋል።": 5790,
  "▁overcome": 5791,
  "▁officers": 5792,
  "▁ለቅ": 5793,
  "▁sand": 5794,
  "▁grown": 5795,
  "▁የእኛ": 5796,
  "▁ኢየሱስ፣": 5797,
  "▁መስሎ": 5798,
  "▁ኖረ": 5799,
  "▁chieftain": 5800,
  "▁environment": 5801,
  "▁heavy": 5802,
  "▁multitude": 5803,
  "▁ትእግስት": 5804,
  "▁ዙፋን": 5805,
  "▁ወጥመድ": 5806,
  "▁500": 5807,
  "▁ሽልማት": 5808,
  "▁normal": 5809,
  "▁decree": 5810,
  "▁passing": 5811,
  "▁Why": 5812,
  "▁በእጁ": 5813,
  "▁ጫና": 5814,
  "▁fo": 5815,
  "▁የተሞላ": 5816,
  "▁event": 5817,
  "▁overseer": 5818,
  "▁scripture": 5819,
  "▁count": 5820,
  "▁26)": 5821,
  "▁አራ": 5822,
  "▁9:": 5823,
  "▁numerous": 5824,
  "▁scholar": 5825,
  "▁መደምደሚያ": 5826,
  "▁saith": 5827,
  "▁መንስኤ": 5828,
  "▁በትጋት": 5829,
  "▁judgments": 5830,
  "▁usually": 5831,
  "▁freely": 5832,
  "▁condemn": 5833,
  "▁reply": 5834,
  "▁owner": 5835,
  "▁chariots": 5836,
  "▁የአብርሃም": 5837,
  "▁ካህን": 5838,
  "▁የሚሉ": 5839,
  "ification": 5840,
  "▁conclusion": 5841,
  "▁grief": 5842,
  "▁investigation": 5843,
  "▁session": 5844,
  "▁የሚያስፈልጉ": 5845,
  "▁በጽናት": 5846,
  "▁ፕሬስ": 5847,
  "▁ቅርጽ": 5848,
  "ተሰኘ": 5849,
  "▁ሶስተኛ": 5850,
  "▁ዞር": 5851,
  "ደስታ": 5852,
  "ልሃል": 5853,
  "▁goat": 5854,
  "▁ምሳሌዎች": 5855,
  "▁rebel": 5856,
  "▁drug": 5857,
  "▁universe": 5858,
  "▁እንመረምራለን": 5859,
  "▁በድንገት": 5860,
  "▁repent": 5861,
  "▁nine": 5862,
  "▁treatment": 5863,
  "▁instructions": 5864,
  "▁branches": 5865,
  "▁ህይወታቸውን": 5866,
  "▁የከፋ": 5867,
  "▁ማህ": 5868,
  "▁meant": 5869,
  "▁mistakes": 5870,
  "▁delivered": 5871,
  "▁specific": 5872,
  "▁repair": 5873,
  "▁ችግሩ": 5874,
  "▁ensure": 5875,
  "▁ክርስትና": 5876,
  "▁shut": 5877,
  "▁severe": 5878,
  "▁ይችል": 5879,
  "▁payment": 5880,
  "▁የይሆዋን": 5881,
  "▁beth": 5882,
  "▁ጽሁፎችን": 5883,
  "▁ordered": 5884,
  "▁hundreds": 5885,
  "▁messengers": 5886,
  "▁spoil": 5887,
  "▁ንጉሱን": 5888,
  "▁ሰማያዊ": 5889,
  "▁አቅኚዎች": 5890,
  "▁በቁጣ": 5891,
  "ክብ": 5892,
  "▁vine": 5893,
  "▁ለሌላው": 5894,
  "▁slaughter": 5895,
  "▁የትኞቹን": 5896,
  "light": 5897,
  "▁ይኖሩ": 5898,
  "ኢህአዴግ": 5899,
  "▁President": 5900,
  "▁surface": 5901,
  "▁በመግለጽ": 5902,
  "▁በንጉሱ": 5903,
  "▁United": 5904,
  "▁አዳራሽ": 5905,
  "▁pleasing": 5906,
  "▁የሚሰጠውን": 5907,
  "▁belonging": 5908,
  "▁ድሃ": 5909,
  "መልካም": 5910,
  "▁ከነበረው": 5911,
  "▁ዘዴዎች": 5912,
  "▁student": 5913,
  "▁እስክ": 5914,
  "▁በቀን": 5915,
  "▁accident": 5916,
  "▁prime": 5917,
  "▁hidden": 5918,
  "▁ተጠቅሞ": 5919,
  "▁ነገስት": 5920,
  "▁እድል": 5921,
  "▁እንድትሆን": 5922,
  "▁Or": 5923,
  "▁published": 5924,
  "▁የማት": 5925,
  "በድ": 5926,
  "▁ሆነህ": 5927,
  "▁stream": 5928,
  "▁በሰባተኛው": 5929,
  "▁sharing": 5930,
  "▁የሚደረግ": 5931,
  "▁የሚናገረው": 5932,
  "▁dig": 5933,
  "▁መሆናቸው": 5934,
  "ተጻፈ": 5935,
  "▁ከኢየሱስ": 5936,
  "▁approved": 5937,
  "▁ለመስማት": 5938,
  "▁determine": 5939,
  "▁ህጻናት": 5940,
  "▁በሁለተኛው": 5941,
  "▁standard": 5942,
  "▁ሲሰማ": 5943,
  "▁basic": 5944,
  "▁herself": 5945,
  "▁ፖሊሲ": 5946,
  "▁adultery": 5947,
  "▁beauty": 5948,
  "▁የግብጽ": 5949,
  "▁የያዙ": 5950,
  "▁አስፋፊዎች": 5951,
  "▁ተክል": 5952,
  "▁እንባ": 5953,
  "▁powers": 5954,
  "መልክ": 5955,
  "▁resolve": 5956,
  "ler": 5957,
  "▁assured": 5958,
  "▁ያገኘው": 5959,
  "▁holding": 5960,
  "▁urged": 5961,
  "▁መካ": 5962,
  "ራእይ": 5963,
  "እንዲህ": 5964,
  "ታላቁ": 5965,
  "▁homes": 5966,
  "▁implement": 5967,
  "▁miss": 5968,
  "▁tear": 5969,
  "▁ካልተ": 5970,
  "▁function": 5971,
  "▁1997": 5972,
  "▁cease": 5973,
  "▁relief": 5974,
  "▁ጤንነት": 5975,
  "▁የኢራቅ": 5976,
  "▁ኢራቅ": 5977,
  "▁ሲታይ": 5978,
  "▁የሚከተሉትን": 5979,
  "▁host": 5980,
  "▁bearing": 5981,
  "▁observed": 5982,
  "እነሆ፣": 5983,
  "▁መጻህፍትን": 5984,
  "▁ይህንኑ": 5985,
  "▁መቅረብ": 5986,
  "▁closely": 5987,
  "▁መቃ": 5988,
  "ኢንተርኔት": 5989,
  "▁synagogue": 5990,
  "▁በጽሁፍ": 5991,
  "▁እችላለሁ": 5992,
  "▁መስፈሪያ": 5993,
  "▁መጠጊያ": 5994,
  "▁dress": 5995,
  "▁የሌለበት": 5996,
  "ቀይ": 5997,
  "▁የቆየ": 5998,
  "▁Iraq": 5999,
  "▁እንደሚመጣ": 6000,
  "▁ይመራ": 6001,
  "▁ሰላምታ": 6002,
  "▁ቢሆኑ": 6003,
  "▁መዝሙሮች፥": 6004,
  "▁growing": 6005,
  "▁devotion": 6006,
  "▁easier": 6007,
  "▁በትምህርት": 6008,
  "▁ተወካዮች": 6009,
  "▁ኩባንያ": 6010,
  "▁ክርስቲያናዊ": 6011,
  "▁የሚገልጹ": 6012,
  "▁bomb": 6013,
  "▁moon": 6014,
  "▁cried": 6015,
  "▁ፈተናዎች": 6016,
  "▁bi": 6017,
  "▁መልእክ": 6018,
  "▁arab": 6019,
  "▁ከሆኑ": 6020,
  "▁የወጣው": 6021,
  "▁access": 6022,
  "▁valuable": 6023,
  "▁ቀርቦ": 6024,
  "ባእድ": 6025,
  "▁herd": 6026,
  "▁ጠባቂ": 6027,
  "▁product": 6028,
  "▁የሚሰጡት": 6029,
  "▁መዛሙርቱን": 6030,
  "▁በአዲሱ": 6031,
  "▁speaks": 6032,
  "▁ተሰማ": 6033,
  "▁visited": 6034,
  "▁ሰውነት": 6035,
  "ማበረታታት": 6036,
  "▁Pharaoh": 6037,
  "▁method": 6038,
  "▁ትንቢቶች": 6039,
  "▁ከእሷ": 6040,
  "▁መውጣት": 6041,
  "▁ተመለሰ": 6042,
  "▁evolution": 6043,
  "▁settle": 6044,
  "▁አላቸው፥": 6045,
  "ብዙ": 6046,
  "▁heat": 6047,
  "▁limited": 6048,
  "▁የቀረበው": 6049,
  "▁behavior": 6050,
  "▁empty": 6051,
  "▁መጠበቂያ": 6052,
  "▁ሃይሉ": 6053,
  "▁የሚመጣ": 6054,
  "▁ሊሰማ": 6055,
  "▁ስብ": 6056,
  "▁highly": 6057,
  "▁አዘዘ": 6058,
  "▁ሳሙ": 6059,
  "▁ይረዳ": 6060,
  "▁discussed": 6061,
  "▁ለእያንዳንዱ": 6062,
  "▁የሚያጠ": 6063,
  "▁ልጆቻችን": 6064,
  "▁የአካባቢው": 6065,
  "▁የልጅ": 6066,
  "▁(12": 6067,
  "▁whenever": 6068,
  "▁ሰጡ": 6069,
  "▁ሂዱ": 6070,
  "▁ሰባ": 6071,
  "▁extent": 6072,
  "▁አያውቅም": 6073,
  "▁letters": 6074,
  "with": 6075,
  "▁መባዎች": 6076,
  "▁sought": 6077,
  "even": 6078,
  "▁የልብ": 6079,
  "▁affairs": 6080,
  "▁Our": 6081,
  "▁ዘመቻ": 6082,
  "▁የተባለውን": 6083,
  "▁detail": 6084,
  "ጣራ": 6085,
  "▁anxious": 6086,
  "▁conquer": 6087,
  "▁endurance": 6088,
  "▁sustain": 6089,
  "▁ሊቃውንት": 6090,
  "▁በሚሊዮን": 6091,
  "▁የማምለኪያ": 6092,
  "▁generous": 6093,
  "▁በአስራዎቹ": 6094,
  "▁ርእሰ": 6095,
  "▁democratic": 6096,
  "▁ለሁለት": 6097,
  "▁የሚያገለግሉ": 6098,
  "▁box": 6099,
  "▁regards": 6100,
  "▁turning": 6101,
  "▁ልማት": 6102,
  "▁የራሱ": 6103,
  "▁አባቶች": 6104,
  "▁በመከተል": 6105,
  "▁contribute": 6106,
  "▁ለስራ": 6107,
  "▁drawn": 6108,
  "▁(10": 6109,
  "▁betray": 6110,
  "▁baal": 6111,
  "▁ደርሶ": 6112,
  "▁ለማከናወን": 6113,
  "▁የሮም": 6114,
  "▁beliefs": 6115,
  "▁discovered": 6116,
  "▁የተጻፈው": 6117,
  "▁Ch": 6118,
  "▁listened": 6119,
  "org": 6120,
  "▁ይገልጻል": 6121,
  "▁ሆኗል": 6122,
  "ህዝቤ": 6123,
  "▁document": 6124,
  "▁የሚሰጡ": 6125,
  "▁bath": 6126,
  "▁preparation": 6127,
  "▁society": 6128,
  "▁active": 6129,
  "▁ኣ።ም": 6130,
  "▁react": 6131,
  "▁lessons": 6132,
  "▁ስጡ": 6133,
  "▁ጉዳዮችን": 6134,
  "▁እንችላለን፧": 6135,
  "▁በሰራ": 6136,
  "▁ezekiel": 6137,
  "▁satisfaction": 6138,
  "▁ለመውሰድ": 6139,
  "▁በዘመናችን": 6140,
  "▁ያገኛሉ": 6141,
  "▁reap": 6142,
  "▁doors": 6143,
  "▁የሰጣቸው": 6144,
  "▁ለማለት": 6145,
  "▁ይላል፦": 6146,
  "▁lift": 6147,
  "▁ከኤ": 6148,
  "▁survive": 6149,
  "▁bore": 6150,
  "ሉ፡፡": 6151,
  "ነገሩ": 6152,
  "▁crown": 6153,
  "▁shield": 6154,
  "▁ጠቦት": 6155,
  "▁horns": 6156,
  "▁የሚያሳየው": 6157,
  "▁plead": 6158,
  "▁ዱ": 6159,
  "▁(9": 6160,
  "▁በሌሊት": 6161,
  "▁ደግሞስ": 6162,
  "▁ልጆቼ": 6163,
  "▁fields": 6164,
  "▁eaten": 6165,
  "▁Every": 6166,
  "▁utensils": 6167,
  "▁vast": 6168,
  "▁በሰሜን": 6169,
  "▁ሳሉ": 6170,
  "▁መቼም": 6171,
  "▁አመቱ": 6172,
  "መሰረተ": 6173,
  "▁ይመስል": 6174,
  "▁ፍቅርና": 6175,
  "▁drinking": 6176,
  "▁telling": 6177,
  "▁immoral": 6178,
  "▁የግድ": 6179,
  "▁አቅርቡ": 6180,
  "▁protest": 6181,
  "▁ያደረገውን": 6182,
  "እነዚህ": 6183,
  "▁ጐ": 6184,
  "ክፉዎች": 6185,
  "▁አዋቂ": 6186,
  "▁ቤተሰቡ": 6187,
  "▁requires": 6188,
  "▁ይሰማቸዋል": 6189,
  "mal": 6190,
  "▁wheat": 6191,
  "▁ኢዮአብ": 6192,
  "▁የሚበልጡ": 6193,
  "▁appointment": 6194,
  "low": 6195,
  "▁exalted": 6196,
  "▁officer": 6197,
  "▁እንደተናገረው": 6198,
  "▁ከክርስቶስ": 6199,
  "▁እንበል": 6200,
  "▁recognized": 6201,
  "▁bars": 6202,
  "▁አዋ": 6203,
  "▁sanctified": 6204,
  "▁transport": 6205,
  "▁ኖሬጋ": 6206,
  "▁ጣልቃ": 6207,
  "▁ርቀት": 6208,
  "ነታችሁ": 6209,
  "▁courageous": 6210,
  "ገለጽ": 6211,
  "▁exposed": 6212,
  "▁ጠብቁ": 6213,
  "▁ጽኑ": 6214,
  "▁thrown": 6215,
  "▁ይደር": 6216,
  "set": 6217,
  "▁እንዳሉት": 6218,
  "አባቶቻችሁ": 6219,
  "▁ማንነት": 6220,
  "▁ሃና": 6221,
  "take": 6222,
  "▁ሺ": 6223,
  "▁alcohol": 6224,
  "▁feast": 6225,
  "▁scroll": 6226,
  "▁ለመግለጽ": 6227,
  "▁አልቻሉም": 6228,
  "▁የተቀደሰ": 6229,
  "▁ያቀርባል": 6230,
  "▁fought": 6231,
  "▁ሴትየዋ": 6232,
  "▁comment": 6233,
  "▁በስሜ": 6234,
  "▁cloth": 6235,
  "ብቶ": 6236,
  "ሰኝ": 6237,
  "▁የመጡ": 6238,
  "▁ቆመው": 6239,
  "▁መጣ።": 6240,
  "▁warn": 6241,
  "▁pen": 6242,
  "ጼ": 6243,
  "▁abundance": 6244,
  "▁relevant": 6245,
  "▁ትሆናለች": 6246,
  "▁የሚያስከትለው": 6247,
  "▁የተለመደ": 6248,
  "▁የተሳሳተ": 6249,
  "▁construction": 6250,
  "ache": 6251,
  "▁የዱር": 6252,
  "▁cope": 6253,
  "▁እላችሗለሁ": 6254,
  "▁sinners": 6255,
  "▁30)": 6256,
  "▁unable": 6257,
  "▁walls": 6258,
  "ነድ": 6259,
  "▁አበረታ": 6260,
  "▁የከተማዋ": 6261,
  "▁agreed": 6262,
  "▁contrary": 6263,
  "▁current": 6264,
  "▁glorify": 6265,
  "▁glorious": 6266,
  "▁policy": 6267,
  "▁royal": 6268,
  "▁ሚዛናዊ": 6269,
  "▁በየጊዜው": 6270,
  "▁በድፍረት": 6271,
  "▁አህዛብ": 6272,
  "▁ዱቄት": 6273,
  "▁ፓርቲ": 6274,
  "▁አቤቱ፥": 6275,
  "▁መአዛ": 6276,
  "uel": 6277,
  "▁መታሰቢያ": 6278,
  "ቻችሁን": 6279,
  "▁complaint": 6280,
  "▁ሳለሁ": 6281,
  "▁instruct": 6282,
  "▁ድንጋጌዎች": 6283,
  "▁arrested": 6284,
  "▁ልባችሁ": 6285,
  "▁አልኩ": 6286,
  "▁እንዲኖረው": 6287,
  "▁አለች": 6288,
  "ዘፍጥረት": 6289,
  "▁የተደረገ": 6290,
  "▁ልማዶች": 6291,
  "▁ወዳድነት": 6292,
  "▁በየቀኑ": 6293,
  "▁በነገሰ": 6294,
  "▁ጸጥ": 6295,
  "▁implementation": 6296,
  "▁Christian": 6297,
  "▁መሳ": 6298,
  "▁ወፍ": 6299,
  "▁affected": 6300,
  "▁ሆናችሁ": 6301,
  "▁አስታውስ": 6302,
  "▁ጂ": 6303,
  "▁31)": 6304,
  "▁ምስክርነት": 6305,
  "▁አብረውት": 6306,
  "▁ከወንድ": 6307,
  "▁armed": 6308,
  "▁ጤና": 6309,
  "▁oppress": 6310,
  "▁የተደረገው": 6311,
  "▁በግል": 6312,
  "ጌታ": 6313,
  "▁opinion": 6314,
  "▁paternal": 6315,
  "▁supply": 6316,
  "▁ተባእት": 6317,
  "መለከታቸው": 6318,
  "▁ነጥብ": 6319,
  "▁ህይወቴን": 6320,
  "▁ለዳዊት": 6321,
  "rick": 6322,
  "We": 6323,
  "ድኑ": 6324,
  "▁preserve": 6325,
  "▁ecclesiastes": 6326,
  "▁attending": 6327,
  "▁የማደሪያ": 6328,
  "▁ወዳጆች": 6329,
  "▁54": 6330,
  "▁attendant": 6331,
  "▁fig": 6332,
  "▁የአሮን": 6333,
  "▁የተባሉት": 6334,
  "▁መኖሩን": 6335,
  "▁hor": 6336,
  "▁አገልጋይህ": 6337,
  "ዮሴፍ": 6338,
  "እብ": 6339,
  "▁syria": 6340,
  "አገልጋዩ": 6341,
  "▁በፍርሃት": 6342,
  "▁ተናግራለች": 6343,
  "▁አራዊት": 6344,
  "▁ይሻላል": 6345,
  "▁majority": 6346,
  "▁arms": 6347,
  "▁ወጥተው": 6348,
  "▁አለ፥": 6349,
  "▁terms": 6350,
  "▁የሰራው": 6351,
  "heb": 6352,
  "▁judged": 6353,
  "ተቻለ": 6354,
  "▁Council": 6355,
  "▁samaria": 6356,
  "▁አስፈጻሚ": 6357,
  "▁ጓደኞች": 6358,
  "▁chron": 6359,
  "ቸዋለን": 6360,
  "▁የዚያ": 6361,
  "▁ወዳለ": 6362,
  "▁healed": 6363,
  "▁department": 6364,
  "▁ይሉ": 6365,
  "▁involves": 6366,
  "▁Day": 6367,
  "▁wherever": 6368,
  "▁ይሰራል": 6369,
  "ou": 6370,
  "▁invite": 6371,
  "▁የራሳቸውን": 6372,
  "▁ተቃዋሚ": 6373,
  "▁ያለኝ": 6374,
  "but": 6375,
  "▁plunder": 6376,
  "▁ልውውጥ": 6377,
  "▁southern": 6378,
  "▁ሸክም": 6379,
  "▁ጠፍ": 6380,
  "▁የተወለደ": 6381,
  "▁boat": 6382,
  "▁shi": 6383,
  "ዮሃ": 6384,
  "ቹም": 6385,
  "ላችሁ፧": 6386,
  "▁supported": 6387,
  "▁scientists": 6388,
  "▁mere": 6389,
  "gal": 6390,
  "▁almighty": 6391,
  "▁honey": 6392,
  "▁print": 6393,
  "▁solution": 6394,
  "▁swear": 6395,
  "▁እንክብካቤ": 6396,
  "▁የአፍሪካ": 6397,
  "▁የጥናት": 6398,
  "▁እኮ": 6399,
  "▁joab": 6400,
  "▁የኖሩ": 6401,
  "ደሙ": 6402,
  "look": 6403,
  "▁ከኢ": 6404,
  "▁abi": 6405,
  "▁With": 6406,
  "lah": 6407,
  "▁descend": 6408,
  "▁participate": 6409,
  "▁tradition": 6410,
  "▁illegal": 6411,
  "▁የተያያዘ": 6412,
  "▁ውሸት": 6413,
  "▁rely": 6414,
  "▁awe": 6415,
  "▁ከማድረግ": 6416,
  "▁ለእነዚህ": 6417,
  "▁horn": 6418,
  "▁ማግ": 6419,
  "ኢዮብ": 6420,
  "▁relative": 6421,
  "፩": 6422,
  "▁fortified": 6423,
  "▁ለውጦች": 6424,
  "▁እነማን": 6425,
  "▁fair": 6426,
  "▁እጥፍ": 6427,
  "▁designed": 6428,
  "▁ጣቢያ": 6429,
  "▁shed": 6430,
  "▁አለው፦": 6431,
  "▁ትቶ": 6432,
  "▁Un": 6433,
  "▁ናቸው፡፡": 6434,
  "▁exodus": 6435,
  "▁appoint": 6436,
  "▁ግብር": 6437,
  "ረኩ": 6438,
  "▁ተማሪ": 6439,
  "▁20:": 6440,
  "▁52": 6441,
  "there": 6442,
  "እንስሳ": 6443,
  "ቀበለው": 6444,
  "▁furthermore": 6445,
  "▁ሃጢአተኞች": 6446,
  "▁በጥብቅ": 6447,
  "▁transgression": 6448,
  "▁requirements": 6449,
  "▁ከዋክብት": 6450,
  "▁total": 6451,
  "ገራችን": 6452,
  "▁citizens": 6453,
  "▁ይቻላል።": 6454,
  "▁redeem": 6455,
  "▁commercial": 6456,
  "▁ጽሁፋዊ": 6457,
  "▁ሙከራ": 6458,
  "▁ስለሆኑ": 6459,
  "▁ወረደ": 6460,
  "▁ህንጻ": 6461,
  "▁boundary": 6462,
  "▁በማሳየት": 6463,
  "▁worthless": 6464,
  "▁ጨዋታ": 6465,
  "▁Lo": 6466,
  "60": 6467,
  "▁ናት።": 6468,
  "▁ብቻውን": 6469,
  "▁prophesy": 6470,
  "▁greed": 6471,
  "▁shine": 6472,
  "አምላኩ": 6473,
  "▁አውራጃ": 6474,
  "▁ስምኦን": 6475,
  "ማርያም": 6476,
  "▁ብረት": 6477,
  "▁cold": 6478,
  "▁J": 6479,
  "▁star": 6480,
  "▁በጥሩ": 6481,
  "▁የለሽ": 6482,
  "▁ሌላኛው": 6483,
  "▁ልኮ": 6484,
  "ዎቹም": 6485,
  "▁በሰጠው": 6486,
  "በቀል": 6487,
  "እውነተኛ": 6488,
  "ራለን": 6489,
  "▁የትኛውን": 6490,
  "መሰረት": 6491,
  "▁encouraging": 6492,
  "▁operation": 6493,
  "▁studied": 6494,
  "▁በብዛት": 6495,
  "▁ይፈልጋሉ": 6496,
  "▁ጎጂ": 6497,
  "▁adjust": 6498,
  "▁ruling": 6499,
  "▁drew": 6500,
  "▁commander": 6501,
  "▁Al": 6502,
  "▁ቀለም": 6503,
  "ብኛል": 6504,
  "▁ከጌታ": 6505,
  "▁flocks": 6506,
  "ቶቻቸውን": 6507,
  "▁shekels": 6508,
  "▁መክብብ": 6509,
  "▁Je": 6510,
  "▁እጣን": 6511,
  "▁traveled": 6512,
  "▁port": 6513,
  "▁ውል": 6514,
  "▁tomorrow": 6515,
  "▁ለመከላከል": 6516,
  "▁መስዋእቶች": 6517,
  "▁በመሆናቸው": 6518,
  "▁ሲገልጽ": 6519,
  "▁አሳዛኝ": 6520,
  "▁ተጠቃሚ": 6521,
  "▁የምንኖረው": 6522,
  "▁የመጨረሻው": 6523,
  "▁እንደሚያደርግ": 6524,
  "▁expectation": 6525,
  "▁ማመን": 6526,
  "▁በዳዊት": 6527,
  "▁rulers": 6528,
  "▁(11": 6529,
  "▁የመንፈስ": 6530,
  "▁ይናገራሉ።": 6531,
  "▁የያዘው": 6532,
  "▁ስራዎችን": 6533,
  "▁ነበር፥": 6534,
  "▁farm": 6535,
  "▁executive": 6536,
  "▁ሃያላን": 6537,
  "▁መጸለይ": 6538,
  "▁ማስታወሻ": 6539,
  "▁ምሁራን": 6540,
  "▁በኤርትራ": 6541,
  "▁coast": 6542,
  "▁ብቸኛ": 6543,
  "▁connection": 6544,
  "▁responded": 6545,
  "▁adds": 6546,
  "▁ate": 6547,
  "▁golden": 6548,
  "▁concluded": 6549,
  "እያንዳንዱ": 6550,
  "▁በመንገድ": 6551,
  "▁jas": 6552,
  "▁san": 6553,
  "▁Jordan": 6554,
  "▁certificate": 6555,
  "▁imprisonment": 6556,
  "▁poverty": 6557,
  "▁suppose": 6558,
  "▁ለተወሰነ": 6559,
  "▁የሚንጸባረቅበት": 6560,
  "▁ይስሃቅ": 6561,
  "▁ችሏል": 6562,
  "▁Levites": 6563,
  "▁ገብቷል": 6564,
  "▁መዘዝ": 6565,
  "▁ለራሱ": 6566,
  "▁victory": 6567,
  "▁illness": 6568,
  "▁beside": 6569,
  "▁በላዩ": 6570,
  "40": 6571,
  "▁scattered": 6572,
  "W": 6573,
  "▁sending": 6574,
  "የአምላክ": 6575,
  "አገልጋዮቹ": 6576,
  "▁በእያንዳንዱ": 6577,
  "▁Sovereign": 6578,
  "▁communion": 6579,
  "▁recover": 6580,
  "▁አለዚያ": 6581,
  "▁storm": 6582,
  "▁ሳጥን": 6583,
  "▁fruitage": 6584,
  "▁ልብህ": 6585,
  "▁beasts": 6586,
  "ያዘው": 6587,
  "▁relates": 6588,
  "▁ገደለ": 6589,
  "▁defeated": 6590,
  "▁restore": 6591,
  "▁በአንቺ": 6592,
  "▁regime": 6593,
  "▁trumpet": 6594,
  "▁በዋነኝነት": 6595,
  "▁የሚፈልግ": 6596,
  "▁edom": 6597,
  "▁አልቻለም": 6598,
  "▁የተሟላ": 6599,
  "▁አለ፤": 6600,
  "▁State": 6601,
  "▁aba": 6602,
  "▁ካላቸው": 6603,
  "▁የመጡት": 6604,
  "▁residents": 6605,
  "▁wear": 6606,
  "▁ስለምን": 6607,
  "▁recalled": 6608,
  "each": 6609,
  "▁የሚገኙትን": 6610,
  "▁ይኖራል።": 6611,
  "▁ባልንጀራ": 6612,
  "▁የባቢሎን": 6613,
  "▁ሰጥቷል": 6614,
  "▁ዩ።ኤስ": 6615,
  "▁Birr": 6616,
  "▁Government": 6617,
  "▁slain": 6618,
  "▁በዝርዝር": 6619,
  "▁የሩሲያ": 6620,
  "▁ከሶስት": 6621,
  "▁የተጠቀመ": 6622,
  "▁ወሮታ": 6623,
  "▁companions": 6624,
  "▁difference": 6625,
  "▁አልጋ": 6626,
  "▁ከይሁዳ": 6627,
  "▁Le": 6628,
  "▁ያዝ": 6629,
  "ogi": 6630,
  "▁budget": 6631,
  "▁enterprise": 6632,
  "▁fault": 6633,
  "▁የሂሳብ": 6634,
  "▁አቅርቦ": 6635,
  "▁ሰጥቶናል": 6636,
  "▁ግቦች": 6637,
  "ሁ፤": 6638,
  "▁ቁር": 6639,
  "▁mourning": 6640,
  "▁conclude": 6641,
  "▁ለየት": 6642,
  "▁ራስህ": 6643,
  "▁kindly": 6644,
  "▁አስጠ": 6645,
  "▁(15": 6646,
  "ችሗል፤": 6647,
  "▁Behold": 6648,
  "▁administrative": 6649,
  "▁በውስጧ": 6650,
  "▁yoke": 6651,
  "▁woe": 6652,
  "ዋቸው": 6653,
  "▁ጊዜያዊ": 6654,
  "▁ከምን": 6655,
  "▁horse": 6656,
  "lev": 6657,
  "▁ጀመርኩ": 6658,
  "▁አላት": 6659,
  "ኝም።": 6660,
  "▁የመሳሰሉ": 6661,
  "cho": 6662,
  "▁trans": 6663,
  "▁foolish": 6664,
  "▁cruel": 6665,
  "▁advise": 6666,
  "▁worry": 6667,
  "▁ደካማ": 6668,
  "▁ህልም": 6669,
  "▁የተፈጠረው": 6670,
  "▁ልብሱን": 6671,
  "▁ከሌላ": 6672,
  "▁creature": 6673,
  "▁mass": 6674,
  "▁verse": 6675,
  "▁particularly": 6676,
  "▁አናት": 6677,
  "▁አላት።": 6678,
  "▁La": 6679,
  "god": 6680,
  "▁ወዲያ": 6681,
  "▁በልቡ": 6682,
  "▁approached": 6683,
  "▁talents": 6684,
  "▁አድርግ።": 6685,
  "▁flour": 6686,
  "▁refresh": 6687,
  "▁የምስክር": 6688,
  "ዠ": 6689,
  "▁reproach": 6690,
  "▁እፈልጋለሁ": 6691,
  "▁የመከላከያ": 6692,
  "▁በድንጋይ": 6693,
  "▁በተባለው": 6694,
  "▁የሙሴ": 6695,
  "▁taste": 6696,
  "▁Law": 6697,
  "ተማሪ": 6698,
  "▁በሶስተኛው": 6699,
  "▁hit": 6700,
  "▁ብትሆን": 6701,
  "▁seized": 6702,
  "▁መገንዘብ": 6703,
  "▁ቶም": 6704,
  "▁mal": 6705,
  "▁iraq": 6706,
  "▁ድረ": 6707,
  "▁finding": 6708,
  "▁besides": 6709,
  "▁John": 6710,
  "▁celebrate": 6711,
  "▁የተባበሩት": 6712,
  "▁increasing": 6713,
  "▁ፈቃዱ": 6714,
  "▁arose": 6715,
  "▁pick": 6716,
  "▁የቻለው": 6717,
  "▁ፍጥረት": 6718,
  "▁viewed": 6719,
  "▁የለም፤": 6720,
  "▁inhabited": 6721,
  "▁የሰውን": 6722,
  "▁continues": 6723,
  "▁የሚፈልገው": 6724,
  "▁aspects": 6725,
  "ሂድ": 6726,
  "▁ጉዳ": 6727,
  "▁bowl": 6728,
  "▁ቪ": 6729,
  "▁clouds": 6730,
  "እኛ": 6731,
  "law": 6732,
  "▁zeal": 6733,
  "▁global": 6734,
  "▁purchase": 6735,
  "▁የመምረጥ": 6736,
  "▁የሚያስገኘው": 6737,
  "▁ማድረጋቸው": 6738,
  "▁neck": 6739,
  "▁suggestions": 6740,
  "▁መያዣ": 6741,
  "▁እንዲሰጥ": 6742,
  "▁የሌሎችን": 6743,
  "▁sex": 6744,
  "▁performed": 6745,
  "▁acceptable": 6746,
  "▁previously": 6747,
  "▁governments": 6748,
  "▁22:": 6749,
  "▁crushed": 6750,
  "▁(14": 6751,
  "▁አራቱ": 6752,
  "▁የደረሰው": 6753,
  "▁tplf": 6754,
  "▁ይወስዳል": 6755,
  "▁superior": 6756,
  "▁ጥቅሞች": 6757,
  "▁referred": 6758,
  "▁ይጠፋል": 6759,
  "▁Eritrean": 6760,
  "▁rage": 6761,
  "▁ያምናሉ": 6762,
  "▁ያደርጋል፤": 6763,
  "▁towns": 6764,
  "▁ቤቴ": 6765,
  "▁urge": 6766,
  "▁ጀመሩ።": 6767,
  "ጥፋቱ": 6768,
  "▁ዮ": 6769,
  "▁መካፈል": 6770,
  "▁እንዲሄድ": 6771,
  "▁ቤቴል": 6772,
  "ization": 6773,
  "▁application": 6774,
  "▁dedication": 6775,
  "▁potential": 6776,
  "▁zechariah": 6777,
  "▁የታሪክ": 6778,
  "▁እንደሚኖር": 6779,
  "▁delay": 6780,
  "▁dangerous": 6781,
  "ቀላቀ": 6782,
  "▁load": 6783,
  "It": 6784,
  "▁አሮንን": 6785,
  "ረጋቸው": 6786,
  "▁rome": 6787,
  "▁extend": 6788,
  "▁ኤል": 6789,
  "▁በተስፋ": 6790,
  "▁ሶስተኛው": 6791,
  "▁ከየት": 6792,
  "▁ትተው": 6793,
  "▁የተነገረ": 6794,
  "than": 6795,
  "▁18:": 6796,
  "▁መጠጥ": 6797,
  "▁judicial": 6798,
  "▁serpent": 6799,
  "▁ሌዋውያን": 6800,
  "▁የትምህርት": 6801,
  "▁ፍቅሩ": 6802,
  "▁ኣይን": 6803,
  "▁ፈራ": 6804,
  "ግማሽ": 6805,
  "▁mistake": 6806,
  "▁ጀርባ": 6807,
  "▁gathering": 6808,
  "▁dan": 6809,
  "▁ወደሚገኘው": 6810,
  "▁አድርጋ": 6811,
  "▁weigh": 6812,
  "▁የልማት": 6813,
  "▁የፍትህ": 6814,
  "▁ይፈልጋል": 6815,
  "▁የሚስማማ": 6816,
  "▁ኤፌ": 6817,
  "▁confront": 6818,
  "▁esau": 6819,
  "▁staff": 6820,
  "▁ትናንሽ": 6821,
  "▁የሚሉት": 6822,
  "▁trip": 6823,
  "▁occurred": 6824,
  "▁አልአዛር": 6825,
  "▁ስራቸውን": 6826,
  "▁የእሳት": 6827,
  "▁net": 6828,
  "▁Because": 6829,
  "▁levi": 6830,
  "▁handle": 6831,
  "▁ህያዋን": 6832,
  "▁base": 6833,
  "▁rams": 6834,
  "ገለግሉ": 6835,
  "▁quick": 6836,
  "▁Your": 6837,
  "▁chiefs": 6838,
  "ህዝቦች": 6839,
  "▁assistance": 6840,
  "▁registration": 6841,
  "▁በዙሪያው": 6842,
  "▁ተለይቶ": 6843,
  "▁ተቋማት": 6844,
  "▁እንደመሆናችን": 6845,
  "▁ዜጎች": 6846,
  "▁ababa": 6847,
  "▁መመርመር": 6848,
  "▁trained": 6849,
  "▁ምንዝር": 6850,
  "▁Bible": 6851,
  "▁murder": 6852,
  "▁ጀልባ": 6853,
  "▁ለማረጋገጥ": 6854,
  "▁exactly": 6855,
  "ፍሬ": 6856,
  "▁በህይወቴ": 6857,
  "▁claimed": 6858,
  "▁21:": 6859,
  "▁ወሰዱ": 6860,
  "▁119": 6861,
  "▁ጓደኛህ": 6862,
  "they": 6863,
  "▁አመጡ": 6864,
  "▁አሳይ": 6865,
  "▁eplf": 6866,
  "▁messiah": 6867,
  "▁scale": 6868,
  "▁ተናግሮ": 6869,
  "▁መንፈሱ": 6870,
  "▁harsh": 6871,
  "▁መምራት": 6872,
  "▁ነውና፤": 6873,
  "▁western": 6874,
  "▁ለመመለስ": 6875,
  "▁disciple": 6876,
  "▁ዋናው": 6877,
  "▁origin": 6878,
  "▁16:": 6879,
  "So": 6880,
  "▁ማስተማር": 6881,
  "▁ተናጋሪ": 6882,
  "▁አቤቱታ": 6883,
  "▁በቤተሰብ": 6884,
  "▁ድምጹን": 6885,
  "ይላል": 6886,
  "▁statutes": 6887,
  "ሁትን": 6888,
  "▁የሚወጡ": 6889,
  "▁ፈሪሳውያን": 6890,
  "▁verses": 6891,
  "▁የላቸውም": 6892,
  "▁render": 6893,
  "▁admit": 6894,
  "▁cap": 6895,
  "▁paper": 6896,
  "▁quoted": 6897,
  "▁review": 6898,
  "▁መከላከያ": 6899,
  "▁ማስታወስ": 6900,
  "▁ህጻን": 6901,
  "▁ድንበር": 6902,
  "▁olive": 6903,
  "▁በቤቱ": 6904,
  "▁በረዶ": 6905,
  "▁bright": 6906,
  "▁concerns": 6907,
  "▁Com": 6908,
  "▁ወንዶችና": 6909,
  "▁ለመያዝ": 6910,
  "▁ሞትን": 6911,
  "▁eprdf": 6912,
  "▁finish": 6913,
  "form": 6914,
  "▁በጽድቅ": 6915,
  "▁ቆዳ": 6916,
  "▁By": 6917,
  "G": 6918,
  "▁recall": 6919,
  "ይህን": 6920,
  "hab": 6921,
  "ታላቂቱ": 6922,
  "▁Kingdom": 6923,
  "▁decades": 6924,
  "▁ephesians": 6925,
  "▁obedience": 6926,
  "▁renew": 6927,
  "▁ባለስልጣኑ": 6928,
  "▁ዩናይትድ": 6929,
  "▁ማስወገድ": 6930,
  "▁ማውጣት": 6931,
  "▁በደግነት": 6932,
  "▁በስፋት": 6933,
  "▁1,000": 6934,
  "▁professor": 6935,
  "▁19:": 6936,
  "▁lambs": 6937,
  "▁እንዲያደርግ": 6938,
  "▁አጋር": 6939,
  "▁ኑሮ": 6940,
  "▁Sa": 6941,
  "▁therein": 6942,
  "▁የሚገባውን": 6943,
  "▁በመከራ": 6944,
  "▁ቤታቸው": 6945,
  "▁consideration": 6946,
  "put": 6947,
  "▁expressions": 6948,
  "▁wipe": 6949,
  "▁የጠበቀ": 6950,
  "▁አስረኛ": 6951,
  "▁watching": 6952,
  "ገናኝ": 6953,
  "ሉትን": 6954,
  "ካህኑ": 6955,
  "▁images": 6956,
  "▁የገባውን": 6957,
  "▁ሆነ፤": 6958,
  "▁america": 6959,
  "▁የክርስቲያን": 6960,
  "▁conceal": 6961,
  "▁degree": 6962,
  "▁federal": 6963,
  "▁እንደማይችል": 6964,
  "▁የሚያሳዝነው": 6965,
  "▁eastern": 6966,
  "▁proud": 6967,
  "▁ለመቀጠል": 6968,
  "▁hungry": 6969,
  "▁ግፍ": 6970,
  "▁የሚሰሩ": 6971,
  "▁የሚወድ": 6972,
  "ወላጆች": 6973,
  "ዎቻቸውን": 6974,
  "እንግዲህ": 6975,
  "▁weep": 6976,
  "▁increased": 6977,
  "▁easily": 6978,
  "▁በነበሩት": 6979,
  "▁ተጠንቀቁ": 6980,
  "▁ደፋር": 6981,
  "▁bought": 6982,
  "▁እንዲያውቁ": 6983,
  "▁unlike": 6984,
  "▁ነገራቸው": 6985,
  "▁forest": 6986,
  "▁experiences": 6987,
  "▁የእጅ": 6988,
  "▁አገልጋዮቹን": 6989,
  "▁deuteronomy": 6990,
  "ቅጣት": 6991,
  "▁ይታይ": 6992,
  "dan": 6993,
  "▁አንደኛ": 6994,
  "▁rid": 6995,
  "▁fifth": 6996,
  "▁blue": 6997,
  "▁roof": 6998,
  "▁super": 6999,
  "▁ድሆች": 7000,
  "▁መበለት": 7001,
  "▁scribes": 7002,
  "▁deserve": 7003,
  "▁intention": 7004,
  "▁ቃለ": 7005,
  "ካህናቱ": 7006,
  "▁meles": 7007,
  "▁ያገኛል": 7008,
  "▁አላቸው፦": 7009,
  "▁reality": 7010,
  "▁employee": 7011,
  "▁መመለስ": 7012,
  "▁ወንድሞቼ": 7013,
  "▁የዘር": 7014,
  "▁የተስፋ": 7015,
  "▁tie": 7016,
  "እጅ": 7017,
  "▁የማግኘት": 7018,
  "▁healthy": 7019,
  "ኒያ": 7020,
  "70": 7021,
  "▁አድርጉ።": 7022,
  "▁prevail": 7023,
  "▁await": 7024,
  "▁jehoshaphat": 7025,
  "▁merciful": 7026,
  "▁population": 7027,
  "▁ማረፊያ": 7028,
  "▁ጠያቂ": 7029,
  "▁አልችልም": 7030,
  "▁(5": 7031,
  "▁ቀጠለ": 7032,
  "▁developed": 7033,
  "▁laugh": 7034,
  "10": 7035,
  "▁ከክፉ": 7036,
  "ችሗቸው": 7037,
  "▁ማሳሰቢያ": 7038,
  "▁የፍቅር": 7039,
  "▁Iraqi": 7040,
  "▁paragraphs": 7041,
  "▁አደርጋለሁ።": 7042,
  "▁የወንድ": 7043,
  "▁ወገ": 7044,
  "እርስ": 7045,
  "▁prostitute": 7046,
  "▁መኳንንት": 7047,
  "▁በእርግጠኝነት": 7048,
  "መሰክር": 7049,
  "▁የተጠቀሱት": 7050,
  "▁የሚጠቁም": 7051,
  "where": 7052,
  "▁parable": 7053,
  "▁ጓደኛችሁ": 7054,
  "ለታል።": 7055,
  "▁ለሃጢአት": 7056,
  "መኖሪያ": 7057,
  "▁እርሱም።": 7058,
  "▁intended": 7059,
  "▁ሰፈር": 7060,
  "who": 7061,
  "▁weeping": 7062,
  "▁assure": 7063,
  "▁በጊዜ": 7064,
  "ወጣት": 7065,
  "▁ham": 7066,
  "▁ገዛ": 7067,
  "▁People": 7068,
  "▁persecution": 7069,
  "▁ለበርካታ": 7070,
  "▁ምድራዊ": 7071,
  "▁ታሪኮች": 7072,
  "▁የተፈጥሮ": 7073,
  "▁ዩኒቨርሲቲ": 7074,
  "▁threw": 7075,
  "▁አማራጭ": 7076,
  "▁running": 7077,
  "▁ጨርቅ": 7078,
  "▁የሚያስችሉ": 7079,
  "▁transform": 7080,
  "▁corner": 7081,
  "▁እንደሚሉት": 7082,
  "▁ministers": 7083,
  "▁selfish": 7084,
  "uz": 7085,
  "▁ማዶ": 7086,
  "▁Su": 7087,
  "▁products": 7088,
  "▁ስልጣንና": 7089,
  "▁shew": 7090,
  "▁አዳምና": 7091,
  "▁ወላጆቼ": 7092,
  "▁አስተማሪ": 7093,
  "▁ይፋ": 7094,
  "In": 7095,
  "here": 7096,
  "▁72": 7097,
  "▁ወለደች": 7098,
  "▁attended": 7099,
  "▁conviction": 7100,
  "▁pattern": 7101,
  "▁absalom": 7102,
  "▁deputy": 7103,
  "▁floor": 7104,
  "▁temporary": 7105,
  "▁repeatedly": 7106,
  "▁በከንቱ": 7107,
  "▁የሚቻል": 7108,
  "▁በትዳር": 7109,
  "▁ቅሬታ": 7110,
  "▁ለመወጣት": 7111,
  "▁devoted": 7112,
  "▁የቃል": 7113,
  "▁አስተዋይ": 7114,
  "▁እውነተኛውን": 7115,
  "▁33)": 7116,
  "▁ሳኦልም": 7117,
  "then": 7118,
  "▁ተገቢውን": 7119,
  "▁ላሉ": 7120,
  "▁Tom": 7121,
  "ማስተዋል": 7122,
  "▁አሳው": 7123,
  "▁arch": 7124,
  "ኸውን": 7125,
  "ፓትርያርኩ": 7126,
  "▁Palestinian": 7127,
  "▁ተአምራት": 7128,
  "▁አዛዥ": 7129,
  "▁birr": 7130,
  "▁የማይችል": 7131,
  "▁እያደገ": 7132,
  "▁ought": 7133,
  "▁የብዙ": 7134,
  "▁km": 7135,
  "ሻእቢያ": 7136,
  "ዩ።ኤስ": 7137,
  "▁elderly": 7138,
  "▁bare": 7139,
  "▁shoulder": 7140,
  "▁focused": 7141,
  "ድያ": 7142,
  "right": 7143,
  "▁አህያ": 7144,
  "rev": 7145,
  "▁shadow": 7146,
  "▁ሰጥቷቸዋል": 7147,
  "▁ጸጉር": 7148,
  "▁አላውቅም": 7149,
  "▁ክርክር": 7150,
  "ቋቋሙ": 7151,
  "▁shape": 7152,
  "▁በፍርድ": 7153,
  "▁የሚጠቀሙ": 7154,
  "▁ባድማ": 7155,
  "▁እንዲያገለግሉ": 7156,
  "▁ወጣ።": 7157,
  "አንዲት": 7158,
  "▁ግንባታ": 7159,
  "▁የሰዎችን": 7160,
  "ጋድ": 7161,
  "▁የማታ": 7162,
  "▁አራተኛ": 7163,
  "▁በተናገረው": 7164,
  "ክርስቲያን": 7165,
  "▁gad": 7166,
  "▁ብቁ": 7167,
  "▁points": 7168,
  "▁ጆን": 7169,
  "▁ለሆነው": 7170,
  "▁ያመለክታል": 7171,
  "▁አይደለም፧": 7172,
  "▁structure": 7173,
  "▁ሃይማኖቶች": 7174,
  "▁forgiving": 7175,
  "▁በአግባቡ": 7176,
  "▁35)": 7177,
  "▁sorts": 7178,
  "▁mountainous": 7179,
  "▁ሉአላዊነት": 7180,
  "▁አልባ": 7181,
  "▁ባዶ": 7182,
  "ጠቀሱ": 7183,
  "▁ሆኗል።": 7184,
  "▁አስፈላጊውን": 7185,
  "▁53": 7186,
  "ፍሩ": 7187,
  "▁forgiven": 7188,
  "▁feared": 7189,
  "▁ዋይ": 7190,
  "▁charges": 7191,
  "▁ፈረሶች": 7192,
  "▁እንዳደረገ": 7193,
  "▁አድርገዋል": 7194,
  "▁foreigners": 7195,
  "▁ammonites": 7196,
  "▁impossible": 7197,
  "▁ተገልጿል": 7198,
  "▁የዋስትና": 7199,
  "▁ይሆዋ።": 7200,
  "▁Jo": 7201,
  "▁ይገኛል": 7202,
  "▁african": 7203,
  "▁አለኝ።": 7204,
  "▁ለአብርሃም": 7205,
  "▁mid": 7206,
  "▁ህዝቅኤል": 7207,
  "▁ቆም": 7208,
  "ዳይ": 7209,
  "▁cure": 7210,
  "▁ማእድ": 7211,
  "▁domestic": 7212,
  "▁gradually": 7213,
  "▁violate": 7214,
  "▁ለመቆጣጠር": 7215,
  "▁ለመፍታት": 7216,
  "▁የብልግና": 7217,
  "▁diligent": 7218,
  "▁prefer": 7219,
  "▁አዎንታዊ": 7220,
  "▁psalmist": 7221,
  "▁ascend": 7222,
  "▁aim": 7223,
  "place": 7224,
  "▁እድሜው": 7225,
  "▁ባለቤቱ": 7226,
  "▁የአል": 7227,
  "▁ቆየ": 7228,
  "▁የሚገልጸውን": 7229,
  "▁lowly": 7230,
  "▁emotions": 7231,
  "▁አክሎም": 7232,
  "▁streets": 7233,
  "▁compare": 7234,
  "▁praised": 7235,
  "▁ideas": 7236,
  "▁ቀኑን": 7237,
  "▁National": 7238,
  "▁ለማጠናከር": 7239,
  "▁ለንጉሱ": 7240,
  "▁መለኮታዊ": 7241,
  "▁ስኬታማ": 7242,
  "▁የሃሳብ": 7243,
  "▁ጥንካሬ": 7244,
  "▁salt": 7245,
  "▁repay": 7246,
  "▁ሚስጥር": 7247,
  "▁2012": 7248,
  "▁attacks": 7249,
  "▁ከምት": 7250,
  "መንግስት": 7251,
  "▁appears": 7252,
  "▁Bo": 7253,
  "▁ended": 7254,
  "▁ሰንበት": 7255,
  "ሞከረ": 7256,
  "▁chariot": 7257,
  "▁outer": 7258,
  "▁ፕሮፌሰር": 7259,
  "ያደርሱ": 7260,
  "▁ያውቅ": 7261,
  "▁restored": 7262,
  "▁mourn": 7263,
  "▁tents": 7264,
  "አልና": 7265,
  "በደል": 7266,
  "መስማት": 7267,
  "ቅናት": 7268,
  "▁directed": 7269,
  "መጽሃፍ": 7270,
  "▁chamber": 7271,
  "▁frame": 7272,
  "▁nebuchadnezzar": 7273,
  "▁suspect": 7274,
  "▁technology": 7275,
  "▁ተመልካቾች": 7276,
  "▁የሚደረገው": 7277,
  "▁micah": 7278,
  "▁ለማዳበር": 7279,
  "▁ይወጣል": 7280,
  "▁strip": 7281,
  "Like": 7282,
  "▁radio": 7283,
  "▁ሲናገሩ": 7284,
  "▁(17": 7285,
  "▁የሚነካ": 7286,
  "ሃለሁ፤": 7287,
  "ልጆቻችሁ": 7288,
  "▁growth": 7289,
  "▁details": 7290,
  "ተጠቀሙ": 7291,
  "▁resolved": 7292,
  "his": 7293,
  "▁የሞተ": 7294,
  "▁አላማው": 7295,
  "እነሱ": 7296,
  "ለት፤": 7297,
  "▁ተናግረዋል": 7298,
  "▁ሄደ፤": 7299,
  "▁deceive": 7300,
  "▁square": 7301,
  "▁unique": 7302,
  "▁ማሰላሰል": 7303,
  "▁ተወዳዳሪ": 7304,
  "▁ጾታ": 7305,
  "▁ሩሲያ": 7306,
  "▁drop": 7307,
  "▁የመኖር": 7308,
  "▁ሰነድ": 7309,
  "▁slavery": 7310,
  "▁በእሷ": 7311,
  "keep": 7312,
  "▁የእውነት": 7313,
  "▁የመጀመሪያዎቹ": 7314,
  "▁ወንድሞች፣": 7315,
  "▁foreigner": 7316,
  "አገልግሎታችን": 7317,
  "▁አይኖች": 7318,
  "▁አጠና": 7319,
  "▁Ne": 7320,
  "ush": 7321,
  "▁ዚ": 7322,
  "▁ረድቶኛል": 7323,
  "▁ትሆናለህ": 7324,
  "▁ጥቅሱ": 7325,
  "▁ተእለት": 7326,
  "▁እንዲቀጥል": 7327,
  "▁cedar": 7328,
  "▁ለደቀ": 7329,
  "▁busy": 7330,
  "▁earn": 7331,
  "▁ኤፌሶን": 7332,
  "ቋንቋ": 7333,
  "▁ጦርነቱ": 7334,
  "▁condemned": 7335,
  "▁europe": 7336,
  "▁reigned": 7337,
  "▁background": 7338,
  "▁edition": 7339,
  "▁አካላዊ": 7340,
  "▁እምላለሁ": 7341,
  "▁ashamed": 7342,
  "▁device": 7343,
  "▁የወረዳ": 7344,
  "▁ባንክ": 7345,
  "▁ከሞተ": 7346,
  "▁sinful": 7347,
  "▁tomb": 7348,
  "▁translated": 7349,
  "mark": 7350,
  "▁comments": 7351,
  "▁institutions": 7352,
  "▁merely": 7353,
  "እንግሊዝኛ": 7354,
  "90": 7355,
  "▁regulation": 7356,
  "▁ከማንኛውም": 7357,
  "▁acting": 7358,
  "▁ከብር": 7359,
  "▁york": 7360,
  "▁በስብከቱ": 7361,
  "▁ውስጣዊ": 7362,
  "▁ዘካርያስ": 7363,
  "▁ይጠይቃል": 7364,
  "▁ፋሲካ": 7365,
  "▁milk": 7366,
  "▁ተመልሰው": 7367,
  "▁Even": 7368,
  "▁መገናኛ": 7369,
  "▁በአንዱ": 7370,
  "▁እጁ": 7371,
  "▁edge": 7372,
  "▁highlight": 7373,
  "▁nearby": 7374,
  "▁dedicated": 7375,
  "ተጠቀሰ": 7376,
  "▁በቤቴል": 7377,
  "Who": 7378,
  "▁pope": 7379,
  "▁ቢሮው": 7380,
  "▁pillar": 7381,
  "▁execute": 7382,
  "▁values": 7383,
  "▁(16": 7384,
  "▁require": 7385,
  "▁ሰሪ": 7386,
  "▁ይበሉ": 7387,
  "▁ይሄ": 7388,
  "▁clothed": 7389,
  "▁endeavor": 7390,
  "▁swore": 7391,
  "▁ያብራራል": 7392,
  "▁ተግባራት": 7393,
  "▁internal": 7394,
  "▁የጻፈው": 7395,
  "▁በቅርብ": 7396,
  "▁proof": 7397,
  "▁ጋብቻ": 7398,
  "▁ፍቺ": 7399,
  "▁እልል": 7400,
  "▁disgusting": 7401,
  "▁እውነቱን": 7402,
  "▁sheba": 7403,
  "▁ገብተው": 7404,
  "▁cat": 7405,
  "▁ማማ": 7406,
  "▁describes": 7407,
  "▁አጋጣሚዎች": 7408,
  "▁select": 7409,
  "▁አለው፤": 7410,
  "▁አደረገ፤": 7411,
  "▁sentence": 7412,
  "▁clothes": 7413,
  "▁secured": 7414,
  "▁resources": 7415,
  "▁በተቻለ": 7416,
  "▁achieve": 7417,
  "▁annual": 7418,
  "▁essential": 7419,
  "▁አሳልፌ": 7420,
  "▁የስብከቱ": 7421,
  "▁አነጋገር": 7422,
  "▁ምድብ": 7423,
  "▁አጭር": 7424,
  "▁vain": 7425,
  "▁የፈጠረው": 7426,
  "▁OF": 7427,
  "▁ሀብት": 7428,
  "▁played": 7429,
  "ክፉ": 7430,
  "▁ገለጸ": 7431,
  "▁(18": 7432,
  "ብቃት": 7433,
  "▁የሚወጣው": 7434,
  "can": 7435,
  "▁street": 7436,
  "▁ኢትዮጵያዊ": 7437,
  "To": 7438,
  "▁ረዳ": 7439,
  "ማንኛውም": 7440,
  "▁annihilate": 7441,
  "▁chronicles": 7442,
  "▁confess": 7443,
  "▁grasp": 7444,
  "▁pursuant": 7445,
  "▁ሪፐብሊክ": 7446,
  "▁ርዝመት": 7447,
  "▁አገላለጽ": 7448,
  "▁ኢዮሳፍጥ": 7449,
  "▁ጲላጦስ": 7450,
  "▁ቃሌን": 7451,
  "▁ዮርክ": 7452,
  "▁አረጋዊ": 7453,
  "▁አስፈሪ": 7454,
  "▁የምትኖር": 7455,
  "▁የሚያውቁ": 7456,
  "▁የሚናገር": 7457,
  "▁በሮም": 7458,
  "▁sickness": 7459,
  "▁ገዥ": 7460,
  "▁በብሄራት": 7461,
  "▁በአገሪቱ": 7462,
  "▁በሆኑት": 7463,
  "▁opening": 7464,
  "▁wage": 7465,
  "ፋችሁ": 7466,
  "▁ውበት": 7467,
  "▁ያደርጋሉ።": 7468,
  "▁treasures": 7469,
  "▁willingly": 7470,
  "▁Pro": 7471,
  "▁ይገኙበታል": 7472,
  "▁blame": 7473,
  "▁critical": 7474,
  "▁rebellion": 7475,
  "▁significant": 7476,
  "▁socket": 7477,
  "▁theocratic": 7478,
  "▁ሊያደርጉ": 7479,
  "▁እንደምንችል": 7480,
  "▁ዲሞክራሲያዊ": 7481,
  "▁የሚቀርቡ": 7482,
  "▁ይባላል": 7483,
  "▁በመግባት": 7484,
  "▁reference": 7485,
  "▁አማካሪ": 7486,
  "▁forced": 7487,
  "▁bowed": 7488,
  "▁jar": 7489,
  "▁directly": 7490,
  "▁ስለምት": 7491,
  "▁የተጻፈ": 7492,
  "▁መለከት": 7493,
  "▁በጎቹ": 7494,
  "የሰው": 7495,
  "▁ያመጣል": 7496,
  "▁strangers": 7497,
  "▁perceive": 7498,
  "▁province": 7499,
  "▁video": 7500,
  "▁ሰባኪዎች": 7501,
  "▁በማቅረብ": 7502,
  "▁በዩናይትድ": 7503,
  "▁የኢኮኖሚ": 7504,
  "▁በትህትና": 7505,
  "▁ጨረቃ": 7506,
  "▁ፈታኝ": 7507,
  "that": 7508,
  "ታይም": 7509,
  "ብሽ": 7510,
  "well": 7511,
  "▁russian": 7512,
  "▁hot": 7513,
  "ቃዩ": 7514,
  "▁በዚህች": 7515,
  "▁Those": 7516,
  "▁ዘዳግም": 7517,
  "መጋቢ": 7518,
  "▁seize": 7519,
  "▁slaughtered": 7520,
  "▁ልጆቻችሁን": 7521,
  "▁የእነሱ": 7522,
  "ሰላም": 7523,
  "▁ማብራሪያ": 7524,
  "▁ማወቃችን": 7525,
  "▁ተመለከተ": 7526,
  "▁ተቀምጠው": 7527,
  "▁ይደረጋል": 7528,
  "▁ይጠቁማል": 7529,
  "▁አይቻልም": 7530,
  "▁depth": 7531,
  "▁brain": 7532,
  "▁denied": 7533,
  "▁palm": 7534,
  "▁ይሄዳሉ": 7535,
  "▁በተለየ": 7536,
  "▁በማለዳ": 7537,
  "▁በሚለው": 7538,
  "Do": 7539,
  "ሃል፧": 7540,
  "▁applying": 7541,
  "▁ከሌለ": 7542,
  "▁የካህናት": 7543,
  "▁inherit": 7544,
  "▁bird": 7545,
  "አገልግሎቱ": 7546,
  "ረጋገጥ": 7547,
  "▁fit": 7548,
  "▁permit": 7549,
  "▁repeat": 7550,
  "▁challenging": 7551,
  "▁invitation": 7552,
  "▁opposite": 7553,
  "▁pronounce": 7554,
  "▁spain": 7555,
  "▁ምኞቶች": 7556,
  "▁ውዳሴ": 7557,
  "▁ማርቆስ": 7558,
  "▁ኪዳኑ": 7559,
  "▁window": 7560,
  "▁ይጠቅ": 7561,
  "ይሁዳ": 7562,
  "▁ተመራማሪዎች": 7563,
  "▁ቤዛ": 7564,
  "▁weaken": 7565,
  "▁የሰጡት": 7566,
  "▁caring": 7567,
  "What": 7568,
  "▁Sub": 7569,
  "▁አባቱን": 7570,
  "▁creditor": 7571,
  "▁pharisees": 7572,
  "▁በቃሉ": 7573,
  "▁hated": 7574,
  "▁choices": 7575,
  "ተያዘ": 7576,
  "▁ቃሉ": 7577,
  "▁mock": 7578,
  "▁prophecies": 7579,
  "▁sorrow": 7580,
  "▁grass": 7581,
  "▁management": 7582,
  "▁ለመግባት": 7583,
  "▁ጥናቶች": 7584,
  "▁rulership": 7585,
  "▁ብንሆን": 7586,
  "▁በስም": 7587,
  "▁የፍጥረት": 7588,
  "ቾች": 7589,
  "▁ተዋጊ": 7590,
  "▁የጥፋት": 7591,
  "iving": 7592,
  "▁positions": 7593,
  "▁Samuel": 7594,
  "▁unexpected": 7595,
  "▁ቦርድ": 7596,
  "▁ታደርጋለህ": 7597,
  "▁አግኝተዋል": 7598,
  "▁የፍልስጤም": 7599,
  "▁ተሳትፎ": 7600,
  "▁የበኩር": 7601,
  "▁ቁጥራቸው": 7602,
  "▁ወላጅ": 7603,
  "▁ተሰጥቶ": 7604,
  "ጥበበኞች": 7605,
  "▁ያንን": 7606,
  "▁abuse": 7607,
  "▁ይላሉ።": 7608,
  "▁ተራራማ": 7609,
  "▁warriors": 7610,
  "▁የተሰጠውን": 7611,
  "▁crowds": 7612,
  "▁ስጋዊ": 7613,
  "▁ህብረት": 7614,
  "▁ስራችን": 7615,
  "▁differ": 7616,
  "▁hospital": 7617,
  "▁ራቅ": 7618,
  "መሆኗ": 7619,
  "▁yield": 7620,
  "▁inspect": 7621,
  "▁nathan": 7622,
  "▁በህይወታቸው": 7623,
  "▁ቁልፍ": 7624,
  "▁እንዲያገኝ": 7625,
  "▁ይሁኑ": 7626,
  "▁duty": 7627,
  "▁Russian": 7628,
  "▁US": 7629,
  "▁mold": 7630,
  "matthew": 7631,
  "▁cherubs": 7632,
  "▁lower": 7633,
  "▁አብራ": 7634,
  "▁ሰባቱ": 7635,
  "▁stretch": 7636,
  "16": 7637,
  "▁Eritrea": 7638,
  "▁ለሰራ": 7639,
  "▁ሳል": 7640,
  "▁ሚስቱን": 7641,
  "▁transfer": 7642,
  "▁Agency": 7643,
  "▁communicate": 7644,
  "▁providing": 7645,
  "▁quiet": 7646,
  "▁secular": 7647,
  "▁unleavened": 7648,
  "▁ህልውና": 7649,
  "▁ቦርዱ": 7650,
  "▁Satan": 7651,
  "▁በምስራቅ": 7652,
  "▁steal": 7653,
  "▁ለማምጣት": 7654,
  "▁በጥልቅ": 7655,
  "▁በተሻለ": 7656,
  "▁የሚያገኙት": 7657,
  "▁እንደሚረዳ": 7658,
  "▁የተባሉ": 7659,
  "ድሃ": 7660,
  "▁Look": 7661,
  "▁ሲያዩ": 7662,
  "ሗችሁ": 7663,
  "▁evidently": 7664,
  "▁ጽህፈት": 7665,
  "▁የማወቅ": 7666,
  "▁ሃጢአተኛ": 7667,
  "▁አቤል": 7668,
  "▁ሳይቀር": 7669,
  "▁ሃዋርያቱ": 7670,
  "▁ከእስራኤላውያን": 7671,
  "▁piece": 7672,
  "ላለች": 7673,
  "▁evident": 7674,
  "▁hills": 7675,
  "▁plot": 7676,
  "▁ሊባኖስ": 7677,
  "▁የስብከት": 7678,
  "▁መልእክተኞች": 7679,
  "▁አስበው": 7680,
  "▁ኩራት": 7681,
  "▁bush": 7682,
  "▁ለሞት": 7683,
  "▁del": 7684,
  "▁66": 7685,
  "▁ሃሳቦችን": 7686,
  "▁Y": 7687,
  "▁1999": 7688,
  "▁Pope": 7689,
  "▁causing": 7690,
  "▁constitution": 7691,
  "▁discreet": 7692,
  "▁korea": 7693,
  "▁sharp": 7694,
  "▁እናሳያለን": 7695,
  "▁ካደረገ": 7696,
  "▁ስእለት": 7697,
  "▁ፍጥነት": 7698,
  "▁ወደፊቱ": 7699,
  "▁missionary": 7700,
  "▁በሰንበት": 7701,
  "▁lawyer": 7702,
  "▁ደንቦች": 7703,
  "ያከናውን": 7704,
  "▁የሚታይ": 7705,
  "read": 7706,
  "▁በወንድ": 7707,
  "▁የሚናገሩት": 7708,
  "▁documents": 7709,
  "▁ጠበቃ": 7710,
  "▁ማስረጃዎች": 7711,
  "▁ረዳት": 7712,
  "ጊዜ": 7713,
  "▁measured": 7714,
  "▁ከሚገኘው": 7715,
  "መጥፎ": 7716,
  "▁መጽሃፉ": 7717,
  "እስራኤላውያን": 7718,
  "▁እውን": 7719,
  "▁shortly": 7720,
  "▁600": 7721,
  "▁Da": 7722,
  "ቅዱሳን": 7723,
  "▁በምንም": 7724,
  "▁ያገኙት": 7725,
  "▁ሰኔ": 7726,
  "▁author": 7727,
  "▁አደረጉ።": 7728,
  "▁የዮሴፍ": 7729,
  "▁ተቆጣ": 7730,
  "▁sweet": 7731,
  "eccl": 7732,
  "ኢዮርብአም": 7733,
  "▁ambassador": 7734,
  "▁መመስረት": 7735,
  "▁መናፍስት": 7736,
  "▁መዋእል": 7737,
  "▁ተስማሚ": 7738,
  "▁ወንጌል": 7739,
  "▁ተደርገው": 7740,
  "▁አመጸኛ": 7741,
  "▁ውርሻ": 7742,
  "▁መሃላ": 7743,
  "▁fool": 7744,
  "▁germany": 7745,
  "ወንድሞች": 7746,
  "▁ሳኦልን": 7747,
  "▁እስክት": 7748,
  "▁ዝርያዎች": 7749,
  "▁career": 7750,
  "turn": 7751,
  "▁ይለኛል": 7752,
  "▁ይገልጻል።": 7753,
  "መስጠቱ": 7754,
  "ቃወም": 7755,
  "▁መንግስቱን": 7756,
  "▁ነኝ፤": 7757,
  "▁አገሩ": 7758,
  "ጥራት": 7759,
  "▁wheel": 7760,
  "▁አይደለሁም": 7761,
  "▁astray": 7762,
  "▁option": 7763,
  "▁stupid": 7764,
  "▁temper": 7765,
  "▁ሰረገሎች": 7766,
  "▁zone": 7767,
  "▁ለፍርድ": 7768,
  "▁ገልጸዋል": 7769,
  "▁እግሩ": 7770,
  "▁ሽብር": 7771,
  "▁exceeding": 7772,
  "መሰረቱ": 7773,
  "▁መንደር": 7774,
  "▁bulls": 7775,
  "▁ለሰባት": 7776,
  "▁happens": 7777,
  "18": 7778,
  "ዘገየ": 7779,
  "▁የኖረ": 7780,
  "▁መንገዱን": 7781,
  "▁በባቢሎን": 7782,
  "▁ዘጸአት": 7783,
  "▁በየትኛውም": 7784,
  "▁site": 7785,
  "▁ያለህን": 7786,
  "▁የሚሄዱ": 7787,
  "▁ኢየሩሳሌምን": 7788,
  "▁የእናንተ": 7789,
  "▁asleep": 7790,
  "▁popular": 7791,
  "▁stumbling": 7792,
  "▁thrill": 7793,
  "▁ምዝገባ": 7794,
  "▁በተቃራኒ": 7795,
  "▁ደቂቃ": 7796,
  "▁queen": 7797,
  "▁ግዙፍ": 7798,
  "▁ፍጡር": 7799,
  "▁በሶስት": 7800,
  "▁ትርፍ": 7801,
  "▁ኤሳው": 7802,
  "▁በስብሰባዎች": 7803,
  "▁ግዛ": 7804,
  "▁ጸረ": 7805,
  "▁relate": 7806,
  "▁አውሬ": 7807,
  "▁የሚሆነውን": 7808,
  "አባትህ": 7809,
  "▁አለብን።": 7810,
  "▁ሲመለከት": 7811,
  "▁shared": 7812,
  "▁instructed": 7813,
  "▁አገኙ": 7814,
  "▁በራስ": 7815,
  "▁ሙሽራ": 7816,
  "▁ድንጋጌ": 7817,
  "▁covering": 7818,
  "▁በድን": 7819,
  "▁ይሰጣል።": 7820,
  "▁States": 7821,
  "▁እንዳታ": 7822,
  "▁Ababa": 7823,
  "▁expense": 7824,
  "▁meditating": 7825,
  "▁pregnant": 7826,
  "▁sworn": 7827,
  "▁ዝግጅቶች": 7828,
  "▁አያውቁም": 7829,
  "▁አክአብ": 7830,
  "▁literal": 7831,
  "▁ምሁር": 7832,
  "▁ይኖርብሃል": 7833,
  "▁viewpoint": 7834,
  "▁harmful": 7835,
  "▁ሃረግ": 7836,
  "▁describe": 7837,
  "▁contains": 7838,
  "▁pin": 7839,
  "▁የሚታየው": 7840,
  "▁patiently": 7841,
  "▁የሚመስል": 7842,
  "▁56": 7843,
  "▁ያሳየ": 7844,
  "▁guided": 7845,
  "▁Ja": 7846,
  "▁interpret": 7847,
  "▁prior": 7848,
  "▁australia": 7849,
  "▁feature": 7850,
  "▁ተመልከቱ": 7851,
  "▁እሆናለሁ": 7852,
  "▁ድንገት": 7853,
  "▁ባሻገር": 7854,
  "▁intense": 7855,
  "▁ባልሆነ": 7856,
  "▁መለየት": 7857,
  "▁ጥቁር": 7858,
  "▁አቀፉ": 7859,
  "▁ይሰጣሉ": 7860,
  "▁አሉታዊ": 7861,
  "▁የሞት": 7862,
  "▁ቡሽ": 7863,
  "▁researchers": 7864,
  "▁እንደነበረው": 7865,
  "▁እሷን": 7866,
  "▁ያጠና": 7867,
  "▁judea": 7868,
  "▁ሰርቶ": 7869,
  "▁ስፍራዎች": 7870,
  "▁የቀድሞው": 7871,
  "▁ለማሰብ": 7872,
  "▁ያለበትን": 7873,
  "▁ይረዳሃል": 7874,
  "▁Republic": 7875,
  "▁ሄኖክ": 7876,
  "▁ያደርገዋል": 7877,
  "▁sky": 7878,
  "▁የአስተዳደር": 7879,
  "▁በጨለማ": 7880,
  "▁unjust": 7881,
  "▁ልምድ": 7882,
  "▁mixed": 7883,
  "▁የተረጋገጠ": 7884,
  "▁bit": 7885,
  "▁ነበረ፤": 7886,
  "▁ለመግደል": 7887,
  "▁የሚያሰኝ": 7888,
  "▁reaching": 7889,
  "▁fleshly": 7890,
  "▁የሚገልጸው": 7891,
  "▁newly": 7892,
  "▁eager": 7893,
  "▁beneficial": 7894,
  "▁jeroboam": 7895,
  "▁opportunities": 7896,
  "▁ቆይቷል": 7897,
  "▁በማግስቱ": 7898,
  "▁እንፈልጋለን": 7899,
  "▁የምንችልበት": 7900,
  "▁ጥንቃቄ": 7901,
  "▁chance": 7902,
  "▁በቅንአት": 7903,
  "▁Thus": 7904,
  "▁አውጥቶ": 7905,
  "▁አይሁዳዊ": 7906,
  "▁የሚያስገኝ": 7907,
  "▁ለራሳቸው": 7908,
  "▁ፍየል": 7909,
  "▁ውሰድ": 7910,
  "▁sudan": 7911,
  "▁entertainment": 7912,
  "▁ናታን": 7913,
  "▁በኩር": 7914,
  "ቸዋለሁ።": 7915,
  "▁sale": 7916,
  "▁ደመወዝ": 7917,
  "▁(20": 7918,
  "▁ለሚገኙ": 7919,
  "▁እጃቸውን": 7920,
  "▁ዳኛ": 7921,
  "▁ወስደው": 7922,
  "▁አቀረቡ": 7923,
  "▁belief": 7924,
  "▁resident": 7925,
  "ሂዱ": 7926,
  "▁እንዲፈጸም": 7927,
  "▁ተፈጻሚ": 7928,
  "▁reveals": 7929,
  "▁band": 7930,
  "▁Isaac": 7931,
  "▁arrow": 7932,
  "▁height": 7933,
  "▁አመልክቷል": 7934,
  "▁እንውሰድ": 7935,
  "▁የድርጅቱ": 7936,
  "▁ዮፍታሄ": 7937,
  "▁thorough": 7938,
  "▁deaf": 7939,
  "▁አለመሆኑን": 7940,
  "▁እሁድ": 7941,
  "▁በመስራት": 7942,
  "▁የመጠጥ": 7943,
  "▁በመልካም": 7944,
  "▁ይህችን": 7945,
  "▁አገባ": 7946,
  "▁eden": 7947,
  "▁እንዳደረገው": 7948,
  "▁400": 7949,
  "▁የሚመራ": 7950,
  "▁deny": 7951,
  "▁ሊረዳ": 7952,
  "▁remembered": 7953,
  "ሰማራ": 7954,
  "ወረዱ": 7955,
  "▁የሚያበቃ": 7956,
  "▁ጀመረች": 7957,
  "▁በእጅህ": 7958,
  "▁ይመስላል።": 7959,
  "▁ይደረግ": 7960,
  "▁ሞኝ": 7961,
  "▁ሄዱ።": 7962,
  "▁የሚከተለው": 7963,
  "▁pur": 7964,
  "▁neighbors": 7965,
  "▁ክፋትን": 7966,
  "▁primary": 7967,
  "▁ለመግዛት": 7968,
  "▁በምትገኘው": 7969,
  "▁ባለትዳሮች": 7970,
  "▁የምናገኘው": 7971,
  "▁የተትረፈረፈ": 7972,
  "▁baby": 7973,
  "▁የምችለው": 7974,
  "▁cave": 7975,
  "▁spare": 7976,
  "▁የመሆን": 7977,
  "▁በይፋ": 7978,
  "▁ተነሱ": 7979,
  "▁troubled": 7980,
  "▁ይነሳል": 7981,
  "▁አደራ": 7982,
  "▁የሚያስፈልጋቸውን": 7983,
  "▁ባወጣ": 7984,
  "▁(4)": 7985,
  "▁iraqi": 7986,
  "▁overseers": 7987,
  "▁ከመሆኑ": 7988,
  "▁jer": 7989,
  "▁surprise": 7990,
  "▁journalists": 7991,
  "▁ጽፏል።": 7992,
  "▁counted": 7993,
  "▁አይገባም።": 7994,
  "ረጋገጠ": 7995,
  "ጦርነቱ": 7996,
  "ልጄ": 7997,
  "▁curtain": 7998,
  "▁በየትኞቹ": 7999,
  "▁ያስፈልጋል": 8000,
  "▁ጨካኝ": 8001,
  "▁ፍትሃዊ": 8002,
  "▁copy": 8003,
  "▁ማክበር": 8004,
  "▁መጋረጃ": 8005,
  "▁ራሳችን": 8006,
  "▁closed": 8007,
  "▁2002": 8008,
  "▁ህይወቱ": 8009,
  "▁faithfully": 8010,
  "▁impressed": 8011,
  "ኢሳይያስ": 8012,
  "▁joyfully": 8013,
  "▁ህይወታቸው": 8014,
  "▁reminders": 8015,
  "▁አሰሪ": 8016,
  "▁ህሊናችን": 8017,
  "not": 8018,
  "▁associated": 8019,
  "▁በብር": 8020,
  "▁modest": 8021,
  "▁drawing": 8022,
  "ቲኦክራሲያዊ": 8023,
  "▁pornography": 8024,
  "▁prominent": 8025,
  "▁አፈጻጸም": 8026,
  "▁እውነቶች": 8027,
  "▁engine": 8028,
  "▁በኣለም": 8029,
  "▁በጥሞና": 8030,
  "▁ሰረገላ": 8031,
  "▁ጠቦቶች": 8032,
  "▁አልቀረም": 8033,
  "▁እናድርግ": 8034,
  "▁forgotten": 8035,
  "▁ከደረሰ": 8036,
  "▁invest": 8037,
  "▁በሚኖሩ": 8038,
  "▁harp": 8039,
  "▁በኣል": 8040,
  "▁አሳይቷል": 8041,
  "ሁሉም": 8042,
  "▁የቤቱ": 8043,
  "▁partial": 8044,
  "▁መወጣት": 8045,
  "ፍልስጤማውያን": 8046,
  "▁ሙስና": 8047,
  "▁divide": 8048,
  "▁አጋንንት": 8049,
  "▁applied": 8050,
  "▁complex": 8051,
  "▁spear": 8052,
  "▁ሚኒስትሩ": 8053,
  "▁ምክትል": 8054,
  "▁ተገነዘብኩ": 8055,
  "▁ከፈለግን": 8056,
  "▁ያስፈልጋቸዋል": 8057,
  "▁በማገልገል": 8058,
  "▁እሰጣለሁ": 8059,
  "▁የሳኦል": 8060,
  "▁safeguard": 8061,
  "▁እንዳገኘ": 8062,
  "▁ለጊዜው": 8063,
  "▁የመነጨ": 8064,
  "▁factors": 8065,
  "▁እንዲችል": 8066,
  "col": 8067,
  "▁አይሰማ": 8068,
  "መንፈሳዊ": 8069,
  "▁መክፈል": 8070,
  "▁arrive": 8071,
  "▁indicated": 8072,
  "▁constant": 8073,
  "▁victims": 8074,
  "▁ጉድ": 8075,
  "▁washed": 8076,
  "▁Office": 8077,
  "▁entrusted": 8078,
  "▁ignore": 8079,
  "▁profane": 8080,
  "▁ቍርባን": 8081,
  "▁በከፊል": 8082,
  "▁obvious": 8083,
  "▁ማእከል": 8084,
  "▁የሚሰጠን": 8085,
  "▁partner": 8086,
  "▁መሆናችንን": 8087,
  "▁ደሙን": 8088,
  "▁አጠፋ": 8089,
  "▁philippians": 8090,
  "ቤታቸው": 8091,
  "▁ከኢየሩሳሌም": 8092,
  "▁እንዲሰራ": 8093,
  "▁(8": 8094,
  "▁strengthening": 8095,
  "▁ራሳችሁ": 8096,
  "▁settled": 8097,
  "ለምን": 8098,
  "▁chi": 8099,
  "may": 8100,
  "▁egyptians": 8101,
  "▁commend": 8102,
  "▁leprosy": 8103,
  "▁probably": 8104,
  "▁reuben": 8105,
  "▁ሳምንታት": 8106,
  "▁ቴክኖሎጂ": 8107,
  "▁link": 8108,
  "▁bag": 8109,
  "▁በመናገር": 8110,
  "▁አ።አ": 8111,
  "▁reaction": 8112,
  "▁ኖር": 8113,
  "▁ታች": 8114,
  "▁ከሃጢአት": 8115,
  "▁ወደሆነው": 8116,
  "▁ባዩ": 8117,
  "▁የሚያነሳሳ": 8118,
  "▁እትም": 8119,
  "ሙታን": 8120,
  "▁ህይወቴ": 8121,
  "▁እንዲሰሩ": 8122,
  "▁ዘመኑ": 8123,
  "▁ሰብሳቢ": 8124,
  "▁Democratic": 8125,
  "▁supplication": 8126,
  "▁በአቅኚነት": 8127,
  "▁ፊልጵ": 8128,
  "▁በመውሰድ": 8129,
  "▁alongside": 8130,
  "▁scarlet": 8131,
  "▁ተከተሉ": 8132,
  "▁mission": 8133,
  "▁abel": 8134,
  "▁በርሳችሁ": 8135,
  "▁imperfection": 8136,
  "▁ጫማ": 8137,
  "▁ማለቱ": 8138,
  "▁34)": 8139,
  "ስተውል": 8140,
  "▁ከብቶች": 8141,
  "▁የሚችሉበት": 8142,
  "▁አገልግሎ": 8143,
  "▁የህብረት": 8144,
  "▁ሲሰሙ": 8145,
  "ኢሳ": 8146,
  "▁approve": 8147,
  "other": 8148,
  "▁120": 8149,
  "▁encounter": 8150,
  "▁jericho": 8151,
  "▁lifestyle": 8152,
  "▁palestinian": 8153,
  "▁በባህሩ": 8154,
  "▁የወንድማማች": 8155,
  "▁panel": 8156,
  "▁ታላንት": 8157,
  "▁ለሶስት": 8158,
  "▁ረሃብ": 8159,
  "▁እንደነበሩ": 8160,
  "▁flying": 8161,
  "▁rush": 8162,
  "▁assume": 8163,
  "▁couples": 8164,
  "▁የተረፈ": 8165,
  "over": 8166,
  "ተወው": 8167,
  "▁በአካባቢ": 8168,
  "▁ወንድሜ": 8169,
  "▁ለእርሱ": 8170,
  "▁Am": 8171,
  "▁ገዢዎች": 8172,
  "▁ጋዜጠኞች": 8173,
  "▁file": 8174,
  "ክርስቶስ": 8175,
  "▁መሳሪያዎችን": 8176,
  "▁disc": 8177,
  "▁trusted": 8178,
  "heart": 8179,
  "▁check": 8180,
  "▁ለማስተማር": 8181,
  "▁የትውልድ": 8182,
  "▁profit": 8183,
  "▁wool": 8184,
  "▁መገመት": 8185,
  "▁የደህንነት": 8186,
  "▁ሊኖረን": 8187,
  "▁መብራት": 8188,
  "▁ልብሶች": 8189,
  "አሜሪካ": 8190,
  "▁ኢትዮጵያውያን": 8191,
  "▁ቅርብ": 8192,
  "▁tend": 8193,
  "▁tar": 8194,
  "▁መዝሙራዊው": 8195,
  "▁code": 8196,
  "▁experts": 8197,
  "miss": 8198,
  "▁አምኖ": 8199,
  "▁2000": 8200,
  "▁exalt": 8201,
  "▁በተደረገው": 8202,
  "▁vessels": 8203,
  "No": 8204,
  "▁widely": 8205,
  "▁conventions": 8206,
  "▁block": 8207,
  "▁guarantee": 8208,
  "▁መቀመጫ": 8209,
  "▁ሚክያስ": 8210,
  "▁ግብጻውያን": 8211,
  "▁መውደድ": 8212,
  "▁prompt": 8213,
  "▁ነቀፋ": 8214,
  "▁መስበክ": 8215,
  "▁ወርዱ": 8216,
  "▁ተናገሩ": 8217,
  "▁urgent": 8218,
  "▁figure": 8219,
  "▁የሚያውቅ": 8220,
  "▁የዜና": 8221,
  "▁ለማስፈጸም": 8222,
  "▁ወጣ፤": 8223,
  "▁58": 8224,
  "▁tired": 8225,
  "▁pioneering": 8226,
  "▁goodness": 8227,
  "▁ናቡከደነጾር": 8228,
  "▁satisfying": 8229,
  "▁የነበረችው": 8230,
  "▁ለነበሩት": 8231,
  "▁compared": 8232,
  "chan": 8233,
  "▁ነበረች።": 8234,
  "ተወሰደ": 8235,
  "▁አምሳ": 8236,
  "▁እያየ": 8237,
  "▁grape": 8238,
  "▁speed": 8239,
  "▁ልጆቿ": 8240,
  "▁ተወላጅ": 8241,
  "▁አስከፊ": 8242,
  "▁authorized": 8243,
  "ፈጽመው": 8244,
  "▁የሙያ": 8245,
  "▁ዝሙት": 8246,
  "▁ከመጠን": 8247,
  "▁ከኢትዮጵያ": 8248,
  "▁ጀመርኩ።": 8249,
  "▁አስቦ": 8250,
  "▁በህይወቱ": 8251,
  "▁balanced": 8252,
  "▁ለያእቆብ": 8253,
  "ሃይማኖት": 8254,
  "▁recalls": 8255,
  "▁ሲሄዱ": 8256,
  "▁Solomon": 8257,
  "▁phone": 8258,
  "▁rebuke": 8259,
  "▁terrified": 8260,
  "▁ባዘዘው": 8261,
  "▁አጥብቀው": 8262,
  "▁location": 8263,
  "▁zemen": 8264,
  "▁በጥበብ": 8265,
  "▁በጉጉት": 8266,
  "▁ተነሳስቶ": 8267,
  "▁ሂሳብ": 8268,
  "▁የሚታዩ": 8269,
  "▁በፍታ": 8270,
  "▁የጋራ": 8271,
  "▁ያገኙ": 8272,
  "እጆቹ": 8273,
  "▁የአገሪቱ": 8274,
  "▁ያደረጉ": 8275,
  "▁የእድሜ": 8276,
  "▁ተቆጣጣሪ": 8277,
  "▁ከአባ": 8278,
  "አገልጋይህ": 8279,
  "When": 8280,
  "come": 8281,
  "▁ሆነች": 8282,
  "▁በቅዱሳን": 8283,
  "▁አዳሪ": 8284,
  "▁ያዙ": 8285,
  "▁brief": 8286,
  "▁loaves": 8287,
  "▁version": 8288,
  "▁pleasant": 8289,
  "▁የጥንቶቹ": 8290,
  "▁ግምጃ": 8291,
  "▁ወይፈን": 8292,
  "▁አሏቸው": 8293,
  "▁በራእይ": 8294,
  "▁የማይችሉ": 8295,
  "▁አታስ": 8296,
  "▁ከወጣ": 8297,
  "▁ሴራ": 8298,
  "▁ተስፋዎች": 8299,
  "▁reporter": 8300,
  "ሽማግሌ": 8301,
  "ከባድ": 8302,
  "▁ዮሀንስ": 8303,
  "▁የሌለ": 8304,
  "▁አለችው።": 8305,
  "▁አብራም": 8306,
  "▁prosper": 8307,
  "▁capacity": 8308,
  "▁sufficient": 8309,
  "▁twenty": 8310,
  "▁የአትክልት": 8311,
  "▁እያደረገ": 8312,
  "▁የሚያጋጥሙ": 8313,
  "▁green": 8314,
  "▁የተሰጣቸው": 8315,
  "▁ዴሞክራሲያዊ": 8316,
  "▁ይጠብቅ": 8317,
  "▁እጄን": 8318,
  "▁በወርቅ": 8319,
  "▁ይሰጠዋል": 8320,
  "▁push": 8321,
  "ፈሩት": 8322,
  "ባቢሎን": 8323,
  "▁inclined": 8324,
  "▁ለመከተል": 8325,
  "▁መለያ": 8326,
  "▁Philistines": 8327,
  "▁ያገኘነው": 8328,
  "▁በመሸ": 8329,
  "▁እየሰራ": 8330,
  "▁stronger": 8331,
  "ደገፍ": 8332,
  "▁Of": 8333,
  "▁charged": 8334,
  "▁representatives": 8335,
  "▁1991": 8336,
  "▁administer": 8337,
  "▁captain": 8338,
  "▁captivity": 8339,
  "▁execution": 8340,
  "▁glorified": 8341,
  "▁locust": 8342,
  "▁rebellious": 8343,
  "▁ቦኤዝ": 8344,
  "▁ተሰብስበው": 8345,
  "▁አስተዳዳሪ": 8346,
  "▁አስኪያጅ": 8347,
  "▁እንደመሆኑ": 8348,
  "▁የግጦሽ": 8349,
  "▁መዝናኛ": 8350,
  "▁kiss": 8351,
  "▁knee": 8352,
  "▁priority": 8353,
  "▁rescued": 8354,
  "▁continually": 8355,
  "▁finger": 8356,
  "▁ወግ": 8357,
  "▁የቀረ": 8358,
  "▁እንዲሰጡ": 8359,
  "▁57": 8360,
  "ፈጸማ": 8361,
  "▁የደረሰባቸው": 8362,
  "▁income": 8363,
  "መክፈል": 8364,
  "press": 8365,
  "▁adopt": 8366,
  "▁consumed": 8367,
  "▁ስምህን": 8368,
  "▁metal": 8369,
  "አይሁዳውያን": 8370,
  "▁previous": 8371,
  "▁ይሰጡ": 8372,
  "▁numbered": 8373,
  "▁ፖለቲካ": 8374,
  "ቅዱስ": 8375,
  "oh": 8376,
  "▁democracy": 8377,
  "▁determination": 8378,
  "▁eliminate": 8379,
  "▁preparing": 8380,
  "▁ridicule": 8381,
  "▁scientific": 8382,
  "▁ወላጆቻቸው": 8383,
  "▁enoch": 8384,
  "▁በቅድሚያ": 8385,
  "▁የሚቀርበው": 8386,
  "▁manager": 8387,
  "▁ከተናገረ": 8388,
  "▁መለወጥ": 8389,
  "▁noble": 8390,
  "▁መልሰው": 8391,
  "▁ክንፍ": 8392,
  "▁discernment": 8393,
  "▁movement": 8394,
  "▁ዘሩ": 8395,
  "▁ዘገባው": 8396,
  "▁ተዘጋጅ": 8397,
  "▁lest": 8398,
  "▁sadly": 8399,
  "▁coat": 8400,
  "draw": 8401,
  "▁በክፉ": 8402,
  "▁በመፈጸም": 8403,
  "▁institution": 8404,
  "▁የደም": 8405,
  "▁considering": 8406,
  "▁2011": 8407,
  "▁doctrine": 8408,
  "▁ንጽህና": 8409,
  "▁አወድሱ": 8410,
  "▁ስብእና": 8411,
  "▁እርሾ": 8412,
  "▁ይወድቃሉ": 8413,
  "▁እባብ": 8414,
  "▁ያለምንም": 8415,
  "▁62": 8416,
  "▁failure": 8417,
  "▁teeth": 8418,
  "▁ስንል": 8419,
  "▁stage": 8420,
  "▁አይቶ": 8421,
  "▁outcome": 8422,
  "ፍትህ": 8423,
  "▁painful": 8424,
  "▁ስፍር": 8425,
  "▁ይሰማቸዋል።": 8426,
  "▁ውጣ": 8427,
  "▁የፈጸመው": 8428,
  "▁አለ፦": 8429,
  "▁አለባቸው።": 8430,
  "▁በሚደርስ": 8431,
  "ጠብቃቸው": 8432,
  "▁robe": 8433,
  "▁involve": 8434,
  "▁associations": 8435,
  "ከተማ": 8436,
  "▁defile": 8437,
  "▁ኤጀንሲ": 8438,
  "▁employees": 8439,
  "▁ይኖረዋል": 8440,
  "▁አደርጋለሁ፤": 8441,
  "▁dealings": 8442,
  "▁devastated": 8443,
  "▁disgrace": 8444,
  "▁invisible": 8445,
  "▁womb": 8446,
  "▁አእምሯችን": 8447,
  "▁ኮሚሽን": 8448,
  "▁mature": 8449,
  "▁ይታያል": 8450,
  "▁rebelled": 8451,
  "▁residence": 8452,
  "lay": 8453,
  "ዘጋጀው": 8454,
  "ምድሪቱ": 8455,
  "▁ያቀፈ": 8456,
  "▁afflicted": 8457,
  "▁ቢኖርም": 8458,
  "▁ቢሆኑም": 8459,
  "▁እጅህን": 8460,
  "▁surrounded": 8461,
  "▁ተመልከት።": 8462,
  "መሰዊያ": 8463,
  "አብርሃም": 8464,
  "እውቀት": 8465,
  "▁ለመጠቀም": 8466,
  "ዋለች": 8467,
  "long": 8468,
  "▁helpful": 8469,
  "▁ከሰጠ": 8470,
  "▁ነበረበት": 8471,
  "▁King": 8472,
  "Y": 8473,
  "▁የሚሰራው": 8474,
  "▁cherish": 8475,
  "ያስፈልገኝ": 8476,
  "▁agency": 8477,
  "▁josiah": 8478,
  "▁nehemiah": 8479,
  "▁rebuild": 8480,
  "▁scheme": 8481,
  "▁መግለጽ": 8482,
  "▁ታዋቂ": 8483,
  "▁እሄዳለሁ": 8484,
  "ትምህርቱ": 8485,
  "▁ጉጉት": 8486,
  "ጠናቀቅ": 8487,
  "▁ሰምተው": 8488,
  "▁የተናገረ": 8489,
  "▁clay": 8490,
  "▁planet": 8491,
  "▁ለማዳን": 8492,
  "▁surprised": 8493,
  "▁እጅህ": 8494,
  "ማግኘት": 8495,
  "▁publish": 8496,
  "▁extended": 8497,
  "▁bus": 8498,
  "▁ትችላላችሁ።": 8499,
  "▁companion": 8500,
  "▁instruction": 8501,
  "▁በቀጣዩ": 8502,
  "▁ትርጉሞች": 8503,
  "▁የእብራይስጥ": 8504,
  "▁pardon": 8505,
  "▁አልሆነ": 8506,
  "▁ሃይሌ": 8507,
  "▁ዘመናዊ": 8508,
  "▁ትልቁ": 8509,
  "▁huge": 8510,
  "▁ፖለቲካዊ": 8511,
  "▁ተወዳጅ": 8512,
  "▁ይመጣሉ": 8513,
  "▁እንደሌለው": 8514,
  "▁israelite": 8515,
  "▁የምትባል": 8516,
  "why": 8517,
  "200": 8518,
  "▁ችሎ": 8519,
  "▁ሳር": 8520,
  "▁አይደሉም።": 8521,
  "▁ሰራተኛው": 8522,
  "ኟ": 8523,
  "▁entitled": 8524,
  "▁motive": 8525,
  "▁repentance": 8526,
  "▁thanksgiving": 8527,
  "▁twelve": 8528,
  "▁ቅዱሳዊ": 8529,
  "▁አዘውትረን": 8530,
  "▁የሚያቀርበው": 8531,
  "▁convey": 8532,
  "▁drag": 8533,
  "▁dealt": 8534,
  "▁ከቅርብ": 8535,
  "▁cancel": 8536,
  "▁double": 8537,
  "▁ሰምቶ": 8538,
  "▁ከአንዱ": 8539,
  "▁መራቅ": 8540,
  "▁ፈጣን": 8541,
  "▁refugees": 8542,
  "▁እንዴ": 8543,
  "▁witnessing": 8544,
  "▁Their": 8545,
  "▁እንዳልተ": 8546,
  "▁የወደፊት": 8547,
  "እስራኤል": 8548,
  "▁መብቱ": 8549,
  "▁ቤተሰቡን": 8550,
  "ሚከተሉት": 8551,
  "▁kingship": 8552,
  "▁wages": 8553,
  "▁assign": 8554,
  "ሻገሩ": 8555,
  "▁ስጦታዎች": 8556,
  "▁ቤታችን": 8557,
  "ጸኑ": 8558,
  "▁አስነሳ": 8559,
  "▁እገዛ": 8560,
  "▁obtained": 8561,
  "▁እንዲመለስ": 8562,
  "▁ስጥ": 8563,
  "▁refer": 8564,
  "▁የሚናገሩ": 8565,
  "▁ይኖርበታል።": 8566,
  "▁jephthah": 8567,
  "▁solid": 8568,
  "▁twice": 8569,
  "▁መተማመን": 8570,
  "▁ርዝመቱ": 8571,
  "▁በተገቢው": 8572,
  "▁በእንጨት": 8573,
  "▁distant": 8574,
  "▁guest": 8575,
  "▁ካገኘ": 8576,
  "▁ጥብቅ": 8577,
  "▁thick": 8578,
  "▁ስንዴ": 8579,
  "▁ያሳያሉ": 8580,
  "▁playing": 8581,
  "▁reform": 8582,
  "▁ይጠፋሉ": 8583,
  "▁thereafter": 8584,
  "▁ለኢየሱስ": 8585,
  "▁እላለሁ": 8586,
  "▁የማይገባ": 8587,
  "▁ተገለጠ": 8588,
  "▁defiled": 8589,
  "▁punish": 8590,
  "▁ከፊት": 8591,
  "▁አባትህ": 8592,
  "▁ያእ": 8593,
  "▁የሚጠይቅ": 8594,
  "▁haile": 8595,
  "▁ነዋሪ": 8596,
  "My": 8597,
  "ጸሎት": 8598,
  "▁ያዘጋጀ": 8599,
  "▁differences": 8600,
  "▁ያውቃል።": 8601,
  "▁prostitution": 8602,
  "▁ባልንጀሮቻችን": 8603,
  "▁የሚያገለግል": 8604,
  "▁የሚበልጥ": 8605,
  "▁ወረዳ": 8606,
  "▁ክፍት": 8607,
  "▁የሚጠራ": 8608,
  "Will": 8609,
  "▁affliction": 8610,
  "▁bind": 8611,
  "▁billion": 8612,
  "▁የእነሱን": 8613,
  "▁healing": 8614,
  "አሰሪ": 8615,
  "▁mill": 8616,
  "▁cleanse": 8617,
  "▁ምሳሌዎችን": 8618,
  "▁ከቦታ": 8619,
  "ሰባት": 8620,
  "▁ለመማር": 8621,
  "▁reduce": 8622,
  "▁የቅዱሳን": 8623,
  "▁እላችሗለሁ፣": 8624,
  "▁captives": 8625,
  "▁mild": 8626,
  "▁Korea": 8627,
  "▁Service": 8628,
  "▁disbelieve": 8629,
  "▁ማክሰኞ": 8630,
  "▁ትሆናላችሁ": 8631,
  "▁አለመግባባት": 8632,
  "▁አግኝቶ": 8633,
  "▁በሃዘን": 8634,
  "▁እንድትችል": 8635,
  "▁peer": 8636,
  "▁hardship": 8637,
  "▁አድርገዋል።": 8638,
  "▁ቆላ": 8639,
  "▁modesty": 8640,
  "ሙስና": 8641,
  "▁ይጠበቅ": 8642,
  "▁instruments": 8643,
  "▁ይገባል፧": 8644,
  "▁prey": 8645,
  "▁ነን።": 8646,
  "እርዳታ": 8647,
  "▁discover": 8648,
  "ውሳኔ": 8649,
  "▁በእግር": 8650,
  "▁የተወሰነውን": 8651,
  "▁engaged": 8652,
  "▁ቁጣዬ": 8653,
  "▁complain": 8654,
  "part": 8655,
  "▁የሻእቢያ": 8656,
  "▁employ": 8657,
  "▁ስማቸው": 8658,
  "▁የሚናገረውን": 8659,
  "▁ለቤተ": 8660,
  "▁identified": 8661,
  "▁summer": 8662,
  "▁swallow": 8663,
  "▁volunteer": 8664,
  "▁መልአኩ": 8665,
  "▁የፌዴራል": 8666,
  "▁wedding": 8667,
  "▁amazed": 8668,
  "▁valid": 8669,
  "▁በተሟላ": 8670,
  "▁የተገለጸው": 8671,
  "▁በእስር": 8672,
  "▁ነፍሰ": 8673,
  "▁እምነታቸው": 8674,
  "▁hoping": 8675,
  "▁ይገባዋል": 8676,
  "▁seated": 8677,
  "▁observers": 8678,
  "▁ምሳሌያዊ": 8679,
  "▁ዝና": 8680,
  "▁ለሆኑ": 8681,
  "▁አዩ": 8682,
  "▁breaking": 8683,
  "▁አገኘሁ": 8684,
  "▁መኖራቸው": 8685,
  "tell": 8686,
  "▁ፍጻሜውን": 8687,
  "እግር": 8688,
  "▁አምላካቸው": 8689,
  "▁russia": 8690,
  "ሃዋርያት": 8691,
  "▁አይኖርም።": 8692,
  "▁disturb": 8693,
  "▁france": 8694,
  "▁miraculous": 8695,
  "▁mislead": 8696,
  "▁sacrificing": 8697,
  "▁እንደሚፈልግ": 8698,
  "▁magic": 8699,
  "▁ያስከተለ": 8700,
  "▁ወንድሞቻቸው": 8701,
  "▁ሁላችሁም": 8702,
  "▁የሗላ": 8703,
  "▁crop": 8704,
  "▁ትይዩ": 8705,
  "▁እንደዚያ": 8706,
  "▁card": 8707,
  "▁ትክክለኛውን": 8708,
  "▁wept": 8709,
  "▁cook": 8710,
  "▁በጀት": 8711,
  "▁የገፉ": 8712,
  "▁wondered": 8713,
  "▁ከዳዊት": 8714,
  "▁አብሬ": 8715,
  "አንቺ": 8716,
  "▁ያስነሳ": 8717,
  "ዞር": 8718,
  "▁እንዲቆይ": 8719,
  "▁ውርደት": 8720,
  "▁አስቡ": 8721,
  "▁india": 8722,
  "▁መጡ።": 8723,
  "▁quit": 8724,
  "▁gratitude": 8725,
  "▁shock": 8726,
  "▁sprout": 8727,
  "▁አስገራሚ": 8728,
  "▁ወስደህ": 8729,
  "▁የተመዘገቡት": 8730,
  "▁ጀርመን": 8731,
  "▁ምግቦች": 8732,
  "▁አስታወቀ": 8733,
  "▁canada": 8734,
  "▁ፍለጋ": 8735,
  "▁ያደረጋቸው": 8736,
  "▁የሚያህሉ": 8737,
  "መስጠት": 8738,
  "▁ገዳይ": 8739,
  "▁የሚበላ": 8740,
  "▁circumcised": 8741,
  "▁signed": 8742,
  "▁የሚባሉ": 8743,
  "▁ለእነርሱ": 8744,
  "▁ማረጋገጥ": 8745,
  "▁Holy": 8746,
  "▁ቀጥሉ": 8747,
  "▁የተመለከተው": 8748,
  "▁openly": 8749,
  "▁ትችላለህ፧": 8750,
  "▁ነበረው።": 8751,
  "▁rob": 8752,
  "▁oppose": 8753,
  "▁welcome": 8754,
  "▁ጠይቅ": 8755,
  "▁gained": 8756,
  "▁seriously": 8757,
  "▁ማዳን": 8758,
  "ሚገኘው": 8759,
  "▁symbol": 8760,
  "▁Not": 8761,
  "▁exhort": 8762,
  "▁inquire": 8763,
  "▁model": 8764,
  "▁petition": 8765,
  "▁september": 8766,
  "▁አጠቃላይ": 8767,
  "▁ማሸነፍ": 8768,
  "▁እርማት": 8769,
  "▁ጣፋጭ": 8770,
  "▁ባገኘ": 8771,
  "▁አጥብቆ": 8772,
  "▁ሸክላ": 8773,
  "▁ግፊት": 8774,
  "▁አስቴር": 8775,
  "▁ቀጠሮ": 8776,
  "▁ገለል": 8777,
  "▁North": 8778,
  "▁ሳይንስ": 8779,
  "▁ይቀጣ": 8780,
  "▁ወንድምህ": 8781,
  "▁miracles": 8782,
  "▁camped": 8783,
  "▁soft": 8784,
  "▁announced": 8785,
  "▁qualified": 8786,
  "▁የተማረ": 8787,
  "▁prisoners": 8788,
  "▁ሊረዳህ": 8789,
  "▁executed": 8790,
  "▁በልብ": 8791,
  "▁ሊኖረው": 8792,
  "▁era": 8793,
  "ተቃዋሚ": 8794,
  "ሌዋውያኑ": 8795,
  "▁በእጅ": 8796,
  "▁እንደሚሰጥ": 8797,
  "ገድለው": 8798,
  "የእስራኤል": 8799,
  "▁ውሃዎች": 8800,
  "▁አሳይቷል።": 8801,
  "ሃጢአታችን": 8802,
  "▁While": 8803,
  "▁burial": 8804,
  "▁empire": 8805,
  "▁expand": 8806,
  "▁ይታወቃል": 8807,
  "▁fresh": 8808,
  "▁የተላለፈ": 8809,
  "▁expel": 8810,
  "▁spy": 8811,
  "▁እንደሚሆኑ": 8812,
  "▁የሚያስደስት": 8813,
  "▁ftn": 8814,
  "▁purple": 8815,
  "▁ታቦቱ": 8816,
  "▁capable": 8817,
  "▁አይኑ": 8818,
  "▁ቤዛው": 8819,
  "▁ደሴት": 8820,
  "▁refers": 8821,
  "▁ይገኛል።": 8822,
  "▁መስተዳድር": 8823,
  "▁ለሆነ": 8824,
  "▁ይፈልጋል።": 8825,
  "▁ወንድሙን": 8826,
  "▁በአእምሮ": 8827,
  "▁ሞቱ": 8828,
  "▁በገንዘብ": 8829,
  "▁starting": 8830,
  "▁confirm": 8831,
  "▁ህዝቦቹ": 8832,
  "▁ruled": 8833,
  "▁ሰጥቶታል": 8834,
  "▁ሲያይ": 8835,
  "መላእክቱ": 8836,
  "ኰ": 8837,
  "▁Public": 8838,
  "▁anymore": 8839,
  "▁hatred": 8840,
  "▁haughty": 8841,
  "▁identity": 8842,
  "▁intelligence": 8843,
  "▁shoot": 8844,
  "▁ሳይሆኑ": 8845,
  "▁ጥርጣሬ": 8846,
  "▁target": 8847,
  "▁ከሗላ": 8848,
  "▁farmers": 8849,
  "▁የሚያገኘው": 8850,
  "▁discouraged": 8851,
  "▁topic": 8852,
  "▁ማጥፋት": 8853,
  "body": 8854,
  "▁ኢዩ": 8855,
  "▁ይሰማል": 8856,
  "▁መወሰን": 8857,
  "▁መደበኛ": 8858,
  "▁ፊቱን": 8859,
  "ህያዋን": 8860,
  "▁argument": 8861,
  "▁prosecutor": 8862,
  "▁rachel": 8863,
  "▁remnant": 8864,
  "▁thessalonians": 8865,
  "▁vengeance": 8866,
  "▁በዙፋኑ": 8867,
  "▁እንድናገኝ": 8868,
  "▁ተጠቅመው": 8869,
  "▁ደጃፍ": 8870,
  "▁በኢራቅ": 8871,
  "▁ሃቀኛ": 8872,
  "▁የሚሰጣቸው": 8873,
  "ቅድስና": 8874,
  "▁በኩራት": 8875,
  "▁ገንዘቡን": 8876,
  "▁የምትኖረው": 8877,
  "▁sector": 8878,
  "▁ቁራ": 8879,
  "▁የምታደርገው": 8880,
  "▁ጽዮን": 8881,
  "▁ከእግዚአብሄር": 8882,
  "▁useful": 8883,
  "▁ሆነዋል": 8884,
  "▁32)": 8885,
  "▁respected": 8886,
  "▁unit": 8887,
  "▁ማሳሰቢያዎች": 8888,
  "▁የገባው": 8889,
  "▁obeyed": 8890,
  "▁የምድሪቱ": 8891,
  "▁አደርግ": 8892,
  "get": 8893,
  "▁depression": 8894,
  "▁routine": 8895,
  "▁wander": 8896,
  "▁ጠረጴዛ": 8897,
  "▁ከሰሜን": 8898,
  "▁trap": 8899,
  "▁crossed": 8900,
  "▁ብሏቸዋል": 8901,
  "▁የሚጠብቅ": 8902,
  "▁መምጣት": 8903,
  "▁ሰልፍ": 8904,
  "▁የሙሉ": 8905,
  "▁መውጫ": 8906,
  "▁directive": 8907,
  "▁Zion": 8908,
  "▁Ex": 8909,
  "▁supporting": 8910,
  "▁talked": 8911,
  "▁አስተማሪዎች": 8912,
  "▁stretched": 8913,
  "▁persia": 8914,
  "▁contributed": 8915,
  "▁lovers": 8916,
  "▁ችሎት": 8917,
  "▁ቁጣው": 8918,
  "▁1994": 8919,
  "▁Although": 8920,
  "▁companies": 8921,
  "▁disobedience": 8922,
  "▁examination": 8923,
  "▁incident": 8924,
  "▁space": 8925,
  "▁መኮንኖች": 8926,
  "▁ስናደርግ": 8927,
  "▁እንደገለጹት": 8928,
  "▁ጽሁፎቻችን": 8929,
  "▁የምታደርጉ": 8930,
  "▁ግድግዳ": 8931,
  "▁ርብቃ": 8932,
  "▁amazing": 8933,
  "▁ነፍሴ": 8934,
  "▁ጠየቁ": 8935,
  "▁እንደሌላቸው": 8936,
  "▁በእውነተኛው": 8937,
  "▁ፈለግ": 8938,
  "▁equipment": 8939,
  "▁Eli": 8940,
  "▁captive": 8941,
  "▁አምድ": 8942,
  "▁ተመለስ": 8943,
  "ህይወት": 8944,
  "▁regardless": 8945,
  "ታተሉ": 8946,
  "▁passage": 8947,
  "▁accountable": 8948,
  "▁ገጽታ": 8949,
  "▁በመቶዎች": 8950,
  "▁እንዳይሆን": 8951,
  "▁size": 8952,
  "▁ጌታችን": 8953,
  "መድሃኒት": 8954,
  "በማለት": 8955,
  "▁counter": 8956,
  "▁ነጋዴ": 8957,
  "was": 8958,
  "▁ተቃዋሚዎች": 8959,
  "▁የሚመራው": 8960,
  "ዳንኤል": 8961,
  "መዘጋጀት": 8962,
  "▁basket": 8963,
  "▁torture": 8964,
  "▁warfare": 8965,
  "▁በተለያየ": 8966,
  "▁አስከሬን": 8967,
  "▁የተዘጋጁ": 8968,
  "▁የውዳሴ": 8969,
  "▁ያተኮረ": 8970,
  "▁june": 8971,
  "▁insult": 8972,
  "▁ሃሳቡን": 8973,
  "▁herod": 8974,
  "▁messenger": 8975,
  "▁hill": 8976,
  "▁flight": 8977,
  "▁apparently": 8978,
  "▁New": 8979,
  "▁ተቀመጡ": 8980,
  "▁በእነርሱ": 8981,
  "▁እንዳለብኝ": 8982,
  "▁planted": 8983,
  "▁ጠብቆ": 8984,
  "▁sentenced": 8985,
  "▁እንዲገባ": 8986,
  "ትክክለኛ": 8987,
  "genesis": 8988,
  "▁አዳኝ": 8989,
  "▁በልባቸው": 8990,
  "▁suggested": 8991,
  "ይበልጥ": 8992,
  "▁escaped": 8993,
  "ከፈለው": 8994,
  "▁እውነቱ": 8995,
  "▁directives": 8996,
  "▁Prime": 8997,
  "▁heartfelt": 8998,
  "▁introduce": 8999,
  "▁palace": 9000,
  "▁schedule": 9001,
  "▁አቀባይ": 9002,
  "▁የድንጋይ": 9003,
  "▁THE": 9004,
  "▁ንግግሩ": 9005,
  "▁የሚፈጽሙ": 9006,
  "▁ሲያደርጉ": 9007,
  "▁እንዳደረጉ": 9008,
  "▁attract": 9009,
  "▁ፈሪሃ": 9010,
  "▁corpse": 9011,
  "▁ይወጣሉ": 9012,
  "▁የቻሉት": 9013,
  "▁የሚያስፈልገንን": 9014,
  "▁የክብር": 9015,
  "▁ጉልበት": 9016,
  "▁sugar": 9017,
  "▁camels": 9018,
  "▁unrighteousness": 9019,
  "▁ከምንም": 9020,
  "▁uncleanness": 9021,
  "▁ያስችለናል": 9022,
  "▁ሰጥቷል።": 9023,
  "ተገደሉ": 9024,
  "▁holder": 9025,
  "▁ከገባ": 9026,
  "▁ጠብቅ": 9027,
  "psalm": 9028,
  "ከተሞች": 9029,
  "▁Ra": 9030,
  "ላችሗለሁ": 9031,
  "▁dad": 9032,
  "▁ሲሞት": 9033,
  "▁april": 9034,
  "▁argue": 9035,
  "▁continuing": 9036,
  "▁explanation": 9037,
  "▁spot": 9038,
  "▁በዘመኑ": 9039,
  "▁የካቶሊክ": 9040,
  "▁ጸሀፊ": 9041,
  "▁bride": 9042,
  "▁injury": 9043,
  "▁ቀርበው": 9044,
  "▁እያደረጉ": 9045,
  "▁ተፈጥሮ": 9046,
  "▁potter": 9047,
  "ጢሮስ": 9048,
  "▁dying": 9049,
  "▁ተኩል": 9050,
  "ቆርጥ": 9051,
  "▁interpretation": 9052,
  "▁torn": 9053,
  "▁representative": 9054,
  "make": 9055,
  "▁(5)": 9056,
  "▁አንዳችሁ": 9057,
  "▁sen": 9058,
  "▁selected": 9059,
  "▁መታዘዝ": 9060,
  "▁dealing": 9061,
  "▁register": 9062,
  "ኢያሱ": 9063,
  "።።።": 9064,
  "▁ስለነበረው": 9065,
  "▁ጥሎ": 9066,
  "▁requested": 9067,
  "▁ባይሆንም": 9068,
  "▁አሳየ": 9069,
  "ፈጣሪ": 9070,
  "▁unfaithful": 9071,
  "▁proceed": 9072,
  "▁broad": 9073,
  "▁neglect": 9074,
  "▁believing": 9075,
  "▁terrible": 9076,
  "▁tremble": 9077,
  "▁መጽናኛ": 9078,
  "▁ተአምራዊ": 9079,
  "▁ያረጋግጣል": 9080,
  "▁mineral": 9081,
  "▁የተናገሩት": 9082,
  "▁ራሷን": 9083,
  "▁enduring": 9084,
  "▁ስለነበሩ": 9085,
  "▁የሚቻለው": 9086,
  "▁በራሴ": 9087,
  "▁ይችሉ": 9088,
  "▁influenced": 9089,
  "▁ቸር": 9090,
  "▁catch": 9091,
  "▁oppression": 9092,
  "▁victim": 9093,
  "▁ከከተማዋ": 9094,
  "▁sixth": 9095,
  "▁character": 9096,
  "▁የአእምሮ": 9097,
  "▁ለወንድ": 9098,
  "▁የሌሎች": 9099,
  "▁defeat": 9100,
  "▁maintaining": 9101,
  "room": 9102,
  "መላእክት": 9103,
  "Let": 9104,
  "መጪው": 9105,
  "እብራውያን": 9106,
  "▁lad": 9107,
  "▁rate": 9108,
  "▁የጊዜ": 9109,
  "▁አብሮት": 9110,
  "▁ጸሀይ": 9111,
  "▁ሴቲቱ": 9112,
  "▁61": 9113,
  "▁የለኝም": 9114,
  "▁ሉአላዊ": 9115,
  "▁proclaimed": 9116,
  "▁እምነታችንን": 9117,
  "ሗት": 9118,
  "፲": 9119,
  "▁audience": 9120,
  "▁contempt": 9121,
  "▁drunk": 9122,
  "▁imprisoned": 9123,
  "▁lazarus": 9124,
  "▁obstacle": 9125,
  "▁silence": 9126,
  "▁ቅርንጫፎች": 9127,
  "▁በውስጣቸው": 9128,
  "▁objective": 9129,
  "▁ሚያዝያ": 9130,
  "▁መምህር": 9131,
  "▁መስፈርት": 9132,
  "▁solve": 9133,
  "▁install": 9134,
  "▁ሲወጣ": 9135,
  "▁የተፈጸመው": 9136,
  "▁sail": 9137,
  "▁thankful": 9138,
  "▁ለመካፈል": 9139,
  "▁አስገባ": 9140,
  "▁ነጋዴዎች": 9141,
  "▁አባታችሁ": 9142,
  "▁ስላላ": 9143,
  "▁Abi": 9144,
  "▁inhabit": 9145,
  "▁dish": 9146,
  "▁አስተዳደ": 9147,
  "ጽህፈት": 9148,
  "▁የሚሄድ": 9149,
  "▁hin": 9150,
  "▁ተሰማኝ": 9151,
  "መንገድ": 9152,
  "▁የእንግሊዝ": 9153,
  "▁allowing": 9154,
  "▁እንግሊዝኛ": 9155,
  "▁Just": 9156,
  "▁Wherefore": 9157,
  "▁abram": 9158,
  "▁august": 9159,
  "▁fiery": 9160,
  "▁politics": 9161,
  "▁smoking": 9162,
  "▁ማሰላሰላችን": 9163,
  "▁ውጤቶች": 9164,
  "▁የምትገኘው": 9165,
  "▁የፈርኦን": 9166,
  "▁ፍየሎች": 9167,
  "▁series": 9168,
  "▁ራሄል": 9169,
  "▁መድረስ": 9170,
  "▁christmas": 9171,
  "▁network": 9172,
  "▁የመዳብ": 9173,
  "▁መናገሩ": 9174,
  "ught": 9175,
  "▁10,000": 9176,
  "▁ጽናት": 9177,
  "▁አምስቱ": 9178,
  "▁ባሉበት": 9179,
  "▁ይገኙበታል።": 9180,
  "▁ሎጥ": 9181,
  "▁fuel": 9182,
  "▁ወተት": 9183,
  "▁ብልሹ": 9184,
  "▁የተሰጡ": 9185,
  "ብርሃን": 9186,
  "▁(22": 9187,
  "▁ቀኖች": 9188,
  "▁egyptian": 9189,
  "▁jew": 9190,
  "▁እስካለ": 9191,
  "▁አስፈላጊነት": 9192,
  "ung": 9193,
  "▁reasoning": 9194,
  "▁ሄሮድስ": 9195,
  "▁lame": 9196,
  "▁አውሎ": 9197,
  "▁truthful": 9198,
  "▁የደረሰበት": 9199,
  "▁እንዲወጡ": 9200,
  "▁recommend": 9201,
  "▁appreciated": 9202,
  "▁encamp": 9203,
  "▁choosing": 9204,
  "▁ለወንዶች": 9205,
  "▁መቅሰፍት": 9206,
  "▁በተካሄደ": 9207,
  "▁በዝግመተ": 9208,
  "▁ጄኔራል": 9209,
  "▁raising": 9210,
  "▁ከተለያዩ": 9211,
  "▁አሳልፈው": 9212,
  "▁የቤተሰቡ": 9213,
  "▁simon": 9214,
  "▁bake": 9215,
  "▁minutes": 9216,
  "▁መጥቷል": 9217,
  "▁ለመምራት": 9218,
  "ህይወታ": 9219,
  "▁ለማስረዳት": 9220,
  "▁አይተው": 9221,
  "▁row": 9222,
  "እነዚያ": 9223,
  "▁christianity": 9224,
  "▁የጀመረው": 9225,
  "▁ስርአቱ": 9226,
  "▁successfully": 9227,
  "ታውቀው": 9228,
  "▁gas": 9229,
  "▁ሲመጡ": 9230,
  "▁ኢኮኖሚ": 9231,
  "▁speaker": 9232,
  "▁conceive": 9233,
  "▁galilee": 9234,
  "▁ቀርቧል": 9235,
  "▁የማደርገው": 9236,
  "▁steward": 9237,
  "▁ያለማቋረጥ": 9238,
  "▁ይጠብቃል": 9239,
  "▁outstanding": 9240,
  "▁esther": 9241,
  "▁መኮንን": 9242,
  "▁የእርሻ": 9243,
  "▁ተከትሎ": 9244,
  "▁ስኬት": 9245,
  "▁ይዘህ": 9246,
  "▁መዝገብ": 9247,
  "▁european": 9248,
  "ህብረት": 9249,
  "▁ሰማሁ": 9250,
  "▁ያመለክታል።": 9251,
  "▁leaven": 9252,
  "▁በልጁ": 9253,
  "▁ቅጂዎች": 9254,
  "▁ገደሉ": 9255,
  "▁መስመር": 9256,
  "▁በጭንቀት": 9257,
  "▁ማርታ": 9258,
  "▁አይችሉም።": 9259,
  "▁ቀዶ": 9260,
  "▁satisfy": 9261,
  "በዚያ": 9262,
  "▁director": 9263,
  "▁poles": 9264,
  "▁strange": 9265,
  "▁factor": 9266,
  "▁Moreover": 9267,
  "▁accusation": 9268,
  "▁dishonest": 9269,
  "▁specified": 9270,
  "▁stories": 9271,
  "▁በዘይት": 9272,
  "▁ለማክበር": 9273,
  "▁ድህነት": 9274,
  "▁የለብንም": 9275,
  "▁ሙቀት": 9276,
  "▁ከሆንክ": 9277,
  "▁dread": 9278,
  "▁hebron": 9279,
  "▁እርስዋም": 9280,
  "▁የሚያገለግሉት": 9281,
  "▁ሩቅ": 9282,
  "▁የሚነሱ": 9283,
  "▁ባሪያህ": 9284,
  "▁stranger": 9285,
  "Come": 9286,
  "መጠመቅ": 9287,
  "▁driven": 9288,
  "▁እንደሚሰማ": 9289,
  "ቾ": 9290,
  "▁ከአንቺ": 9291,
  "▁አቢሴሎም": 9292,
  "Because": 9293,
  "▁ባይነት": 9294,
  "▁credit": 9295,
  "▁እንግሊዝ": 9296,
  "▁earthquake": 9297,
  "▁interview": 9298,
  "▁pack": 9299,
  "▁performance": 9300,
  "▁splendor": 9301,
  "▁thirty": 9302,
  "▁ለማዘጋጀት": 9303,
  "▁ሚኒስቴሩ": 9304,
  "▁ባለስልጣኖች": 9305,
  "▁እንደነዚህ": 9306,
  "▁እኩሌታ": 9307,
  "▁ውስብስብ": 9308,
  "▁multiply": 9309,
  "▁ባለቤቷ": 9310,
  "▁የንጉስ": 9311,
  "▁ወዴት": 9312,
  "▁lampstand": 9313,
  "▁thunder": 9314,
  "▁roar": 9315,
  "▁እህቴ": 9316,
  "▁ልባም": 9317,
  "▁snow": 9318,
  "▁ቸል": 9319,
  "ታላቅ": 9320,
  "▁paying": 9321,
  "▁rank": 9322,
  "▁Him": 9323,
  "የያህዌ": 9324,
  "▁noticed": 9325,
  "▁1919": 9326,
  "▁ይሆናሉ፤": 9327,
  "▁overwhelmed": 9328,
  "▁የአዲስ": 9329,
  "▁አትፍራ": 9330,
  "አገልግሎት": 9331,
  "▁dew": 9332,
  "80": 9333,
  "▁የተወሰደ": 9334,
  "▁በቀኝ": 9335,
  "▁intend": 9336,
  "▁below": 9337,
  "▁ሉኣላዊው": 9338,
  "▁64": 9339,
  "ዘሌዋውያን": 9340,
  "▁delegate": 9341,
  "▁humbly": 9342,
  "▁michael": 9343,
  "▁repurchase": 9344,
  "▁taunt": 9345,
  "▁አቀፋዊ": 9346,
  "▁ከመካከላቸው": 9347,
  "▁ክንውኖች": 9348,
  "▁ዜግነት": 9349,
  "▁ጓደኝነት": 9350,
  "▁ጽሁፉ": 9351,
  "▁ፈልጎ": 9352,
  "▁ለማድረስ": 9353,
  "▁የተደረጉ": 9354,
  "▁attain": 9355,
  "▁አለቆቹ": 9356,
  "▁የኣለም": 9357,
  "▁የተመረጡ": 9358,
  "▁ስውር": 9359,
  "▁ተነገረ": 9360,
  "▁1950": 9361,
  "▁ጥራት": 9362,
  "▁የማየት": 9363,
  "▁መልእክተኛ": 9364,
  "▁ራቁ": 9365,
  "▁Take": 9366,
  "እርሱ": 9367,
  "▁meaningful": 9368,
  "▁ቀኑ": 9369,
  "▁initial": 9370,
  "▁ከመጀመሪያው": 9371,
  "▁forsake": 9372,
  "▁january": 9373,
  "▁recognition": 9374,
  "▁ሃብታም": 9375,
  "▁መለኪያ": 9376,
  "▁መፍጠር": 9377,
  "▁በመካከላችን": 9378,
  "▁በፖለቲካ": 9379,
  "▁የድንኳን": 9380,
  "▁የግንባታ": 9381,
  "▁የጳውሎስ": 9382,
  "▁titus": 9383,
  "▁መርከቦች": 9384,
  "▁saint": 9385,
  "▁ከሌሎቹ": 9386,
  "▁የደቡብ": 9387,
  "▁bury": 9388,
  "▁july": 9389,
  "▁በአጭር": 9390,
  "▁hinder": 9391,
  "▁ማናቸውም": 9392,
  "▁ከሚኖሩ": 9393,
  "▁ፈጣሪያችን": 9394,
  "▁ይበላሉ": 9395,
  "▁ቅንአት": 9396,
  "▁hunt": 9397,
  "▁ሀሴት": 9398,
  "▁ማህበራዊ": 9399,
  "ሶርያውያን": 9400,
  "▁የተገባ": 9401,
  "ነፍስ": 9402,
  "▁colossians": 9403,
  "▁የጸና": 9404,
  "▁ሀገር": 9405,
  "መጨረሻ": 9406,
  "▁ስልክ": 9407,
  "▁comforted": 9408,
  "▁አገልጋዬ": 9409,
  "▁በመያዝ": 9410,
  "▁አዋቂዎች": 9411,
  "▁እጆች": 9412,
  "▁balance": 9413,
  "ኤፌሶን": 9414,
  "ባለቤቴ": 9415,
  "▁ሄደህ": 9416,
  "▁Ho": 9417,
  "▁ይጠቀሙ": 9418,
  "ክርስቲያኗ": 9419,
  "▁bethlehem": 9420,
  "▁cooperation": 9421,
  "▁disobey": 9422,
  "▁exclusive": 9423,
  "▁labour": 9424,
  "▁ለማስደሰት": 9425,
  "▁በማስገባት": 9426,
  "▁የአውራጃ": 9427,
  "▁ግሪክኛ": 9428,
  "▁compel": 9429,
  "▁restrain": 9430,
  "ከለዳውያን": 9431,
  "▁ስደተኞች": 9432,
  "▁የሚደርሰው": 9433,
  "▁title": 9434,
  "▁chain": 9435,
  "▁ምናሴ": 9436,
  "▁በሚወጣ": 9437,
  "▁Bush": 9438,
  "▁የለባቸውም": 9439,
  "▁ግንቦት": 9440,
  "▁መሬቱ": 9441,
  "▁ቀድሞው": 9442,
  "▁(21": 9443,
  "▁መሰረተ": 9444,
  "▁jan": 9445,
  "▁ማለፍ": 9446,
  "600": 9447,
  "▁plane": 9448,
  "▁ባልተ": 9449,
  "▁ቀንበር": 9450,
  "▁wearing": 9451,
  "ጽድቅ": 9452,
  "▁refugee": 9453,
  "ጠንቀቅ": 9454,
  "▁ከተሰማ": 9455,
  "▁ይሰጥ": 9456,
  "▁ተጠራ": 9457,
  "▁በረሃ": 9458,
  "▁ride": 9459,
  "aim": 9460,
  "▁እየመጣ": 9461,
  "በኞች": 9462,
  "ሃጢአቱ": 9463,
  "▁abilities": 9464,
  "▁stubborn": 9465,
  "▁በሰይጣን": 9466,
  "▁ተፈጥሯዊ": 9467,
  "▁የአይሁድ": 9468,
  "▁የፍየል": 9469,
  "▁exult": 9470,
  "▁በቀረበ": 9471,
  "▁ክስተቶች": 9472,
  "▁ያነሳሳናል": 9473,
  "▁ለሚኖሩ": 9474,
  "▁የተጻፉ": 9475,
  "▁section": 9476,
  "▁ፊልጵስዩስ": 9477,
  "▁ነክ": 9478,
  "▁ውድድር": 9479,
  "▁ማስተካከያ": 9480,
  "war": 9481,
  "▁ዜናዊ": 9482,
  "▁አለችው": 9483,
  "▁የሚያምን": 9484,
  "▁በሽታዎች": 9485,
  "▁hail": 9486,
  "67": 9487,
  "▁በእስራኤላውያን": 9488,
  "▁ወለደ፤": 9489,
  "▁britain": 9490,
  "▁gideon": 9491,
  "▁majesty": 9492,
  "▁rebekah": 9493,
  "▁እንደሚያስገኝ": 9494,
  "▁chairman": 9495,
  "▁disorder": 9496,
  "▁horror": 9497,
  "▁investigate": 9498,
  "▁occupation": 9499,
  "▁scene": 9500,
  "▁በቁጥጥር": 9501,
  "▁ታዛቢዎች": 9502,
  "▁አደርገዋለሁ": 9503,
  "▁እንደተጠበቀ": 9504,
  "▁ይበልጣል": 9505,
  "▁ቅዳሜ": 9506,
  "▁Power": 9507,
  "▁ለራሳችሁ": 9508,
  "▁cain": 9509,
  "▁wail": 9510,
  "▁ድራማ": 9511,
  "▁meek": 9512,
  "▁spanish": 9513,
  "▁marvelous": 9514,
  "▁በደመና": 9515,
  "▁remarkable": 9516,
  "▁chase": 9517,
  "▁እሳቱ": 9518,
  "▁difficulties": 9519,
  "▁ከስጋ": 9520,
  "▁የራቀ": 9521,
  "▁ለመቅረብ": 9522,
  "▁ሲያደርግ": 9523,
  "▁ያወጣል": 9524,
  "▁ሰፋ": 9525,
  "▁spirituality": 9526,
  "▁ቀንዶች": 9527,
  "▁attacked": 9528,
  "worthy": 9529,
  "▁የሁሉ": 9530,
  "▁አልነበሩም": 9531,
  "▁ኢንዱስትሪ": 9532,
  "▁የሚያስከትል": 9533,
  "ኢሃዴግ": 9534,
  "▁Pharisees": 9535,
  "▁embrace": 9536,
  "▁grieve": 9537,
  "▁industry": 9538,
  "▁television": 9539,
  "▁treacherous": 9540,
  "▁ሸንጎ": 9541,
  "▁በዮርዳኖስ": 9542,
  "▁በጥቂት": 9543,
  "▁የሚያበረታታ": 9544,
  "▁የማመዛዘን": 9545,
  "▁የምትችሉት": 9546,
  "▁ደሴቶች": 9547,
  "▁በሺዎች": 9548,
  "▁worshipped": 9549,
  "▁ከሌላው": 9550,
  "▁gaze": 9551,
  "▁አባቶቻችን": 9552,
  "▁pot": 9553,
  "▁በሰጡት": 9554,
  "▁ላላቸው": 9555,
  "scribe": 9556,
  "▁እምነቱ": 9557,
  "▁anointing": 9558,
  "them": 9559,
  "▁ሬሳ": 9560,
  "▁አካዝ": 9561,
  "▁የሚያከናውኑት": 9562,
  "▁የሰሩ": 9563,
  "▁ያስችለናል።": 9564,
  "▁cursed": 9565,
  "▁ተሰጠ": 9566,
  "▁የሚመለከቱ": 9567,
  "▁የሚጠበቅ": 9568,
  "▁accompanied": 9569,
  "▁breast": 9570,
  "▁declaring": 9571,
  "▁sprinkle": 9572,
  "▁swift": 9573,
  "▁trespass": 9574,
  "▁uncircumcised": 9575,
  "▁ባደረጉት": 9576,
  "▁ቆይተዋል": 9577,
  "▁እሰጥሃለሁ": 9578,
  "▁በእርሻ": 9579,
  "▁winter": 9580,
  "ተላለፉ": 9581,
  "▁ቃየን": 9582,
  "▁ቅድመ": 9583,
  "▁መፍራት": 9584,
  "▁cleansing": 9585,
  "▁የሚመጡት": 9586,
  "▁አገልግሎቱን": 9587,
  "▁ለጋስ": 9588,
  "▁lacking": 9589,
  "cut": 9590,
  "▁arranged": 9591,
  "▁outlook": 9592,
  "give": 9593,
  "▁ኣይነ": 9594,
  "▁ጥርስ": 9595,
  "▁householder": 9596,
  "▁ከተነሳ": 9597,
  "▁በክርስቲያን": 9598,
  "▁በሰጠ": 9599,
  "▁dam": 9600,
  "▁unrighteous": 9601,
  "ብቸኝነት": 9602,
  "▁2014": 9603,
  "▁mortal": 9604,
  "▁reliable": 9605,
  "▁ungodly": 9606,
  "▁vehicle": 9607,
  "▁ሙዚቃ": 9608,
  "▁እስረኞች": 9609,
  "▁ጸልዩ": 9610,
  "ተከለከለ": 9611,
  "▁ተአምር": 9612,
  "▁ለመቀነስ": 9613,
  "▁የረዳው": 9614,
  "▁ለማውጣት": 9615,
  "▁መርከቡ": 9616,
  "ቆጣጠረው": 9617,
  "▁በክብር": 9618,
  "▁ቢኖሩ": 9619,
  "▁እነሆም፥": 9620,
  "▁canaanites": 9621,
  "stand": 9622,
  "▁በህጉ": 9623,
  "▁dependent": 9624,
  "▁ከውጭ": 9625,
  "▁በነበረ": 9626,
  "▁ከራስ": 9627,
  "▁heap": 9628,
  "▁ነህ፤": 9629,
  "▁relation": 9630,
  "▁jah": 9631,
  "▁በልዩ": 9632,
  "ጽዮን": 9633,
  "▁አደጋዎች": 9634,
  "▁physically": 9635,
  "ዤ": 9636,
  "▁compensation": 9637,
  "▁pedestals": 9638,
  "▁propaganda": 9639,
  "▁rehoboam": 9640,
  "▁retreat": 9641,
  "▁uncover": 9642,
  "▁voluntary": 9643,
  "▁መንግስታዊ": 9644,
  "▁ብልጽግና": 9645,
  "▁ይቀበላል": 9646,
  "▁drama": 9647,
  "▁flame": 9648,
  "▁እንደሚያሳየው": 9649,
  "▁ሃላፊነቶች": 9650,
  "▁መምሰል": 9651,
  "▁አሳማኝ": 9652,
  "▁እገዳ": 9653,
  "▁thread": 9654,
  "▁midian": 9655,
  "▁ገንዳ": 9656,
  "▁ነግሮ": 9657,
  "neh": 9658,
  "▁አልነበረውም": 9659,
  "ገላትያ": 9660,
  "▁ይበላል": 9661,
  "▁ያውቁ": 9662,
  "▁ወንድሙ": 9663,
  "▁ያሳድ": 9664,
  "▁ገበሬዎች": 9665,
  "▁rent": 9666,
  "▁አሸዋ": 9667,
  "▁killing": 9668,
  "▁የሚሰሩት": 9669,
  "▁letting": 9670,
  "▁scatter": 9671,
  "▁publication": 9672,
  "▁ገበሬ": 9673,
  "ወታደራዊ": 9674,
  "ስለዚህ": 9675,
  "▁ላኩ": 9676,
  "▁accomplished": 9677,
  "▁import": 9678,
  "▁japan": 9679,
  "▁headquarters": 9680,
  "▁internet": 9681,
  "▁perfume": 9682,
  "▁threshing": 9683,
  "▁ለማስተካከል": 9684,
  "▁መስከረም": 9685,
  "▁በክርስቲያናዊ": 9686,
  "▁እንማራለን": 9687,
  "▁እ።ኤ።አ": 9688,
  "▁የፖሊስ": 9689,
  "▁ጥቅልል": 9690,
  "▁copies": 9691,
  "▁crash": 9692,
  "▁ከንጉሱ": 9693,
  "▁porch": 9694,
  "▁planning": 9695,
  "▁አስታውሱ": 9696,
  "▁ቶማስ": 9697,
  "▁አስርተ": 9698,
  "▁ይጠብቁ": 9699,
  "▁እንደምትችል": 9700,
  "▁ወድቆ": 9701,
  "▁transferred": 9702,
  "▁ነህምያ": 9703,
  "▁አምስተኛ": 9704,
  "▁provoke": 9705,
  "▁አቆመ": 9706,
  "▁data": 9707,
  "▁አውጪ": 9708,
  "▁አመቺ": 9709,
  "▁ነች": 9710,
  "▁ደረቅ": 9711,
  "▁Mary": 9712,
  "▁ለምድር": 9713,
  "አንዳንድ": 9714,
  "▁በቁም": 9715,
  "▁ሳቢያ": 9716,
  "▁ሊኖራቸው": 9717,
  "▁የሚፈጸም": 9718,
  "▁ቢደርስ": 9719,
  "▁በስብሰባው": 9720,
  "▁crush": 9721,
  "▁accord": 9722,
  "▁publicly": 9723,
  "▁ለሆኑት": 9724,
  "will": 9725,
  "በዚህ": 9726,
  "▁rewarded": 9727,
  "your": 9728,
  "▁አለው፧": 9729,
  "▁ስለምታ": 9730,
  "▁በመካከለኛው": 9731,
  "▁አትችልም": 9732,
  "▁ጭፍን": 9733,
  "▁የሰራዊቱ": 9734,
  "▁ካደረግን": 9735,
  "▁የክልሉ": 9736,
  "▁rahab": 9737,
  "ፈተና": 9738,
  "▁የሚመለከት": 9739,
  "▁ይዛችሁ": 9740,
  "▁ከሩቅ": 9741,
  "▁መስዋእትነት": 9742,
  "▁ያስባሉ": 9743,
  "▁ጠየቅ": 9744,
  "▁ተቀበሉ": 9745,
  "▁earnestly": 9746,
  "▁ለጌታ": 9747,
  "▁touches": 9748,
  "▁ያገለግሉ": 9749,
  "▁ሰሚ": 9750,
  "▁crying": 9751,
  "▁ምስራቹ": 9752,
  "ሌሎች": 9753,
  "▁ታውቋል።": 9754,
  "▁cow": 9755,
  "off": 9756,
  "▁preserved": 9757,
  "▁reflected": 9758,
  "▁ህዝባዊ": 9759,
  "▁በቅዱስ": 9760,
  "▁በአሜሪካ": 9761,
  "▁readers": 9762,
  "ጠቅላይ": 9763,
  "▁እንዲደርስ": 9764,
  "▁Noriega": 9765,
  "▁administrator": 9766,
  "▁bishop": 9767,
  "▁export": 9768,
  "▁independent": 9769,
  "▁principal": 9770,
  "▁recreation": 9771,
  "▁ቆርጦ": 9772,
  "▁አይኖርብንም": 9773,
  "▁የማገልገል": 9774,
  "▁ያደርገናል": 9775,
  "▁injured": 9776,
  "▁የምናደርግ": 9777,
  "▁የደረሱ": 9778,
  "▁ደርሷል": 9779,
  "▁behave": 9780,
  "▁እጥረት": 9781,
  "መንግስተ": 9782,
  "▁የሆናቸው": 9783,
  "▁referring": 9784,
  "▁ስለሌለ": 9785,
  "ጠፋቸው": 9786,
  "▁የሰዎች": 9787,
  "▁summoned": 9788,
  "▁እድሜያቸው": 9789,
  "serve": 9790,
  "እናቴ": 9791,
  "አዲሱ": 9792,
  "▁ከከተማ": 9793,
  "▁Ze": 9794,
  "▁ባደረገው": 9795,
  "▁የመታሰቢያ": 9796,
  "▁En": 9797,
  "▁ክፉውን": 9798,
  "▁ዋነኛው": 9799,
  "▁አገሪቱ": 9800,
  "ኖራችሁ": 9801,
  "ላቸዋለሁ": 9802,
  "▁የመስጠት": 9803,
  "ለመሆኑ": 9804,
  "▁shouting": 9805,
  "▁joint": 9806,
  "▁ሲሰጥ": 9807,
  "▁spending": 9808,
  "ረጋግጥ": 9809,
  "▁Benjamin": 9810,
  "▁grace": 9811,
  "▁remote": 9812,
  "▁finance": 9813,
  "▁missionaries": 9814,
  "▁salary": 9815,
  "▁savior": 9816,
  "▁siege": 9817,
  "▁testify": 9818,
  "▁ከዮርዳኖስ": 9819,
  "▁disperse": 9820,
  "▁ለመጠየቅ": 9821,
  "▁አዳራሹ": 9822,
  "▁terrorist": 9823,
  "▁መምረጥ": 9824,
  "▁አሮጌ": 9825,
  "▁ውጤቱ": 9826,
  "▁ጣኦት": 9827,
  "▁ማሳለፍ": 9828,
  "▁ክቡር": 9829,
  "▁ከወይን": 9830,
  "▁ወሰነ": 9831,
  "▁የምትችል": 9832,
  "▁በአባቱ": 9833,
  "▁የፈጠራ": 9834,
  "▁ቁስል": 9835,
  "▁bill": 9836,
  "▁ለመደገፍ": 9837,
  "▁aroma": 9838,
  "▁ቲቶ": 9839,
  "▁በተደረገ": 9840,
  "love": 9841,
  "▁cleansed": 9842,
  "▁በጦርነት": 9843,
  "▁በጉዳዩ": 9844,
  "▁obeying": 9845,
  "መሳሰሉ": 9846,
  "▁ብሆን": 9847,
  "▁እንግዶች": 9848,
  "▁ይገኛሉ።": 9849,
  "house": 9850,
  "ነገስታት": 9851,
  "K": 9852,
  "declares": 9853,
  "▁extreme": 9854,
  "ezek": 9855,
  "፪": 9856,
  "▁frighten": 9857,
  "▁prohibit": 9858,
  "EPRDF": 9859,
  "ኮምፒዩተር": 9860,
  "▁arrogant": 9861,
  "▁bridegroom": 9862,
  "▁disagree": 9863,
  "▁noriega": 9864,
  "▁possibly": 9865,
  "▁reputation": 9866,
  "▁ለልጆቻቸው": 9867,
  "▁ኢዮስያስ": 9868,
  "▁እየተናገረ": 9869,
  "▁እናገራለሁ": 9870,
  "▁የሁለቱ": 9871,
  "▁compassionate": 9872,
  "▁ኤፍሬም": 9873,
  "▁hired": 9874,
  "▁carved": 9875,
  "▁ማደሪያ": 9876,
  "▁በራሳችን": 9877,
  "▁sodom": 9878,
  "▁ዘጠኝ": 9879,
  "▁ከወርቅ": 9880,
  "▁resentment": 9881,
  "▁consistent": 9882,
  "▁መሃሪ": 9883,
  "▁ሴሎች": 9884,
  "▁hunger": 9885,
  "▁መለሱ": 9886,
  "▁fruitful": 9887,
  "▁ተፈጻሚነት": 9888,
  "▁ይዘት": 9889,
  "▁nobody": 9890,
  "▁boil": 9891,
  "▁ዘምሩ": 9892,
  "Go": 9893,
  "▁ከአባቱ": 9894,
  "▁በሰማርያ": 9895,
  "▁አብዛኛው": 9896,
  "▁700": 9897,
  "▁survived": 9898,
  "▁አገራቸው": 9899,
  "▁pity": 9900,
  "▁ሽማግሌዎቹ": 9901,
  "▁130": 9902,
  "33": 9903,
  "▁ሀዋርያ": 9904,
  "▁ጎል": 9905,
  "▁adorn": 9906,
  "▁cooperate": 9907,
  "▁england": 9908,
  "▁memory": 9909,
  "▁october": 9910,
  "▁ponder": 9911,
  "▁suicide": 9912,
  "▁ሰነዶች": 9913,
  "▁ሲያጋጥሙ": 9914,
  "▁በሌለበት": 9915,
  "▁አዘጋጁ": 9916,
  "▁የሚያጽናና": 9917,
  "▁threatened": 9918,
  "▁ሰጥተዋል": 9919,
  "▁ይመስለኛል": 9920,
  "▁firearm": 9921,
  "▁ክብደት": 9922,
  "▁ይግባኝ": 9923,
  "▁አርአያ": 9924,
  "▁የምክር": 9925,
  "▁የክልል": 9926,
  "▁ወቅቶች": 9927,
  "▁alert": 9928,
  "▁መጠጣት": 9929,
  "▁establishment": 9930,
  "▁ቀጥተኛ": 9931,
  "▁በአካል": 9932,
  "▁tempted": 9933,
  "▁በመጠበቅ": 9934,
  "▁spreading": 9935,
  "▁150": 9936,
  "▁bone": 9937,
  "▁ሊሰጥ": 9938,
  "Look": 9939,
  "ደግሞም": 9940,
  "ትራክ": 9941,
  "▁ከመሆን": 9942,
  "▁አልሰማ": 9943,
  "ባለስልጣናቱ": 9944,
  "▁accompany": 9945,
  "▁defect": 9946,
  "▁dominate": 9947,
  "▁leviticus": 9948,
  "▁naomi": 9949,
  "▁observing": 9950,
  "▁poison": 9951,
  "▁ለመስበክ": 9952,
  "▁በአቅራቢያ": 9953,
  "▁ኮምፒውተር": 9954,
  "▁drove": 9955,
  "▁አላደረገ": 9956,
  "▁ephod": 9957,
  "▁dollar": 9958,
  "▁prize": 9959,
  "▁ከጥንት": 9960,
  "▁ታይቶ": 9961,
  "▁ያድርግ": 9962,
  "▁boaz": 9963,
  "▁vote": 9964,
  "▁native": 9965,
  "▁የአባቱን": 9966,
  "▁Most": 9967,
  "▁መጠንቀቅ": 9968,
  "▁በረሃብ": 9969,
  "▁በሚመለከት": 9970,
  "▁እንዲጠፋ": 9971,
  "▁ይሰማኝ": 9972,
  "ፍቅር": 9973,
  "▁rejoiced": 9974,
  "▁cometh": 9975,
  "▁ማንንም": 9976,
  "▁arrest": 9977,
  "▁touching": 9978,
  "▁103": 9979,
  "ከዚህ": 9980,
  "▁flu": 9981,
  "እህሉ": 9982,
  "ending": 9983,
  "▁መሆናችን": 9984,
  "▁ጓደኛዬ": 9985,
  "ዘገበው": 9986,
  "▁bottom": 9987,
  "▁ceremony": 9988,
  "▁efficient": 9989,
  "▁extraordinary": 9990,
  "▁fundamental": 9991,
  "▁historian": 9992,
  "▁initiative": 9993,
  "▁involving": 9994,
  "▁lebanon": 9995,
  "▁pursuit": 9996,
  "▁variety": 9997,
  "▁zedekiah": 9998,
  "▁ለመገንባት": 9999,
  "▁በአድናቆት": 10000,
  "▁ተሰሎንቄ": 10001,
  "▁አደባባይ": 10002,
  "▁የጽሁፍ": 10003,
  "▁ፍቅራዊ": 10004,
  "▁offense": 10005,
  "▁refine": 10006,
  "▁በእጃቸው": 10007,
  "▁fury": 10008,
  "▁እግሮቹ": 10009,
  "▁dining": 10010,
  "▁ኮከብ": 10011,
  "▁upper": 10012,
  "▁ጠላቶቻቸው": 10013,
  "▁ፈረስ": 10014,
  "ግብዝነት": 10015,
  "▁reprove": 10016,
  "▁ስምምነቱ": 10017,
  "▁jealousy": 10018,
  "▁1980": 10019,
  "▁ይሞላ": 10020,
  "▁ቀሪዎች": 10021,
  "▁ነጠላ": 10022,
  "▁melt": 10023,
  "ተባሉ": 10024,
  "\"'\"": 10025,
  "▁ለህይወት": 10026,
  "▁ይገኛሉ": 10027,
  "▁እያንዳንዳችሁ": 10028,
  "▁ግብረ": 10029,
  "▁እየመራ": 10030,
  "▁ሆንክ": 10031,
  "▁በራስህ": 10032,
  "15": 10033,
  "መገዛት": 10034,
  "▁mad": 10035,
  "▁connect": 10036,
  "▁ski": 10037,
  "▁correspond": 10038,
  "▁ስላደረገ": 10039,
  "▁በሚያደርጉ": 10040,
  "▁በተራራው": 10041,
  "▁እንሆናለን": 10042,
  "▁እየደረሰ": 10043,
  "▁የሙዚቃ": 10044,
  "▁predict": 10045,
  "▁ችያለሁ": 10046,
  "▁limitations": 10047,
  "▁ጠብቀው": 10048,
  "▁አንደበት": 10049,
  "▁poll": 10050,
  "▁ministerial": 10051,
  "▁እርሻው": 10052,
  "▁በጦር": 10053,
  "▁armor": 10054,
  "▁የሚገዛ": 10055,
  "▁ከጥፋት": 10056,
  "▁ነበረባቸው": 10057,
  "▁ይረዳቸዋል": 10058,
  "▁happening": 10059,
  "josh": 10060,
  "▁wisely": 10061,
  "▁በእነዚያ": 10062,
  "▁accuse": 10063,
  "▁fatherless": 10064,
  "▁አባታቸው": 10065,
  "born": 10066,
  "ገንዘቡ": 10067,
  "▁Babylon": 10068,
  "▁Canaan": 10069,
  "▁december": 10070,
  "▁demonstration": 10071,
  "▁distinguish": 10072,
  "▁historical": 10073,
  "▁persist": 10074,
  "▁pursuing": 10075,
  "▁resolution": 10076,
  "▁sackcloth": 10077,
  "▁ለመገናኘት": 10078,
  "▁ለመፍጠር": 10079,
  "▁መከላከል": 10080,
  "▁አውሮፕላን": 10081,
  "▁ያስወግዳል": 10082,
  "▁ይመለከታል": 10083,
  "▁status": 10084,
  "▁chaldeans": 10085,
  "▁እንድታደርግ": 10086,
  "▁የሚመስሉ": 10087,
  "▁ገለጹ": 10088,
  "▁ጠቅሶ": 10089,
  "▁መምጣቱ": 10090,
  "ቋረጠ": 10091,
  "ተገረዙ": 10092,
  "▁fitting": 10093,
  "state": 10094,
  "▁የሚያረጋግጥ": 10095,
  "▁ይሞታል": 10096,
  "▁የምናሴ": 10097,
  "▁ለመታዘዝ": 10098,
  "▁አግባብነት": 10099,
  "▁በአንደኛው": 10100,
  "▁ken": 10101,
  "ሌሊት": 10102,
  "▁deepen": 10103,
  "▁reduced": 10104,
  "▁aspect": 10105,
  "▁ወታደሮቹ": 10106,
  "▁እያንዳንዳችን": 10107,
  "▁separated": 10108,
  "▁የአይሁዳውያን": 10109,
  "እህል": 10110,
  "▁ቅጽ": 10111,
  "from": 10112,
  "▁Regional": 10113,
  "▁assault": 10114,
  "▁criticize": 10115,
  "▁eagle": 10116,
  "▁eleazar": 10117,
  "▁exercising": 10118,
  "▁proposal": 10119,
  "▁traffic": 10120,
  "▁ማመልከቻ": 10121,
  "▁ተገንዝቦ": 10122,
  "▁ታሪካዊ": 10123,
  "▁አረጋውያን": 10124,
  "▁እስትንፋስ": 10125,
  "▁ፍንዳታ": 10126,
  "▁groan": 10127,
  "▁impact": 10128,
  "▁latin": 10129,
  "▁ከወሩም": 10130,
  "▁የሚጠብቁ": 10131,
  "▁የተቀመጡ": 10132,
  "▁ያደረግነው": 10133,
  "▁ከእምነት": 10134,
  "▁South": 10135,
  "▁mildness": 10136,
  "▁ይሰራሉ": 10137,
  "▁estimated": 10138,
  "▁ትላለች": 10139,
  "▁አዘነ": 10140,
  "▁ዋሻ": 10141,
  "▁endured": 10142,
  "▁hanging": 10143,
  "▁fee": 10144,
  "▁stir": 10145,
  "▁ተሰበሰቡ": 10146,
  "▁የሞተው": 10147,
  "▁nah": 10148,
  "▁deut": 10149,
  "▁ቆላስይስ": 10150,
  "▁የተነሱ": 10151,
  "▁advanced": 10152,
  "Article": 10153,
  "መንፈስ": 10154,
  "▁construct": 10155,
  "▁mom": 10156,
  "▁british": 10157,
  "▁penalty": 10158,
  "▁smile": 10159,
  "▁trinity": 10160,
  "▁ማሰልጠን": 10161,
  "▁ማእከላዊ": 10162,
  "▁የሚቃጠለው": 10163,
  "▁ህጻኑ": 10164,
  "▁በሃሰት": 10165,
  "▁በማንበብ": 10166,
  "▁subdue": 10167,
  "▁መሰብሰብ": 10168,
  "▁ግርጌ": 10169,
  "▁ይኑራችሁ": 10170,
  "▁till": 10171,
  "▁micro": 10172,
  "▁በፊታቸው": 10173,
  "▁የላከው": 10174,
  "▁ልጃቸው": 10175,
  "▁infant": 10176,
  "▁ከትዳር": 10177,
  "▁insist": 10178,
  "▁ሰለባ": 10179,
  "▁countless": 10180,
  "▁እያለሁ": 10181,
  "▁ፈራጅ": 10182,
  "▁lawful": 10183,
  "▁መራራ": 10184,
  "▁የሄደ": 10185,
  "▁(23": 10186,
  "▁persecuted": 10187,
  "▁vessel": 10188,
  "▁የሚሰማቸው": 10189,
  "▁missing": 10190,
  "▁አዘጋጀ": 10191,
  "▁63": 10192,
  "▁weeds": 10193,
  "▁ሆነዋል።": 10194,
  "▁consist": 10195,
  "▁armageddon": 10196,
  "▁dawn": 10197,
  "▁diplomatic": 10198,
  "▁manuscript": 10199,
  "▁mosaic": 10200,
  "▁permission": 10201,
  "▁shelter": 10202,
  "▁slander": 10203,
  "▁smote": 10204,
  "▁ሊያስከትል": 10205,
  "▁ልጇን": 10206,
  "▁በአክብሮት": 10207,
  "▁በየቤተሰባቸው": 10208,
  "▁ትፈልጋለህ": 10209,
  "▁ፖፕ": 10210,
  "▁martha": 10211,
  "▁restrict": 10212,
  "▁የጥበብ": 10213,
  "▁የሚቃጠሉ": 10214,
  "▁beneath": 10215,
  "▁እንዲጠብቁ": 10216,
  "▁ንገራቸው": 10217,
  "▁ለመውጣት": 10218,
  "▁የሚያቀርቡት": 10219,
  "▁tip": 10220,
  "▁በንግድ": 10221,
  "▁በመስክ": 10222,
  "ሰበሰብ": 10223,
  "▁submitted": 10224,
  "▁abide": 10225,
  "▁stability": 10226,
  "▁እምነታችን": 10227,
  "▁ያቀረበ": 10228,
  "▁ለኢትዮጵያ": 10229,
  "▁eighth": 10230,
  "▁mail": 10231,
  "▁lean": 10232,
  "▁soldier": 10233,
  "▁ከመጀመሪያ": 10234,
  "▁ጠባቂዎች": 10235,
  "▁ይሰማሃል": 10236,
  "▁ከሚገኙት": 10237,
  "▁የተሞላበት": 10238,
  "▁በእለት": 10239,
  "▁despise": 10240,
  "▁enabled": 10241,
  "▁ዝርያ": 10242,
  "member": 10243,
  "ጻድቅ": 10244,
  "▁demon": 10245,
  "▁extra": 10246,
  "▁According": 10247,
  "▁adversaries": 10248,
  "▁applicable": 10249,
  "▁አልፈልግም": 10250,
  "▁የመጠበቂያ": 10251,
  "▁የፋሲካ": 10252,
  "▁በንጹህ": 10253,
  "▁amorites": 10254,
  "▁ትብብር": 10255,
  "▁በቀድሞ": 10256,
  "▁elected": 10257,
  "▁scar": 10258,
  "▁Also": 10259,
  "▁fond": 10260,
  "▁pound": 10261,
  "▁developing": 10262,
  "▁lovingly": 10263,
  "▁utterly": 10264,
  "▁ደህና": 10265,
  "▁Say": 10266,
  "▁ተገኘ": 10267,
  "▁dismissed": 10268,
  "▁Beth": 10269,
  "አዛር": 10270,
  "▁እሺ": 10271,
  "power": 10272,
  "▁shake": 10273,
  "▁ይለዋል": 10274,
  "▁transgress": 10275,
  "▁desperate": 10276,
  "▁striking": 10277,
  "▁unknown": 10278,
  "▁ለጥቂት": 10279,
  "▁ተጽፏል": 10280,
  "▁ወላጆቹ": 10281,
  "▁spice": 10282,
  "▁shop": 10283,
  "▁ለማጥናት": 10284,
  "▁ተጽፎ": 10285,
  "▁Egyptians": 10286,
  "▁የሃይል": 10287,
  "▁Give": 10288,
  "▁በመታሰቢያው": 10289,
  "▁በሚሆንበት": 10290,
  "▁ያጽናና": 10291,
  "▁ንግስት": 10292,
  "▁ያስገኝልናል": 10293,
  "▁እስከዚያ": 10294,
  "▁beaten": 10295,
  "▁ያቀረቡት": 10296,
  "▁ያሏቸው": 10297,
  "▁ባርነት": 10298,
  "▁የወለደ": 10299,
  "ኢትዮ": 10300,
  "▁Some": 10301,
  "▁ለጦርነት": 10302,
  "▁የተነገረው": 10303,
  "ፍጥረት": 10304,
  "▁eagerly": 10305,
  "▁የሚያስፈራ": 10306,
  "▁75": 10307,
  "▁ከነበረ": 10308,
  "▁clothe": 10309,
  "▁የሚያነሳ": 10310,
  "▁rendered": 10311,
  "▁ይረዳል": 10312,
  "▁churches": 10313,
  "▁properly": 10314,
  "▁የሚጠራው": 10315,
  "▁ጽፏል፥": 10316,
  "▁utter": 10317,
  "▁ይከብ": 10318,
  "▁flowing": 10319,
  "date": 10320,
  "▁borrow": 10321,
  "▁nuclear": 10322,
  "▁sport": 10323,
  "▁የተቀረጸ": 10324,
  "▁የወደፊቱ": 10325,
  "▁በማጥናት": 10326,
  "▁በማድረጉ": 10327,
  "▁ክልሎች": 10328,
  "▁dried": 10329,
  "▁ማህተም": 10330,
  "▁roll": 10331,
  "▁Without": 10332,
  "▁exert": 10333,
  "▁ቀለል": 10334,
  "መንገዳቸው": 10335,
  "▁ከራሱ": 10336,
  "▁ማሳደግ": 10337,
  "▁humiliated": 10338,
  "▁ስለመሆኑ": 10339,
  "▁everywhere": 10340,
  "▁በጋራ": 10341,
  "ባልንጀራህ": 10342,
  "▁የተመሰረቱ": 10343,
  "▁ሽባ": 10344,
  "▁distributed": 10345,
  "▁subjection": 10346,
  "▁ዘጸ": 10347,
  "▁ካለፈ": 10348,
  "▁outset": 10349,
  "▁አስታውቋል።": 10350,
  "▁ይኖርብናል፧": 10351,
  "▁በሃጢአት": 10352,
  "▁በጽዮን": 10353,
  "▁ሲፈጸም": 10354,
  "▁ጓደኛቸው": 10355,
  "▁naked": 10356,
  "▁WHEREAS": 10357,
  "▁college": 10358,
  "▁pestilence": 10359,
  "▁ripped": 10360,
  "▁ለመፈለግ": 10361,
  "▁መፈለግ": 10362,
  "▁በመጥቀስ": 10363,
  "▁በተፈጥሮ": 10364,
  "▁በውስጤ": 10365,
  "▁ተከታታይ": 10366,
  "▁አግኝቻለሁ": 10367,
  "▁እርግማን": 10368,
  "▁ዘላለም": 10369,
  "▁የአውሮፓ": 10370,
  "▁ይወርሳሉ": 10371,
  "▁ፍጹማን": 10372,
  "▁distinct": 10373,
  "▁editor": 10374,
  "▁ለማሻሻል": 10375,
  "▁pagan": 10376,
  "▁አጥጋቢ": 10377,
  "▁የሚገርመው": 10378,
  "▁High": 10379,
  "▁ሲደርሱ": 10380,
  "▁competence": 10381,
  "▁ዜጋ": 10382,
  "▁እንዲወጣ": 10383,
  "▁የገለጸው": 10384,
  "▁cancer": 10385,
  "▁torment": 10386,
  "ፈቃድ": 10387,
  "▁collected": 10388,
  "▁መሆኗን": 10389,
  "▁ክምር": 10390,
  "▁ለመላው": 10391,
  "▁ስሜታዊ": 10392,
  "▁ይነሳሉ": 10393,
  "▁assembled": 10394,
  "▁መደገፍ": 10395,
  "▁upset": 10396,
  "▁በነቢዩ": 10397,
  "▁ስመለከት": 10398,
  "▁tools": 10399,
  "▁ስሜቶች": 10400,
  "እግሬ": 10401,
  "Nor": 10402,
  "▁ሱፍ": 10403,
  "▁motivate": 10404,
  "▁legally": 10405,
  "እረፍት": 10406,
  "ስምኦን": 10407,
  "ጴ": 10408,
  "▁immortal": 10409,
  "አይሁዳውያኑ": 10410,
  "ጸሃፍት": 10411,
  "ፕሬዚዳንቱ": 10412,
  "▁anguish": 10413,
  "▁boundaries": 10414,
  "▁deception": 10415,
  "▁gracious": 10416,
  "▁mistreat": 10417,
  "▁persuade": 10418,
  "▁surrender": 10419,
  "▁ባልንጀሮቹ": 10420,
  "▁አምባሳደር": 10421,
  "▁ከነአናውያን": 10422,
  "▁ኮረብታ": 10423,
  "▁የሚያመለክት": 10424,
  "▁የስኳር": 10425,
  "▁bribe": 10426,
  "▁drank": 10427,
  "▁strict": 10428,
  "▁ተመልክቶ": 10429,
  "▁shechem": 10430,
  "▁እንደማይቀር": 10431,
  "▁minor": 10432,
  "▁እየሆነ": 10433,
  "▁ወታደር": 10434,
  "▁ሞክሩ": 10435,
  "▁ባለጸጋ": 10436,
  "▁በማደሪያ": 10437,
  "▁ዶላር": 10438,
  "▁ጮኸ": 10439,
  "▁losing": 10440,
  "▁jehu": 10441,
  "▁እንደሆንን": 10442,
  "▁ጭንቅ": 10443,
  "▁ለመወሰን": 10444,
  "▁እንደሚያስብ": 10445,
  "▁inspiring": 10446,
  "▁በትንሳኤ": 10447,
  "▁ሃላፊዎች": 10448,
  "▁cubit": 10449,
  "▁የጽዮን": 10450,
  "▁አመቷ": 10451,
  "▁የሚገባቸው": 10452,
  "▁የእለት": 10453,
  "▁ከተባለ": 10454,
  "lecommunications": 10455,
  "▁38)": 10456,
  "ልማት": 10457,
  "▁emperor": 10458,
  "▁familiar": 10459,
  "▁indignation": 10460,
  "▁ከሁለቱ": 10461,
  "▁የመግዛት": 10462,
  "▁ፖሊሶች": 10463,
  "▁የላከኝ": 10464,
  "▁መነጋገር": 10465,
  "▁revolt": 10466,
  "▁የተመካው": 10467,
  "▁በመነሳት": 10468,
  "▁ገመድ": 10469,
  "▁የተለዩ": 10470,
  "▁trustworthy": 10471,
  "▁የበዛ": 10472,
  "▁አምላኪዎች": 10473,
  "▁ያያሉ": 10474,
  "head": 10475,
  "▁ለመንፈሳዊ": 10476,
  "▁መንገዱ": 10477,
  "▁ቀረበ": 10478,
  "Selah": 10479,
  "▁ስላላቸው": 10480,
  "ክርስቲያኖች": 10481,
  "▁scorn": 10482,
  "▁cyrus": 10483,
  "▁deposit": 10484,
  "▁draft": 10485,
  "▁holiness": 10486,
  "▁operate": 10487,
  "▁preceding": 10488,
  "▁tobacco": 10489,
  "▁ቀለበቶች": 10490,
  "▁በመመልከት": 10491,
  "▁በየሳምንቱ": 10492,
  "▁ተያያዥ": 10493,
  "▁አጠቃቀም": 10494,
  "▁እስማኤል": 10495,
  "▁የሸክላ": 10496,
  "▁የተንጸባረቀበት": 10497,
  "▁የተደነገገው": 10498,
  "▁ቢችልም": 10499,
  "▁ያካትታል": 10500,
  "▁ለራስህ": 10501,
  "▁የካቲት": 10502,
  "▁ጉብኝት": 10503,
  "▁abound": 10504,
  "▁የወይራ": 10505,
  "▁ከፊቱ": 10506,
  "ልኡሉ": 10507,
  "▁ጭቃ": 10508,
  "▁ረአብ": 10509,
  "▁የጦርነት": 10510,
  "▁Noah": 10511,
  "▁ተገለጸ": 10512,
  "▁punished": 10513,
  "▁39)": 10514,
  "▁ሌባ": 10515,
  "▁replace": 10516,
  "▁hang": 10517,
  "▁fan": 10518,
  "▁lend": 10519,
  "አምላኬ": 10520,
  "▁german": 10521,
  "▁Oromia": 10522,
  "▁comparison": 10523,
  "▁confusion": 10524,
  "▁screen": 10525,
  "▁ትርጉሙ": 10526,
  "▁ትእዛዙ": 10527,
  "▁ንጉሳዊ": 10528,
  "▁አበኔር": 10529,
  "▁አክሊል": 10530,
  "▁ድክመት": 10531,
  "▁ጎላ": 10532,
  "▁murmur": 10533,
  "▁ሃቀኝነት": 10534,
  "▁ታማኙ": 10535,
  "▁ደሞዝ": 10536,
  "▁በጻፈው": 10537,
  "▁ከቀድሞ": 10538,
  "▁በተሞላ": 10539,
  "▁የአሶር": 10540,
  "▁ታጋሽ": 10541,
  "▁ከአምስት": 10542,
  "▁ሄጄ": 10543,
  "▁መዳብ": 10544,
  "▁ከልቡ": 10545,
  "▁correction": 10546,
  "▁ከሚገኙ": 10547,
  "▁ኤፍ": 10548,
  "▁ኑሩ": 10549,
  "▁የተወሰዱ": 10550,
  "▁surround": 10551,
  "▁adopted": 10552,
  "▁አንዴ": 10553,
  "ለደረሰ": 10554,
  "▁secretly": 10555,
  "▁ጥለው": 10556,
  "ፊልጵስዩስ": 10557,
  "▁intent": 10558,
  "▁Notwithstanding": 10559,
  "▁abusive": 10560,
  "▁begotten": 10561,
  "▁changing": 10562,
  "▁chemical": 10563,
  "▁inclination": 10564,
  "▁judas": 10565,
  "▁parliament": 10566,
  "▁በሃቀኝነት": 10567,
  "▁እምብዛም": 10568,
  "▁ለማሟላት": 10569,
  "▁ማእበል": 10570,
  "▁ሃፍረት": 10571,
  "▁እንዲሰፍን": 10572,
  "▁ድርጊቱ": 10573,
  "▁በአጭሩ": 10574,
  "▁ቀጣይ": 10575,
  "▁robert": 10576,
  "▁በክልሉ": 10577,
  "▁tail": 10578,
  "▁በመምጣት": 10579,
  "▁በሜዳ": 10580,
  "▁afar": 10581,
  "ማህበረ": 10582,
  "▁plow": 10583,
  "▁suspended": 10584,
  "ተስፋ": 10585,
  "▁overtake": 10586,
  "▁የግሪክኛ": 10587,
  "▁የቻለ": 10588,
  "▁ዝቅተኛ": 10589,
  "▁belt": 10590,
  "▁pull": 10591,
  "▁ከደቀ": 10592,
  "after": 10593,
  "አምላካችሁ": 10594,
  "Why": 10595,
  "ጻድቃን": 10596,
  "▁pilate": 10597,
  "▁violation": 10598,
  "▁ለመመስረት": 10599,
  "▁ሬዲዮ": 10600,
  "▁ሰሎሞን": 10601,
  "▁በሰራዊቱ": 10602,
  "▁ከተወሰነ": 10603,
  "▁ዘግቧል": 10604,
  "▁ያገለግላሉ": 10605,
  "▁Since": 10606,
  "▁applies": 10607,
  "▁አናውቅም": 10608,
  "▁wrongdoing": 10609,
  "▁pool": 10610,
  "▁wilt": 10611,
  "▁ብድራት": 10612,
  "▁sorry": 10613,
  "▁የውስጥ": 10614,
  "▁ሃኪም": 10615,
  "▁ጽንፈ": 10616,
  "▁የሚያምኑ": 10617,
  "▁somali": 10618,
  "▁foolishness": 10619,
  "▁owe": 10620,
  "▁መልእክቱን": 10621,
  "▁የምፈልገው": 10622,
  "▁ይገደል": 10623,
  "▁extremely": 10624,
  "▁fixed": 10625,
  "▁replaced": 10626,
  "▁ለመጨረሻ": 10627,
  "▁በነጻነት": 10628,
  "መታሰቢያ": 10629,
  "▁prince": 10630,
  "▁73": 10631,
  "ask": 10632,
  "▁corinth": 10633,
  "▁footnote": 10634,
  "▁ishmael": 10635,
  "▁መሳፍንት": 10636,
  "▁መኳንንቱ": 10637,
  "▁በሩሲያ": 10638,
  "▁አልነበራቸውም": 10639,
  "▁እንደተገለጸው": 10640,
  "▁ፊልጶስ": 10641,
  "▁አስታውቀዋል": 10642,
  "▁እወዳለሁ": 10643,
  "▁stead": 10644,
  "▁የመገናኛ": 10645,
  "▁Work": 10646,
  "▁ሮማውያን": 10647,
  "▁contend": 10648,
  "▁ፈቀቅ": 10649,
  "▁በአየር": 10650,
  "▁ይናገሩ": 10651,
  "▁ease": 10652,
  "▁recommendation": 10653,
  "▁italy": 10654,
  "▁ashes": 10655,
  "▁የወሰነ": 10656,
  "▁shaken": 10657,
  "▁በጌታችን": 10658,
  "▁በስነ": 10659,
  "▁(24": 10660,
  "▁250": 10661,
  "▁motivated": 10662,
  "▁ወሰንኩ": 10663,
  "▁በአደራ": 10664,
  "▁supporters": 10665,
  "▁inherited": 10666,
  "▁shekel": 10667,
  "▁weighing": 10668,
  "▁ርቆ": 10669,
  "▁68": 10670,
  "▁ተቀበለ": 10671,
  "▁Agreement": 10672,
  "▁criticism": 10673,
  "▁evangelizer": 10674,
  "▁expensive": 10675,
  "▁priesthood": 10676,
  "▁ለማመልከት": 10677,
  "▁ለዘለቄታው": 10678,
  "▁ማዘጋጀት": 10679,
  "▁ማጠናከር": 10680,
  "▁በአንጻሩ": 10681,
  "▁በዙሪያቸው": 10682,
  "▁አግኝተው": 10683,
  "▁አዘዛቸው": 10684,
  "▁በስውር": 10685,
  "▁መልሼ": 10686,
  "▁ችለናል": 10687,
  "▁Meles": 10688,
  "▁style": 10689,
  "▁ፈልጉ": 10690,
  "▁driving": 10691,
  "▁የመናገር": 10692,
  "▁የተሞሉ": 10693,
  "▁ባረከ": 10694,
  "▁ተንኮል": 10695,
  "▁ልቦና": 10696,
  "▁ከሰፈሩ": 10697,
  "▁ይኑር": 10698,
  "▁ካናዳ": 10699,
  "▁በገነት": 10700,
  "▁imposed": 10701,
  "▁dance": 10702,
  "▁ፊቱ": 10703,
  "▁ገጽታዎች": 10704,
  "▁pulled": 10705,
  "▁የተጣለ": 10706,
  "▁አጥፊ": 10707,
  "▁አብራራ": 10708,
  "▁የመከራ": 10709,
  "▁ተቀበል": 10710,
  "ያገኘው": 10711,
  "did": 10712,
  "፱": 10713,
  "▁blossom": 10714,
  "▁dwelt": 10715,
  "▁mutual": 10716,
  "▁snare": 10717,
  "▁split": 10718,
  "▁telephone": 10719,
  "▁welfare": 10720,
  "▁መሆኔን": 10721,
  "▁በፈረንሳይ": 10722,
  "▁እስራኤላዊ": 10723,
  "▁ክሊንተን": 10724,
  "▁ገጾች": 10725,
  "▁ጓደኞቼ": 10726,
  "▁ፋብሪካ": 10727,
  "▁barley": 10728,
  "▁club": 10729,
  "▁stronghold": 10730,
  "▁ለሁለተኛ": 10731,
  "▁ኣቃቤ": 10732,
  "▁ይወዳል": 10733,
  "▁ወቅታዊ": 10734,
  "▁avenge": 10735,
  "▁ለአባቱ": 10736,
  "▁መሲሁ": 10737,
  "▁ቢንያም": 10738,
  "▁ለትዳር": 10739,
  "▁መጋቢት": 10740,
  "▁ከመዳብ": 10741,
  "▁ይፈልግ": 10742,
  "▁partake": 10743,
  "ስልጣናቸው": 10744,
  "▁ማግባት": 10745,
  "▁ጉድለት": 10746,
  "▁አትፍሩ": 10747,
  "▁እንሂድ": 10748,
  "17": 10749,
  "▁ትላላችሁ": 10750,
  "▁ሞኝነት": 10751,
  "▁ሸሹ": 10752,
  "▁የአባቶች": 10753,
  "▁የሌለባቸው": 10754,
  "▁signal": 10755,
  "▁rendering": 10756,
  "▁expert": 10757,
  "▁83": 10758,
  "▁ቋሚዎች": 10759,
  "ማህበራዊ": 10760,
  "ኹ": 10761,
  "▁Constitution": 10762,
  "▁TPLF": 10763,
  "▁creating": 10764,
  "▁deprive": 10765,
  "▁excellent": 10766,
  "▁fierce": 10767,
  "▁hurled": 10768,
  "▁maturity": 10769,
  "▁ለአደጋ": 10770,
  "▁በመሆናችን": 10771,
  "▁እንሄዳለን": 10772,
  "▁እንደሚገልጸው": 10773,
  "▁ወደሚገኝ": 10774,
  "▁የጥብቅና": 10775,
  "▁ይጠበቃል": 10776,
  "▁በቅዱሱ": 10777,
  "▁ከመሆናቸው": 10778,
  "▁በልባችን": 10779,
  "▁match": 10780,
  "▁calf": 10781,
  "▁የተረገመ": 10782,
  "▁የጀመሩ": 10783,
  "▁ደማቅ": 10784,
  "▁የሰሜን": 10785,
  "▁ማጨስ": 10786,
  "▁ትሰራለህ": 10787,
  "▁sunday": 10788,
  "▁ብዙሃን": 10789,
  "▁ፊቴን": 10790,
  "▁frequently": 10791,
  "ፈነዳ": 10792,
  "▁መሃን": 10793,
  "▁highest": 10794,
  "▁ወርዶ": 10795,
  "▁መኖሩ": 10796,
  "▁Dr": 10797,
  "መግደል": 10798,
  "ከሃዲዎች": 10799,
  "ሁኔታው": 10800,
  "▁Regulation": 10801,
  "▁brotherhood": 10802,
  "▁embassy": 10803,
  "▁perspective": 10804,
  "▁sheikh": 10805,
  "▁technical": 10806,
  "▁track": 10807,
  "▁ለሚቃጠል": 10808,
  "▁ሮበርት": 10809,
  "▁በጊልያድ": 10810,
  "▁አይደለንም": 10811,
  "▁እንደተናገሩት": 10812,
  "▁ክርስቲያናት": 10813,
  "▁ይመሳሰላል": 10814,
  "▁envy": 10815,
  "▁ይመለሳል": 10816,
  "▁ጆርጅ": 10817,
  "▁stray": 10818,
  "▁ማስገባት": 10819,
  "▁ፍላጻ": 10820,
  "▁foretell": 10821,
  "▁ተቀብሎ": 10822,
  "▁አጋማሽ": 10823,
  "▁በሰፊው": 10824,
  "▁እንድንኖር": 10825,
  "▁የሚያስገርም": 10826,
  "▁citizenship": 10827,
  "▁በወይን": 10828,
  "▁ርቀው": 10829,
  "▁ወሰኑ": 10830,
  "▁ውስጠ": 10831,
  "▁ይሰጣቸዋል": 10832,
  "▁eva": 10833,
  "▁የላመ": 10834,
  "▁incite": 10835,
  "▁ወራሪ": 10836,
  "▁አበረታታ": 10837,
  "▁jw": 10838,
  "▁ስፋት": 10839,
  "▁በስብሰባ": 10840,
  "▁ዩኒቨርስቲ": 10841,
  "▁43)": 10842,
  "▁የተመለከቱ": 10843,
  "▁ሊደርስ": 10844,
  "hear": 10845,
  "▁ሃይለ": 10846,
  "break": 10847,
  "proverbs": 10848,
  "ተከተሉ": 10849,
  "▁ቅጂ": 10850,
  "▁exhaust": 10851,
  "አቤሴሎም": 10852,
  "▁AND": 10853,
  "▁Representatives": 10854,
  "▁afford": 10855,
  "▁cheerful": 10856,
  "▁quarrel": 10857,
  "▁smooth": 10858,
  "▁ሃጢአቶች": 10859,
  "▁ሆስፒታል": 10860,
  "▁ለመገኘት": 10861,
  "▁ረቂቅ": 10862,
  "▁ራእዮች": 10863,
  "▁በተሳሳተ": 10864,
  "▁እንዲፈጠር": 10865,
  "▁ይከታተላል": 10866,
  "▁ፍላጎታቸው": 10867,
  "▁ጭቆና": 10868,
  "▁አሞናውያን": 10869,
  "▁ይሞታሉ": 10870,
  "▁ነፍሳት": 10871,
  "▁አደረግኩ": 10872,
  "▁ተከትለው": 10873,
  "▁በታሪክ": 10874,
  "▁አትክልት": 10875,
  "▁ቀጥሏል": 10876,
  "▁weakness": 10877,
  "▁ክፍለ": 10878,
  "▁ተኝቶ": 10879,
  "▁impartial": 10880,
  "፪ሺ": 10881,
  "▁ታናሽ": 10882,
  "▁admitted": 10883,
  "▁hospitality": 10884,
  "▁ጽፎ": 10885,
  "▁disappointed": 10886,
  "▁ያመነ": 10887,
  "▁ሲገባ": 10888,
  "▁ጭስ": 10889,
  "▁በሬዎች": 10890,
  "▁welcomed": 10891,
  "▁ጥጃ": 10892,
  "▁የማሰብ": 10893,
  "▁አለማዊ": 10894,
  "መራው": 10895,
  "▁audit": 10896,
  "▁አትበል": 10897,
  "▁ክፉኛ": 10898,
  "▁thirst": 10899,
  "▁uncle": 10900,
  "firm": 10901,
  "እያንዳንዳቸው": 10902,
  "▁Spirit": 10903,
  "▁advocate": 10904,
  "▁caesar": 10905,
  "▁deliberate": 10906,
  "▁february": 10907,
  "▁fiameta": 10908,
  "▁hannah": 10909,
  "▁trembling": 10910,
  "▁ሮብአም": 10911,
  "▁በርናባስ": 10912,
  "▁በፈርኦን": 10913,
  "▁አስረድተዋል": 10914,
  "▁አቋማችንን": 10915,
  "▁ማምለክ": 10916,
  "▁ከእስር": 10917,
  "▁crag": 10918,
  "▁ምክሮች": 10919,
  "ያስችል": 10920,
  "▁የሰፈረው": 10921,
  "▁ከተገኘ": 10922,
  "▁ለሙሴ": 10923,
  "▁እንደሆንክ": 10924,
  "▁ታደርግ": 10925,
  "▁እንደሚቻል": 10926,
  "▁ከአደጋ": 10927,
  "▁አቧራ": 10928,
  "▁እንደሚገኝ": 10929,
  "▁ቁስሉ": 10930,
  "▁incur": 10931,
  "ስጦታ": 10932,
  "▁ተሞክሮዎች": 10933,
  "▁የፈቀደው": 10934,
  "ልተገኘ": 10935,
  "▁ጭን": 10936,
  "▁ባሎች": 10937,
  "▁ሲመለከቱ": 10938,
  "▁በቀለ": 10939,
  "ዲያብሎስ": 10940,
  "▁EPLF": 10941,
  "▁assurance": 10942,
  "▁declaration": 10943,
  "▁discharge": 10944,
  "▁emphasize": 10945,
  "▁isolated": 10946,
  "▁thyself": 10947,
  "▁መምህራን": 10948,
  "▁መገባደጃ": 10949,
  "▁በድርጅቱ": 10950,
  "▁ተመልክቷል": 10951,
  "▁ተችሏል": 10952,
  "▁አውሮፓ": 10953,
  "▁አግኝቷል": 10954,
  "▁የሚከናወነው": 10955,
  "▁define": 10956,
  "▁funeral": 10957,
  "▁በጥንቷ": 10958,
  "▁ካደረጉ": 10959,
  "▁Court": 10960,
  "▁እንደደረሰ": 10961,
  "▁አሳፋሪ": 10962,
  "▁ለመዋጋት": 10963,
  "▁ስያሜ": 10964,
  "▁missile": 10965,
  "▁መድረክ": 10966,
  "▁readily": 10967,
  "▁ኢኮኖሚያዊ": 10968,
  "▁grandson": 10969,
  "▁ምድሩ": 10970,
  "▁horsemen": 10971,
  "▁አይኖረውም": 10972,
  "▁jonah": 10973,
  "▁አታላይ": 10974,
  "▁ይሰማሃል፧": 10975,
  "▁ይምጣ": 10976,
  "ወንድምህ": 10977,
  "▁initially": 10978,
  "▁ተማሪዎቹ": 10979,
  "▁ይቻላል፧": 10980,
  "▁confirmed": 10981,
  "▁prophetic": 10982,
  "▁ግድያ": 10983,
  "▁ውጡ": 10984,
  "▁resurrect": 10985,
  "▁earnest": 10986,
  "▁የታየ": 10987,
  "▁ከበደ": 10988,
  "▁amend": 10989,
  "back": 10990,
  "J": 10991,
  "▁balaam": 10992,
  "▁childhood": 10993,
  "▁damascus": 10994,
  "▁disregard": 10995,
  "▁eternity": 10996,
  "▁generosity": 10997,
  "▁ordinary": 10998,
  "▁practicing": 10999,
  "▁praising": 11000,
  "▁swarm": 11001,
  "▁ልብሶቹን": 11002,
  "▁መመርመራችን": 11003,
  "▁ስህተቶች": 11004,
  "▁ስልጣኑን": 11005,
  "▁አመስጋኞች": 11006,
  "▁የኾነ": 11007,
  "▁ያደርጋቸዋል": 11008,
  "▁productive": 11009,
  "▁በኤደን": 11010,
  "▁cake": 11011,
  "▁ቅዱሱ": 11012,
  "▁ድንግል": 11013,
  "▁planned": 11014,
  "▁በየወሩ": 11015,
  "▁ጥፋተኛ": 11016,
  "▁የሚያቀርብ": 11017,
  "▁ናሙና": 11018,
  "▁በመርዳት": 11019,
  "▁ውደድ": 11020,
  "▁ongoing": 11021,
  "▁ሃሰተኛ": 11022,
  "▁ሰላሳ": 11023,
  "▁አንባቢ": 11024,
  "▁አይገኝም": 11025,
  "▁ሩጫ": 11026,
  "▁ገርነት": 11027,
  "▁shortage": 11028,
  "▁የሚወደው": 11029,
  "▁willingness": 11030,
  "ሰውየው": 11031,
  "▁የሞላ": 11032,
  "አባቶቻችን": 11033,
  "▁ትላለህ": 11034,
  "▁ባይሆን": 11035,
  "▁treaty": 11036,
  "▁opposed": 11037,
  "▁ጉቦ": 11038,
  "Or": 11039,
  "▁ወስዳ": 11040,
  "▁ምቹ": 11041,
  "▁በልብህ": 11042,
  "▁dismiss": 11043,
  "ኢየሩሳሌም": 11044,
  "▁reminder": 11045,
  "▁devi": 11046,
  "▁advertise": 11047,
  "▁analyze": 11048,
  "▁brazil": 11049,
  "▁deceptive": 11050,
  "▁despair": 11051,
  "▁disappear": 11052,
  "▁disrespect": 11053,
  "▁happily": 11054,
  "▁knock": 11055,
  "▁merchant": 11056,
  "▁prophesied": 11057,
  "▁scourge": 11058,
  "▁shrewd": 11059,
  "▁trample": 11060,
  "▁universal": 11061,
  "▁whatsoever": 11062,
  "▁ማጽናኛ": 11063,
  "▁በበላይነት": 11064,
  "▁ቪዲዮ": 11065,
  "▁ያስተምረናል": 11066,
  "▁ጠቀሜታ": 11067,
  "▁ambush": 11068,
  "▁forbidden": 11069,
  "▁ከረጅም": 11070,
  "▁ሻለቃ": 11071,
  "ድቅድቅ": 11072,
  "▁ይቀርባል": 11073,
  "▁ምልጃ": 11074,
  "▁እንዲቀበሉ": 11075,
  "▁loose": 11076,
  "አመንዝራ": 11077,
  "▁ስብከት": 11078,
  "▁ጽፈዋል": 11079,
  "▁የተቀቡ": 11080,
  "▁standpoint": 11081,
  "▁መሲህ": 11082,
  "▁remark": 11083,
  "ኮንትራ": 11084,
  "▁የሚጠቅም": 11085,
  "▁weaknesses": 11086,
  "▁አያያዝ": 11087,
  "▁በመቃወም": 11088,
  "▁overlook": 11089,
  "▁rub": 11090,
  "▁ቀናተኛ": 11091,
  "▁የሰራተኛ": 11092,
  "▁undergo": 11093,
  "▁እንድሆን": 11094,
  "ተዋቸው": 11095,
  "Get": 11096,
  "▁ከፊትህ": 11097,
  "መመሪያ": 11098,
  "▁አምጡ": 11099,
  "▁sinner": 11100,
  "▁overwhelm": 11101,
  "▁announce": 11102,
  "ታገስ": 11103,
  "bility": 11104,
  "▁abimelech": 11105,
  "▁conscious": 11106,
  "▁disobedient": 11107,
  "▁electronic": 11108,
  "▁exciting": 11109,
  "▁jehoash": 11110,
  "▁machine": 11111,
  "▁ocean": 11112,
  "▁photo": 11113,
  "▁quoting": 11114,
  "▁triumph": 11115,
  "▁የኤፍሬም": 11116,
  "▁1995": 11117,
  "▁ነሃሴ": 11118,
  "▁ንብረቱ": 11119,
  "▁አቅማችን": 11120,
  "▁አታድርጉ": 11121,
  "▁ይፈጽማል": 11122,
  "▁pitched": 11123,
  "▁በመመርመር": 11124,
  "▁አስከባሪ": 11125,
  "▁በላያቸው": 11126,
  "▁outcry": 11127,
  "▁ገልጸው": 11128,
  "▁መጠለያ": 11129,
  "▁ምድራቸው": 11130,
  "▁አበዛ": 11131,
  "▁ጠላቶቹ": 11132,
  "▁ከአባቶቹ": 11133,
  "▁አዳምጡ": 11134,
  "▁ስድብ": 11135,
  "▁ከአለም": 11136,
  "▁በስሙ": 11137,
  "▁መቆም": 11138,
  "▁በሚወስደው": 11139,
  "▁comfortable": 11140,
  "▁sown": 11141,
  "▁emotionally": 11142,
  "▁anna": 11143,
  "▁ተከተል": 11144,
  "▁tire": 11145,
  "▁abner": 11146,
  "▁conference": 11147,
  "▁negotiation": 11148,
  "▁overlaid": 11149,
  "▁quarter": 11150,
  "▁remembrance": 11151,
  "▁species": 11152,
  "▁መጓዝ": 11153,
  "▁ወንዞች": 11154,
  "▁የነዳጅ": 11155,
  "▁ይቆጣጠራል": 11156,
  "▁ከየትኛውም": 11157,
  "▁ጥምቀት": 11158,
  "▁ነዳጅ": 11159,
  "▁ያስችላል": 11160,
  "▁በድብቅ": 11161,
  "▁እንዲመለሱ": 11162,
  "▁ፈሳሽ": 11163,
  "▁ደረሱ": 11164,
  "▁ክፍሉ": 11165,
  "▁ፈገግ": 11166,
  "▁እወቁ": 11167,
  "ተደሰቱ": 11168,
  "▁ሰበብ": 11169,
  "▁flourish": 11170,
  "▁ጓደኛሞች": 11171,
  "▁hereby": 11172,
  "▁presumptuous": 11173,
  "▁ይሰማናል": 11174,
  "▁አለብህ": 11175,
  "▁በልቤ": 11176,
  "▁ሚስቶቻቸው": 11177,
  "▁ቢሞት": 11178,
  "▁የለንም": 11179,
  "▁ጸሃፊዎች": 11180,
  "▁organize": 11181,
  "▁በሶስተኛ": 11182,
  "▁clash": 11183,
  "▁divers": 11184,
  "▁measuring": 11185,
  "▁november": 11186,
  "▁relating": 11187,
  "▁shatter": 11188,
  "▁tigray": 11189,
  "▁vegetation": 11190,
  "▁wrapped": 11191,
  "▁መቁረጥ": 11192,
  "▁ሚስዮናዊ": 11193,
  "▁አቋማቸውን": 11194,
  "▁መፍታት": 11195,
  "▁ለመውጋት": 11196,
  "▁አስቀመጠ": 11197,
  "▁Nations": 11198,
  "▁ሳይኖር": 11199,
  "▁ይሆኑ": 11200,
  "▁lightning": 11201,
  "▁የማያምኑ": 11202,
  "▁የማያውቅ": 11203,
  "▁tyre": 11204,
  "▁ተባባሪ": 11205,
  "▁(6)": 11206,
  "▁የሁለት": 11207,
  "▁fame": 11208,
  "▁begat": 11209,
  "continue": 11210,
  "▁repentant": 11211,
  "▁ዳኞች": 11212,
  "▁African": 11213,
  "▁babylonian": 11214,
  "▁የተቀበለ": 11215,
  "▁attached": 11216,
  "▁despised": 11217,
  "▁ቀጠሉ": 11218,
  "▁በመላክ": 11219,
  "▁ሰገደ": 11220,
  "▁አመቴ": 11221,
  "ጉዳዩ": 11222,
  "▁statute": 11223,
  "ትንሳኤ": 11224,
  "▁ቤቷ": 11225,
  "▁አሳየኝ": 11226,
  "ሳሳቱ": 11227,
  "▁compromise": 11228,
  "▁occupied": 11229,
  "▁reassure": 11230,
  "▁supplies": 11231,
  "▁መድሃኒቶች": 11232,
  "▁መጽሄቶች": 11233,
  "▁ሳይንሳዊ": 11234,
  "▁ንግግሮች": 11235,
  "▁አቅርበዋል": 11236,
  "▁ኤምባሲ": 11237,
  "▁የሚካሄደው": 11238,
  "▁የአምልኮ": 11239,
  "▁ያገለገለ": 11240,
  "▁ለማሸነፍ": 11241,
  "▁የሁለተኛ": 11242,
  "▁ይኖራቸዋል": 11243,
  "▁የትግራይ": 11244,
  "▁ሃሳባቸውን": 11245,
  "▁settlements": 11246,
  "▁ezra": 11247,
  "▁ከጀመረ": 11248,
  "▁የማያውቁ": 11249,
  "▁ስፔን": 11250,
  "▁እንድችል": 11251,
  "▁የሚጠቀምበት": 11252,
  "▁ከሄደ": 11253,
  "▁william": 11254,
  "▁ክንውን": 11255,
  "▁ጠብቀን": 11256,
  "ሰብሳቢ": 11257,
  "የሚለው": 11258,
  "▁አልተቀበ": 11259,
  "▁commendation": 11260,
  "▁range": 11261,
  "▁production": 11262,
  "▁symbolic": 11263,
  "▁(8)": 11264,
  "▁በሰፈሩ": 11265,
  "▁ለማስተዋል": 11266,
  "▁anoint": 11267,
  "ስተዳድር": 11268,
  "▁murderer": 11269,
  "▁አጠፋለሁ": 11270,
  "መርዶክዮስ": 11271,
  "▁characteristic": 11272,
  "▁circumcision": 11273,
  "▁george": 11274,
  "▁obliged": 11275,
  "▁pierce": 11276,
  "▁sanction": 11277,
  "▁ማንጸባረቅ": 11278,
  "▁ሴዴቅያስ": 11279,
  "▁ተያይዞ": 11280,
  "▁ያደረግኩት": 11281,
  "▁extensive": 11282,
  "▁የተናገራቸው": 11283,
  "▁የታጠቁ": 11284,
  "▁ማሟላት": 11285,
  "▁የምርጫ": 11286,
  "▁rising": 11287,
  "▁ማራኪ": 11288,
  "▁weather": 11289,
  "▁ክሪስ": 11290,
  "▁የምትገኝ": 11291,
  "▁ahaz": 11292,
  "▁ገለባ": 11293,
  "▁በመኪና": 11294,
  "▁ይደርሳል": 11295,
  "▁ሟች": 11296,
  "▁ግትር": 11297,
  "ተከታዮቹ": 11298,
  "▁ውስን": 11299,
  "ነቢያቱ": 11300,
  "▁2010": 11301,
  "▁ቤዛዊ": 11302,
  "▁suit": 11303,
  "▁ተጠንቀቅ": 11304,
  "▁ጥገና": 11305,
  "▁perfection": 11306,
  "year": 11307,
  "▁sinai": 11308,
  "▁van": 11309,
  "▁አባቶቻቸው": 11310,
  "▁ያገባ": 11311,
  "▁rare": 11312,
  "▁ለመንግስት": 11313,
  "በሏቸው": 11314,
  "▁በማየት": 11315,
  "ሰይፍ": 11316,
  "▁inflict": 11317,
  "▁multi": 11318,
  "▁Jonathan": 11319,
  "▁adapt": 11320,
  "▁deborah": 11321,
  "▁ሲያጋጥመን": 11322,
  "▁በአደባባይ": 11323,
  "▁ታህሳስ": 11324,
  "▁አልቻልኩም": 11325,
  "▁አዳራሾች": 11326,
  "▁እባካችሁ": 11327,
  "▁ያስከትላል": 11328,
  "▁ያገለግላል": 11329,
  "▁ፍላጎቱ": 11330,
  "▁መደረቢያ": 11331,
  "▁ባእዳን": 11332,
  "▁ተፈላጊ": 11333,
  "▁አታውቁም": 11334,
  "▁china": 11335,
  "▁ይቀጥላል": 11336,
  "▁uphold": 11337,
  "▁ለመለወጥ": 11338,
  "▁የሚያስችለው": 11339,
  "▁ለመለየት": 11340,
  "▁በደለኛ": 11341,
  "▁tension": 11342,
  "▁invade": 11343,
  "መአህድ": 11344,
  "▁የብረት": 11345,
  "▁ተቀበረ": 11346,
  "▁ለልጁ": 11347,
  "▁አለቀሰ": 11348,
  "▁በምሳሌያዊ": 11349,
  "▁በስልክ": 11350,
  "▁የሚያመጣው": 11351,
  "▁ወረራ": 11352,
  "▁በክልል": 11353,
  "ማስጠንቀቂያ": 11354,
  "▁መረጠ": 11355,
  "quit": 11356,
  "▁የምትፈልገው": 11357,
  "▁singers": 11358,
  "▁ከመሞቱ": 11359,
  "▁ካወጣ": 11360,
  "▁combat": 11361,
  "12": 11362,
  "▁tract": 11363,
  "term": 11364,
  "▁immediate": 11365,
  "▁hung": 11366,
  "▁azariah": 11367,
  "▁biblical": 11368,
  "▁concubine": 11369,
  "▁dictator": 11370,
  "▁dignity": 11371,
  "▁esteem": 11372,
  "▁evaluate": 11373,
  "▁producing": 11374,
  "▁substance": 11375,
  "▁survivor": 11376,
  "▁ለነበረው": 11377,
  "▁መገንባት": 11378,
  "▁በየአባቶቻቸው": 11379,
  "▁ቢሊዮን": 11380,
  "▁አስጨናቂ": 11381,
  "▁የደሀንነት": 11382,
  "▁ይገልጻሉ": 11383,
  "▁ደናግል": 11384,
  "▁ፕሮግራሞች": 11385,
  "▁Haile": 11386,
  "▁ጠቅላላ": 11387,
  "▁laban": 11388,
  "▁overseas": 11389,
  "▁የሚቀጥለው": 11390,
  "▁spokesman": 11391,
  "▁shave": 11392,
  "▁ፎቶ": 11393,
  "▁Other": 11394,
  "▁አውታር": 11395,
  "▁ከአስር": 11396,
  "▁ይናገር": 11397,
[...]
